{
  "version": "1.0",
  "truncation": null,
  "padding": null,
  "added_tokens": [
    {
      "id": 0,
      "content": "[PAD]",
      "single_word": false,
      "lstrip": false,
      "rstrip": false,
      "normalized": false,
      "special": true
    },
    {
      "id": 1,
      "content": "[UNK]",
      "single_word": false,
      "lstrip": false,
      "rstrip": false,
      "normalized": false,
      "special": true
    },
    {
      "id": 2,
      "content": "<|user|>",
      "single_word": false,
      "lstrip": false,
      "rstrip": false,
      "normalized": false,
      "special": true
    },
    {
      "id": 3,
      "content": "<|s.a.i|>",
      "single_word": false,
      "lstrip": false,
      "rstrip": false,
      "normalized": false,
      "special": true
    },
    {
      "id": 4,
      "content": "[MASK]",
      "single_word": false,
      "lstrip": false,
      "rstrip": false,
      "normalized": false,
      "special": true
    },
    {
      "id": 5,
      "content": "[BOS]",
      "single_word": false,
      "lstrip": false,
      "rstrip": false,
      "normalized": false,
      "special": true
    },
    {
      "id": 6,
      "content": "[EOS]",
      "single_word": false,
      "lstrip": false,
      "rstrip": false,
      "normalized": false,
      "special": true
    }
  ],
  "normalizer": {
    "type": "Sequence",
    "normalizers": [
      {
        "type": "Lowercase"
      }
    ]
  },
  "pre_tokenizer": {
    "type": "Whitespace"
  },
  "post_processor": null,
  "decoder": null,
  "model": {
    "type": "BPE",
    "dropout": null,
    "unk_token": null,
    "continuing_subword_prefix": null,
    "end_of_word_suffix": null,
    "fuse_unk": false,
    "byte_fallback": false,
    "ignore_merges": false,
    "vocab": {
      "[PAD]": 0,
      "[UNK]": 1,
      "<|user|>": 2,
      "<|s.a.i|>": 3,
      "[MASK]": 4,
      "[BOS]": 5,
      "[EOS]": 6,
      "!": 7,
      "\"": 8,
      "#": 9,
      "$": 10,
      "%": 11,
      "&": 12,
      "'": 13,
      "(": 14,
      ")": 15,
      "*": 16,
      "+": 17,
      ",": 18,
      "-": 19,
      ".": 20,
      "/": 21,
      "0": 22,
      "1": 23,
      "2": 24,
      "3": 25,
      "4": 26,
      "5": 27,
      "6": 28,
      "7": 29,
      "8": 30,
      "9": 31,
      ":": 32,
      ";": 33,
      "<": 34,
      "=": 35,
      ">": 36,
      "?": 37,
      "@": 38,
      "[": 39,
      "\\": 40,
      "]": 41,
      "^": 42,
      "_": 43,
      "`": 44,
      "a": 45,
      "b": 46,
      "c": 47,
      "d": 48,
      "e": 49,
      "f": 50,
      "g": 51,
      "h": 52,
      "i": 53,
      "j": 54,
      "k": 55,
      "l": 56,
      "m": 57,
      "n": 58,
      "o": 59,
      "p": 60,
      "q": 61,
      "r": 62,
      "s": 63,
      "t": 64,
      "u": 65,
      "v": 66,
      "w": 67,
      "x": 68,
      "y": 69,
      "z": 70,
      "{": 71,
      "|": 72,
      "}": 73,
      "~": 74,
      "¡": 75,
      "¢": 76,
      "£": 77,
      "¥": 78,
      "­": 79,
      "°": 80,
      "±": 81,
      "²": 82,
      "³": 83,
      "µ": 84,
      "·": 85,
      "½": 86,
      "×": 87,
      "ß": 88,
      "à": 89,
      "á": 90,
      "â": 91,
      "ã": 92,
      "ä": 93,
      "æ": 94,
      "ç": 95,
      "è": 96,
      "é": 97,
      "ê": 98,
      "ë": 99,
      "ì": 100,
      "í": 101,
      "î": 102,
      "ï": 103,
      "ð": 104,
      "ñ": 105,
      "ò": 106,
      "ó": 107,
      "ô": 108,
      "õ": 109,
      "ö": 110,
      "ù": 111,
      "ú": 112,
      "ü": 113,
      "ý": 114,
      "ā": 115,
      "ă": 116,
      "ć": 117,
      "č": 118,
      "đ": 119,
      "ē": 120,
      "ğ": 121,
      "ĩ": 122,
      "ī": 123,
      "ō": 124,
      "ś": 125,
      "ũ": 126,
      "ū": 127,
      "ơ": 128,
      "ư": 129,
      "ǎ": 130,
      "ʻ": 131,
      "ʼ": 132,
      "ː": 133,
      "α": 134,
      "β": 135,
      "γ": 136,
      "δ": 137,
      "ṇ": 138,
      "ạ": 139,
      "ả": 140,
      "ấ": 141,
      "ầ": 142,
      "ẩ": 143,
      "ẫ": 144,
      "ậ": 145,
      "ắ": 146,
      "ằ": 147,
      "ẳ": 148,
      "ẵ": 149,
      "ặ": 150,
      "ẹ": 151,
      "ẻ": 152,
      "ẽ": 153,
      "ế": 154,
      "ề": 155,
      "ể": 156,
      "ễ": 157,
      "ệ": 158,
      "ỉ": 159,
      "ị": 160,
      "ọ": 161,
      "ỏ": 162,
      "ố": 163,
      "ồ": 164,
      "ổ": 165,
      "ỗ": 166,
      "ộ": 167,
      "ớ": 168,
      "ờ": 169,
      "ở": 170,
      "ỡ": 171,
      "ợ": 172,
      "ụ": 173,
      "ủ": 174,
      "ứ": 175,
      "ừ": 176,
      "ử": 177,
      "ữ": 178,
      "ự": 179,
      "ỳ": 180,
      "ỵ": 181,
      "ỷ": 182,
      "ỹ": 183,
      "​": 184,
      "‑": 185,
      "‒": 186,
      "–": 187,
      "—": 188,
      "‘": 189,
      "’": 190,
      "“": 191,
      "”": 192,
      "†": 193,
      "…": 194,
      "‰": 195,
      "′": 196,
      "″": 197,
      "⁄": 198,
      "€": 199,
      "∀": 200,
      "∈": 201,
      "−": 202,
      "∧": 203,
      "∨": 204,
      "≈": 205,
      "≠": 206,
      "≤": 207,
      "⟨": 208,
      "⟩": 209,
      "（": 210,
      "）": 211,
      "，": 212,
      "：": 213,
      "ng": 214,
      "nh": 215,
      "th": 216,
      "ch": 217,
      "tr": 218,
      "kh": 219,
      "ph": 220,
      "iệ": 221,
      "ông": 222,
      "gi": 223,
      "qu": 224,
      "ên": 225,
      "và": 226,
      "ác": 227,
      "iế": 228,
      "củ": 229,
      "của": 230,
      "ườ": 231,
      "là": 232,
      "ới": 233,
      "ượ": 234,
      "uy": 235,
      "ong": 236,
      "an": 237,
      "ại": 238,
      "các": 239,
      "ất": 240,
      "có": 241,
      "ân": 242,
      "trong": 243,
      "iề": 244,
      "ình": 245,
      "ược": 246,
      "được": 247,
      "iên": 248,
      "ột": 249,
      "ày": 250,
      "cho": 251,
      "iện": 252,
      "một": 253,
      "ngh": 254,
      "với": 255,
      "đã": 256,
      "iều": 257,
      "anh": 258,
      "inh": 259,
      "ành": 260,
      "không": 261,
      "ướ": 262,
      "iể": 263,
      "ười": 264,
      "việ": 265,
      "người": 266,
      "ường": 267,
      "ần": 268,
      "công": 269,
      "ươ": 270,
      "nă": 271,
      "ải": 272,
      "ay": 273,
      "ương": 274,
      "ực": 275,
      "ai": 276,
      "độ": 277,
      "ầu": 278,
      "am": 279,
      "ho": 280,
      "ững": 281,
      "ang": 282,
      "ản": 283,
      "ức": 284,
      "ao": 285,
      "ận": 286,
      "như": 287,
      "ước": 288,
      "những": 289,
      "ra": 290,
      "này": 291,
      "ến": 292,
      "àn": 293,
      "ính": 294,
      "họ": 295,
      "iến": 296,
      "để": 297,
      "ây": 298,
      "ung": 299,
      "ối": 300,
      "từ": 301,
      "ài": 302,
      "phá": 303,
      "ết": 304,
      "đị": 305,
      "năm": 306,
      "khi": 307,
      "đó": 308,
      "thu": 309,
      "àng": 310,
      "ốc": 311,
      "on": 312,
      "án": 313,
      "ời": 314,
      "việc": 315,
      "sự": 316,
      "ồng": 317,
      "in": 318,
      "về": 319,
      "đến": 320,
      "ách": 321,
      "ống": 322,
      "áo": 323,
      "20": 324,
      "ật": 325,
      "thể": 326,
      "ơn": 327,
      "ũng": 328,
      "eo": 329,
      "tại": 330,
      "iết": 331,
      "nhiều": 332,
      "au": 333,
      "quy": 334,
      "ội": 335,
      "hiện": 336,
      "vào": 337,
      "ục": 338,
      "ùng": 339,
      "ăn": 340,
      "nhà": 341,
      "do": 342,
      "ôi": 343,
      "cũng": 344,
      "ập": 345,
      "thành": 346,
      "đầu": 347,
      "chính": 348,
      "trên": 349,
      "theo": 350,
      "học": 351,
      "cả": 352,
      "quan": 353,
      "chỉ": 354,
      "đồng": 355,
      "định": 356,
      "ộc": 357,
      "động": 358,
      "iệu": 359,
      "áng": 360,
      "bị": 361,
      "ạo": 362,
      "quốc": 363,
      "trường": 364,
      "sẽ": 365,
      "nam": 366,
      "ái": 367,
      "ền": 368,
      "số": 369,
      "gia": 370,
      "dự": 371,
      "ượng": 372,
      "làm": 373,
      "ổi": 374,
      "ằng": 375,
      "ạn": 376,
      "òn": 377,
      "ạt": 378,
      "iểm": 379,
      "ấn": 380,
      "êu": 381,
      "lại": 382,
      "xu": 383,
      "ăng": 384,
      "ễn": 385,
      "sau": 386,
      "cu": 387,
      "to": 388,
      "bộ": 389,
      "ảo": 390,
      "nước": 391,
      "phải": 392,
      "giá": 393,
      "còn": 394,
      "tổ": 395,
      "tiế": 396,
      "nguy": 397,
      "thời": 398,
      "ngày": 399,
      "nhân": 400,
      "ưa": 401,
      "phát": 402,
      "tuy": 403,
      "âu": 404,
      "iển": 405,
      "ẫn": 406,
      "hàng": 407,
      "201": 408,
      "ấp": 409,
      "nghiệ": 410,
      "kho": 411,
      "mà": 412,
      "điều": 413,
      "ịch": 414,
      "việt": 415,
      "ích": 416,
      "ấy": 417,
      "thông": 418,
      "âm": 419,
      "er": 420,
      "lo": 421,
      "ánh": 422,
      "đề": 423,
      "hơn": 424,
      "lý": 425,
      "cơ": 426,
      "chuy": 427,
      "thực": 428,
      "ưở": 429,
      "ưởng": 430,
      "ảng": 431,
      "trung": 432,
      "di": 433,
      "lu": 434,
      "dân": 435,
      "nhưng": 436,
      "ôn": 437,
      "nhất": 438,
      "dụ": 439,
      "ắc": 440,
      "sinh": 441,
      "òng": 442,
      "hành": 443,
      "úc": 444,
      "ợp": 445,
      "hợp": 446,
      "ứng": 447,
      "úng": 448,
      "ặt": 449,
      "hội": 450,
      "thế": 451,
      "ar": 452,
      "nó": 453,
      "ặc": 454,
      "trước": 455,
      "dụng": 456,
      "sản": 457,
      "nhận": 458,
      "vụ": 459,
      "át": 460,
      "đối": 461,
      "biết": 462,
      "mới": 463,
      "tin": 464,
      "viên": 465,
      "hình": 466,
      "ti": 467,
      "thủ": 468,
      "em": 469,
      "ào": 470,
      "chủ": 471,
      "al": 472,
      "trình": 473,
      "con": 474,
      "thị": 475,
      "ọng": 476,
      "đang": 477,
      "en": 478,
      "ngo": 479,
      "tu": 480,
      "nghiệp": 481,
      "iền": 482,
      "văn": 483,
      "sử": 484,
      "qua": 485,
      "lớ": 486,
      "tư": 487,
      "ấu": 488,
      "cao": 489,
      "xuất": 490,
      "đại": 491,
      "mạ": 492,
      "cùng": 493,
      "đây": 494,
      "chi": 495,
      "ắt": 496,
      "tôi": 497,
      "chức": 498,
      "ện": 499,
      "kết": 500,
      "điểm": 501,
      "năng": 502,
      "kinh": 503,
      "tế": 504,
      "cuộc": 505,
      "thì": 506,
      "ốn": 507,
      "rất": 508,
      "lượng": 509,
      "00": 510,
      "triển": 511,
      "iệt": 512,
      "giải": 513,
      "khác": 514,
      "tiếp": 515,
      "vi": 516,
      "óa": 517,
      "tạo": 518,
      "đo": 519,
      "cách": 520,
      "khu": 521,
      "bản": 522,
      "êm": 523,
      "ữa": 524,
      "mu": 525,
      "ạm": 526,
      "đi": 527,
      "cầu": 528,
      "lực": 529,
      "doanh": 530,
      "bảo": 531,
      "huy": 532,
      "liên": 533,
      "iểu": 534,
      "phần": 535,
      "mình": 536,
      "vì": 537,
      "thống": 538,
      "lớn": 539,
      "nên": 540,
      "rằng": 541,
      "tăng": 542,
      "tài": 543,
      "báo": 544,
      "ảnh": 545,
      "pháp": 546,
      "ếu": 547,
      "ơi": 548,
      "áy": 549,
      "cấp": 550,
      "ty": 551,
      "lên": 552,
      "hai": 553,
      "ển": 554,
      "xã": 555,
      "tác": 556,
      "hóa": 557,
      "tự": 558,
      "nhiên": 559,
      "óng": 560,
      "ri": 561,
      "thi": 562,
      "tỉ": 563,
      "tháng": 564,
      "phương": 565,
      "ẩm": 566,
      "mỹ": 567,
      "vẫn": 568,
      "ồi": 569,
      "trọng": 570,
      "quân": 571,
      "ồn": 572,
      "toàn": 573,
      "nay": 574,
      "tới": 575,
      "thường": 576,
      "vị": 577,
      "ảm": 578,
      "tiền": 579,
      "giới": 580,
      "chúng": 581,
      "so": 582,
      "chiến": 583,
      "sở": 584,
      "quyết": 585,
      "im": 586,
      "đất": 587,
      "hệ": 588,
      "nói": 589,
      "cứ": 590,
      "nội": 591,
      "mặt": 592,
      "tình": 593,
      "es": 594,
      "tập": 595,
      "diễn": 596,
      "tổng": 597,
      "thanh": 598,
      "ốt": 599,
      "ban": 600,
      "ngoài": 601,
      "bình": 602,
      "ướng": 603,
      "tâm": 604,
      "giáo": 605,
      "trị": 606,
      "giao": 607,
      "địa": 608,
      "đội": 609,
      "tính": 610,
      "cần": 611,
      "bằng": 612,
      "vực": 613,
      "minh": 614,
      "hà": 615,
      "chưa": 616,
      "tiên": 617,
      "el": 618,
      "thức": 619,
      "nguyễn": 620,
      "gian": 621,
      "đạo": 622,
      "đường": 623,
      "tỉnh": 624,
      "hiệu": 625,
      "ta": 626,
      "ạch": 627,
      "tra": 628,
      "thấy": 629,
      "quyền": 630,
      "cô": 631,
      "máy": 632,
      "ắng": 633,
      "bu": 634,
      "co": 635,
      "ộng": 636,
      "kỳ": 637,
      "phí": 638,
      "ọi": 639,
      "iệm": 640,
      "hoạt": 641,
      "thương": 642,
      "quả": 643,
      "19": 644,
      "ạng": 645,
      "nghệ": 646,
      "phòng": 647,
      "trở": 648,
      "..": 649,
      "úp": 650,
      "tiêu": 651,
      "xây": 652,
      "truy": 653,
      "út": 654,
      "ừa": 655,
      "ợi": 656,
      "ởi": 657,
      "dựng": 658,
      "chiế": 659,
      "trưởng": 660,
      "hay": 661,
      "tham": 662,
      "triệu": 663,
      "điện": 664,
      "đổi": 665,
      "thiết": 666,
      "ạc": 667,
      "phạm": 668,
      "lần": 669,
      "khai": 670,
      "ro": 671,
      "ắn": 672,
      "10": 673,
      "lập": 674,
      "đưa": 675,
      "kiến": 676,
      "giúp": 677,
      "tục": 678,
      "tiến": 679,
      "ửa": 680,
      "le": 681,
      "chất": 682,
      "ca": 683,
      "nguyên": 684,
      "ậy": 685,
      "sống": 686,
      "đình": 687,
      "thứ": 688,
      "phẩm": 689,
      "đánh": 690,
      "tỷ": 691,
      "tích": 692,
      "mạnh": 693,
      "ỗi": 694,
      "quá": 695,
      "chu": 696,
      "ậu": 697,
      "trang": 698,
      "xe": 699,
      "lã": 700,
      "chế": 701,
      "ầm": 702,
      "),": 703,
      "bà": 704,
      "áp": 705,
      "ỏi": 706,
      "tên": 707,
      "bất": 708,
      "ép": 709,
      "su": 710,
      "nào": 711,
      "bán": 712,
      "nếu": 713,
      "cổ": 714,
      "ằm": 715,
      "đơn": 716,
      "biệt": 717,
      "ưu": 718,
      "òa": 719,
      "vấn": 720,
      "luật": 721,
      "yêu": 722,
      "gần": 723,
      "sách": 724,
      "chuyển": 725,
      "đấu": 726,
      "2017": 727,
      "bạn": 728,
      "khoảng": 729,
      "đặc": 730,
      "ẩn": 731,
      "quản": 732,
      "cứu": 733,
      "bên": 734,
      "hoàn": 735,
      "li": 736,
      "giữa": 737,
      "dịch": 738,
      "iếu": 739,
      "bắt": 740,
      "cảnh": 741,
      ").": 742,
      "tiếng": 743,
      "ba": 744,
      "ẳng": 745,
      "si": 746,
      "khó": 747,
      "vật": 748,
      "dẫn": 749,
      "diện": 750,
      "ạnh": 751,
      "khách": 752,
      "kiểm": 753,
      "thái": 754,
      "nd": 755,
      "lịch": 756,
      "sĩ": 757,
      "cáo": 758,
      "loại": 759,
      "kế": 760,
      "ìm": 761,
      "đều": 762,
      "nghĩ": 763,
      "hi": 764,
      "truyền": 765,
      "vậy": 766,
      "chí": 767,
      "huyện": 768,
      "ừng": 769,
      "sát": 770,
      "lợi": 771,
      "tượng": 772,
      "nhiệm": 773,
      "bố": 774,
      "phố": 775,
      "dư": 776,
      "mang": 777,
      "tuổi": 778,
      "nghị": 779,
      "đông": 780,
      "ét": 781,
      "ọn": 782,
      "tp": 783,
      "phủ": 784,
      "khiến": 785,
      "dùng": 786,
      "us": 787,
      "nhau": 788,
      "ĩnh": 789,
      "sáng": 790,
      "thuộc": 791,
      "từng": 792,
      "ma": 793,
      "chị": 794,
      "ọc": 795,
      "thay": 796,
      "or": 797,
      "ngu": 798,
      "đoàn": 799,
      "ệnh": 800,
      "tìm": 801,
      "cảm": 802,
      "cá": 803,
      "chia": 804,
      "tranh": 805,
      "phục": 806,
      "hoàng": 807,
      "ub": 808,
      "tốt": 809,
      "hoặc": 810,
      "nguồn": 811,
      "la": 812,
      "mức": 813,
      "kiện": 814,
      "ngành": 815,
      "châu": 816,
      "tho": 817,
      "xử": 818,
      "bàn": 819,
      "trận": 820,
      "đạt": 821,
      "chuyên": 822,
      "thêm": 823,
      "duy": 824,
      "vệ": 825,
      "liệu": 826,
      "giảm": 827,
      "gây": 828,
      "xác": 829,
      "trí": 830,
      "phân": 831,
      "gó": 832,
      "bao": 833,
      "vừa": 834,
      "trợ": 835,
      "biến": 836,
      "bo": 837,
      "giám": 838,
      "giờ": 839,
      "bởi": 840,
      "chung": 841,
      "dù": 842,
      "àu": 843,
      "ảy": 844,
      "hải": 845,
      "hộ": 846,
      "chương": 847,
      "12": 848,
      "óm": 849,
      "mạng": 850,
      "thuật": 851,
      "ầy": 852,
      "vũ": 853,
      "mi": 854,
      "lời": 855,
      "hướng": 856,
      "hồ": 857,
      "tay": 858,
      "nga": 859,
      "vốn": 860,
      "mục": 861,
      "trẻ": 862,
      "nữ": 863,
      "tương": 864,
      "ngân": 865,
      "hoa": 866,
      "phong": 867,
      "thân": 868,
      "bay": 869,
      "ia": 870,
      "hưởng": 871,
      "rõ": 872,
      "phụ": 873,
      "chứng": 874,
      "200": 875,
      "ặp": 876,
      "hu": 877,
      "bóng": 878,
      "ne": 879,
      "nơi": 880,
      "sức": 881,
      "hoạch": 882,
      "khí": 883,
      "nhập": 884,
      "hậu": 885,
      "khả": 886,
      "giữ": 887,
      "danh": 888,
      "muốn": 889,
      "mua": 890,
      "lan": 891,
      "du": 892,
      "nghi": 893,
      "lãnh": 894,
      "phim": 895,
      "giả": 896,
      "tử": 897,
      "te": 898,
      "ubnd": 899,
      "ạy": 900,
      "nghiên": 901,
      "cuối": 902,
      "ngay": 903,
      "đức": 904,
      "is": 905,
      "bỏ": 906,
      "re": 907,
      "hòa": 908,
      "khoa": 909,
      "triều": 910,
      "đá": 911,
      "nổi": 912,
      "xem": 913,
      "11": 914,
      "ồm": 915,
      "ẹp": 916,
      "ìn": 917,
      "mỗi": 918,
      "mở": 919,
      "un": 920,
      "ấm": 921,
      "tàu": 922,
      "sao": 923,
      "nông": 924,
      "lê": 925,
      "gồm": 926,
      "nhóm": 927,
      "sân": 928,
      "hạn": 929,
      "ký": 930,
      "mọi": 931,
      "vùng": 932,
      "thắng": 933,
      "cạnh": 934,
      "phía": 935,
      "dài": 936,
      "bắc": 937,
      "chiếc": 938,
      "as": 939,
      "đặt": 940,
      "nhật": 941,
      "nghĩa": 942,
      "lúc": 943,
      "chọn": 944,
      "biểu": 945,
      "khá": 946,
      "tấn": 947,
      "vu": 948,
      "ữu": 949,
      "yếu": 950,
      "ăm": 951,
      "dục": 952,
      "hữu": 953,
      "sơn": 954,
      "tịch": 955,
      "cụ": 956,
      "hết": 957,
      "đảm": 958,
      "trả": 959,
      "đóng": 960,
      "ặng": 961,
      "cộng": 962,
      "ượt": 963,
      "phép": 964,
      "cung": 965,
      "trần": 966,
      "chuẩn": 967,
      "cư": 968,
      "phó": 969,
      "ắp": 970,
      "nhằm": 971,
      "kỹ": 972,
      "gì": 973,
      "gọi": 974,
      "hỗ": 975,
      "kể": 976,
      "bài": 977,
      "tiết": 978,
      "trò": 979,
      "ẩu": 980,
      "hồi": 981,
      "câu": 982,
      "viện": 983,
      "phản": 984,
      "nghiệm": 985,
      "luận": 986,
      "sắc": 987,
      "vận": 988,
      "êng": 989,
      "tất": 990,
      "biển": 991,
      "tây": 992,
      "ưng": 993,
      "dương": 994,
      "...": 995,
      "tinh": 996,
      "nền": 997,
      "môi": 998,
      "\".": 999,
      "tố": 1000,
      "ắm": 1001,
      "đáng": 1002,
      "ít": 1003,
      "đẹp": 1004,
      "sang": 1005,
      "ậm": 1006,
      "chuyện": 1007,
      "xét": 1008,
      "sẻ": 1009,
      "ter": 1010,
      "đa": 1011,
      "góp": 1012,
      "đời": 1013,
      "cố": 1014,
      "iệp": 1015,
      "ngoại": 1016,
      "gặp": 1017,
      "ôm": 1018,
      "30": 1019,
      "ủy": 1020,
      "nhỏ": 1021,
      "bệnh": 1022,
      "15": 1023,
      "thích": 1024,
      "đô": 1025,
      "ùa": 1026,
      "lệ": 1027,
      "đốc": 1028,
      "trực": 1029,
      "lĩnh": 1030,
      "dung": 1031,
      "đủ": 1032,
      "khẩu": 1033,
      "vô": 1034,
      "tuyển": 1035,
      "thuận": 1036,
      "chú": 1037,
      "lao": 1038,
      "đúng": 1039,
      "đoạn": 1040,
      "rộng": 1041,
      "vai": 1042,
      "cái": 1043,
      "mất": 1044,
      "se": 1045,
      "trái": 1046,
      "ãi": 1047,
      "tướng": 1048,
      "lưu": 1049,
      "usd": 1050,
      "đăng": 1051,
      "quận": 1052,
      "nhạc": 1053,
      "âng": 1054,
      "rồi": 1055,
      "2016": 1056,
      "thần": 1057,
      "hiểu": 1058,
      "riêng": 1059,
      "toán": 1060,
      "trạng": 1061,
      "kỷ": 1062,
      "nhu": 1063,
      "da": 1064,
      "luôn": 1065,
      "xảy": 1066,
      "000": 1067,
      "đào": 1068,
      "trách": 1069,
      "ghi": 1070,
      "khăn": 1071,
      "ce": 1072,
      "môn": 1073,
      "ninh": 1074,
      "dưới": 1075,
      "phi": 1076,
      "ủng": 1077,
      "đà": 1078,
      "ệt": 1079,
      "hã": 1080,
      "mô": 1081,
      "nhanh": 1082,
      "hỏi": 1083,
      "quảng": 1084,
      "tt": 1085,
      "ké": 1086,
      "áu": 1087,
      "kim": 1088,
      "cực": 1089,
      "mẹ": 1090,
      "23": 1091,
      "cây": 1092,
      "ẫu": 1093,
      "cm": 1094,
      "nâng": 1095,
      "ha": 1096,
      "ỡng": 1097,
      "mo": 1098,
      "lửa": 1099,
      "and": 1100,
      "iếm": 1101,
      "chơi": 1102,
      "bi": 1103,
      "sa": 1104,
      "độc": 1105,
      "ín": 1106,
      "cửa": 1107,
      "lớp": 1108,
      "tối": 1109,
      "cải": 1110,
      "nữa": 1111,
      "one": 1112,
      "thiện": 1113,
      "long": 1114,
      "tuyên": 1115,
      "ck": 1116,
      "vòng": 1117,
      "vọng": 1118,
      "18": 1119,
      "biên": 1120,
      "thuế": 1121,
      "xuống": 1122,
      "lấy": 1123,
      "thủy": 1124,
      "óc": 1125,
      "thiên": 1126,
      "thiếu": 1127,
      "mar": 1128,
      "đảo": 1129,
      "na": 1130,
      "bước": 1131,
      "chống": 1132,
      "ngôi": 1133,
      "khoản": 1134,
      "ngọc": 1135,
      "mặc": 1136,
      "nhìn": 1137,
      "cục": 1138,
      "thư": 1139,
      "hạ": 1140,
      "mắt": 1141,
      "căn": 1142,
      "phú": 1143,
      "ỏa": 1144,
      "cử": 1145,
      "quang": 1146,
      "uyên": 1147,
      "vàng": 1148,
      "mùa": 1149,
      "hàn": 1150,
      "sai": 1151,
      "phối": 1152,
      "sư": 1153,
      "cam": 1154,
      "sơ": 1155,
      "càng": 1156,
      "nu": 1157,
      "nạn": 1158,
      "de": 1159,
      "pp": 1160,
      "nằm": 1161,
      "quý": 1162,
      "ẩy": 1163,
      "gái": 1164,
      "đứng": 1165,
      "ứa": 1166,
      "đu": 1167,
      "cường": 1168,
      "chân": 1169,
      "thí": 1170,
      "gh": 1171,
      "chiếm": 1172,
      "xuân": 1173,
      "go": 1174,
      "tưởng": 1175,
      "chiều": 1176,
      "ạp": 1177,
      "phiên": 1178,
      "đồ": 1179,
      "chấp": 1180,
      "thoại": 1181,
      "lộ": 1182,
      "khởi": 1183,
      "tuần": 1184,
      "khẳng": 1185,
      "đầy": 1186,
      "mại": 1187,
      "tội": 1188,
      "tín": 1189,
      "mp": 1190,
      "16": 1191,
      "mẫu": 1192,
      "ửi": 1193,
      "tuyến": 1194,
      "thảo": 1195,
      "50": 1196,
      "linh": 1197,
      "hôm": 1198,
      "dễ": 1199,
      "hồng": 1200,
      "màu": 1201,
      "vợ": 1202,
      "lòng": 1203,
      "lễ": 1204,
      "ni": 1205,
      "ngữ": 1206,
      "tải": 1207,
      "ầng": 1208,
      "mã": 1209,
      "soát": 1210,
      "cán": 1211,
      "buổi": 1212,
      "thật": 1213,
      "thuy": 1214,
      "tầng": 1215,
      "giống": 1216,
      "khỏi": 1217,
      "đẩy": 1218,
      "ịp": 1219,
      "suất": 1220,
      "ựa": 1221,
      "bổ": 1222,
      "phóng": 1223,
      "thúc": 1224,
      "man": 1225,
      "gu": 1226,
      "phù": 1227,
      "ly": 1228,
      "vượt": 1229,
      "lv": 1230,
      "trì": 1231,
      "17": 1232,
      "po": 1233,
      "chịu": 1234,
      "giấy": 1235,
      "trao": 1236,
      "gửi": 1237,
      "14": 1238,
      "hiệp": 1239,
      "tân": 1240,
      "xúc": 1241,
      "ki": 1242,
      "đôi": 1243,
      "me": 1244,
      "khán": 1245,
      "bé": 1246,
      "iềm": 1247,
      "hút": 1248,
      "chạy": 1249,
      "ếp": 1250,
      "viết": 1251,
      "đt": 1252,
      "phạt": 1253,
      "lai": 1254,
      "lương": 1255,
      "nghiêm": 1256,
      "dạng": 1257,
      "nghề": 1258,
      "dành": 1259,
      "xuyên": 1260,
      "phúc": 1261,
      "pt": 1262,
      "vương": 1263,
      "nuôi": 1264,
      "trai": 1265,
      "tú": 1266,
      "giai": 1267,
      "sâu": 1268,
      "hại": 1269,
      "giành": 1270,
      "xa": 1271,
      "phường": 1272,
      "tòa": 1273,
      "mối": 1274,
      "st": 1275,
      "kiếm": 1276,
      "song": 1277,
      "lâu": 1278,
      "thử": 1279,
      "niên": 1280,
      "13": 1281,
      "bức": 1282,
      "fa": 1283,
      "cập": 1284,
      "xin": 1285,
      "22": 1286,
      "nhi": 1287,
      "be": 1288,
      "vn": 1289,
      "nhờ": 1290,
      "đảng": 1291,
      "hlv": 1292,
      "mai": 1293,
      "sông": 1294,
      "chết": 1295,
      "phone": 1296,
      "đàn": 1297,
      "hương": 1298,
      "hãng": 1299,
      "tức": 1300,
      "dấu": 1301,
      "thất": 1302,
      "phút": 1303,
      "ngờ": 1304,
      "can": 1305,
      "trương": 1306,
      "hát": 1307,
      "tồn": 1308,
      "vài": 1309,
      "dòng": 1310,
      "kê": 1311,
      "buộc": 1312,
      "chỉnh": 1313,
      "hy": 1314,
      "2018": 1315,
      "giang": 1316,
      "unk": 1317,
      "dn": 1318,
      "25": 1319,
      "at": 1320,
      "phiếu": 1321,
      "ngôn": 1322,
      "lâm": 1323,
      "thầy": 1324,
      "yên": 1325,
      "thụ": 1326,
      "thẩm": 1327,
      "đáp": 1328,
      "vua": 1329,
      "thấp": 1330,
      "màn": 1331,
      "hạt": 1332,
      "tôn": 1333,
      "chồng": 1334,
      "nối": 1335,
      "khắc": 1336,
      "ổn": 1337,
      "et": 1338,
      "sy": 1339,
      "ok": 1340,
      "khủng": 1341,
      "nghe": 1342,
      "sung": 1343,
      "bảng": 1344,
      "ci": 1345,
      "dạy": 1346,
      "nợ": 1347,
      "thậm": 1348,
      "hạng": 1349,
      "mong": 1350,
      "lược": 1351,
      "hiểm": 1352,
      "pa": 1353,
      "phổ": 1354,
      "tiện": 1355,
      "kéo": 1356,
      "thác": 1357,
      "ám": 1358,
      "cha": 1359,
      "hcm": 1360,
      "don": 1361,
      "trải": 1362,
      "tru": 1363,
      "100": 1364,
      "tộc": 1365,
      "ớm": 1366,
      "lạc": 1367,
      "đêm": 1368,
      "đế": 1369,
      "xi": 1370,
      "199": 1371,
      "miền": 1372,
      "xếp": 1373,
      "tiểu": 1374,
      "loài": 1375,
      "tông": 1376,
      "luy": 1377,
      "họp": 1378,
      "cận": 1379,
      "ria": 1380,
      "sớm": 1381,
      "thú": 1382,
      "ga": 1383,
      "binh": 1384,
      "trồng": 1385,
      "the": 1386,
      "ts": 1387,
      "lựa": 1388,
      "thừa": 1389,
      "ặn": 1390,
      "ón": 1391,
      "\",": 1392,
      "2015": 1393,
      "mộ": 1394,
      "tan": 1395,
      "dầu": 1396,
      "khuy": 1397,
      "nặng": 1398,
      "vui": 1399,
      "pi": 1400,
      "quanh": 1401,
      "khảo": 1402,
      "luyện": 1403,
      "tốc": 1404,
      "gd": 1405,
      "tuấn": 1406,
      "tù": 1407,
      "chắc": 1408,
      "trời": 1409,
      "thôn": 1410,
      "quay": 1411,
      "lư": 1412,
      "rừng": 1413,
      "ur": 1414,
      "24": 1415,
      "we": 1416,
      "dữ": 1417,
      "trụ": 1418,
      "cấu": 1419,
      "thuyết": 1420,
      "bí": 1421,
      "tái": 1422,
      "siêu": 1423,
      "fi": 1424,
      "sh": 1425,
      "vay": 1426,
      "cn": 1427,
      "hùng": 1428,
      "thuê": 1429,
      "ỏng": 1430,
      "tỏ": 1431,
      "thổ": 1432,
      "ka": 1433,
      "cháu": 1434,
      "ứt": 1435,
      "thưởng": 1436,
      "ùi": 1437,
      "đích": 1438,
      "kích": 1439,
      "coi": 1440,
      "xung": 1441,
      "biện": 1442,
      "hưng": 1443,
      "khỏ": 1444,
      "khỏe": 1445,
      "pe": 1446,
      "loạt": 1447,
      "bầu": 1448,
      "tầm": 1449,
      "u23": 1450,
      "chóng": 1451,
      "21": 1452,
      "tạm": 1453,
      "no": 1454,
      "tờ": 1455,
      "vững": 1456,
      "syria": 1457,
      "ber": 1458,
      "sửa": 1459,
      "chữ": 1460,
      "trump": 1461,
      "nhiệt": 1462,
      "trú": 1463,
      "may": 1464,
      "thao": 1465,
      "cs": 1466,
      "ton": 1467,
      "mật": 1468,
      "èo": 1469,
      "phê": 1470,
      "vinh": 1471,
      "khối": 1472,
      "thẳng": 1473,
      "hầu": 1474,
      "lục": 1475,
      "tai": 1476,
      "nghỉ": 1477,
      "nhớ": 1478,
      "nỗ": 1479,
      "suốt": 1480,
      "òi": 1481,
      "yo": 1482,
      "ran": 1483,
      "bật": 1484,
      "đột": 1485,
      "ru": 1486,
      "gốc": 1487,
      "úi": 1488,
      "dũng": 1489,
      "40": 1490,
      "đài": 1491,
      "khúc": 1492,
      "nha": 1493,
      "tạp": 1494,
      "bại": 1495,
      "lệnh": 1496,
      "cp": 1497,
      "gắn": 1498,
      "ụp": 1499,
      "nhấn": 1500,
      "xanh": 1501,
      "cự": 1502,
      "chăm": 1503,
      "quán": 1504,
      "khánh": 1505,
      "đỏ": 1506,
      "tri": 1507,
      "tv": 1508,
      "cũ": 1509,
      "chuyến": 1510,
      "vẻ": 1511,
      "cánh": 1512,
      "cháy": 1513,
      "tránh": 1514,
      "lin": 1515,
      "chẳng": 1516,
      "địch": 1517,
      "ẵn": 1518,
      "new": 1519,
      "trắng": 1520,
      "làng": 1521,
      "60": 1522,
      "va": 1523,
      "võ": 1524,
      "son": 1525,
      "thượng": 1526,
      "dựa": 1527,
      "đua": 1528,
      "trúc": 1529,
      "jo": 1530,
      "sẵn": 1531,
      "rút": 1532,
      "băng": 1533,
      "bày": 1534,
      "chứ": 1535,
      "đổ": 1536,
      "thơ": 1537,
      "wi": 1538,
      "km": 1539,
      "ẵng": 1540,
      "par": 1541,
      "ver": 1542,
      "ỳnh": 1543,
      "nắm": 1544,
      "bác": 1545,
      "][": 1546,
      "cầm": 1547,
      "mẽ": 1548,
      "thuốc": 1549,
      "ve": 1550,
      "nổ": 1551,
      "thiệt": 1552,
      "suy": 1553,
      "quỹ": 1554,
      "nẵng": 1555,
      "pu": 1556,
      "thỏa": 1557,
      "eu": 1558,
      "õi": 1559,
      "ngại": 1560,
      "lượt": 1561,
      "ke": 1562,
      "bối": 1563,
      "bang": 1564,
      "khổ": 1565,
      "iphone": 1566,
      "vid": 1567,
      "chờ": 1568,
      "nêu": 1569,
      "núi": 1570,
      "vo": 1571,
      "ọt": 1572,
      "trấn": 1573,
      "thách": 1574,
      "đương": 1575,
      "cl": 1576,
      "gam": 1577,
      "sắp": 1578,
      "cân": 1579,
      "niệm": 1580,
      "sóng": 1581,
      "for": 1582,
      "29": 1583,
      "tô": 1584,
      "ềm": 1585,
      "dưỡng": 1586,
      "27": 1587,
      "món": 1588,
      "chỗ": 1589,
      "ge": 1590,
      "lỗi": 1591,
      "ọa": 1592,
      "lẽ": 1593,
      "ngăn": 1594,
      "bank": 1595,
      "vĩnh": 1596,
      "tận": 1597,
      "nhắc": 1598,
      "liệt": 1599,
      "chặt": 1600,
      "hài": 1601,
      "kém": 1602,
      "đàm": 1603,
      "face": 1604,
      "thập": 1605,
      "ngắn": 1606,
      "giản": 1607,
      "thầu": 1608,
      "nhuận": 1609,
      "ràng": 1610,
      "28": 1611,
      "car": 1612,
      "hđ": 1613,
      "ão": 1614,
      "nóng": 1615,
      "san": 1616,
      "dần": 1617,
      "kịp": 1618,
      "lđ": 1619,
      "chữa": 1620,
      "ld": 1621,
      "kính": 1622,
      "cát": 1623,
      "mời": 1624,
      "cấm": 1625,
      "quần": 1626,
      "book": 1627,
      "dừng": 1628,
      "198": 1629,
      "súng": 1630,
      "quen": 1631,
      "ko": 1632,
      "chụp": 1633,
      "net": 1634,
      "tắc": 1635,
      "ễm": 1636,
      "app": 1637,
      "niềm": 1638,
      "thải": 1639,
      "nộ": 1640,
      "26": 1641,
      "thoát": 1642,
      "ẹn": 1643,
      "thăm": 1644,
      "chắn": 1645,
      "giác": 1646,
      "ví": 1647,
      "ngư": 1648,
      "inter": 1649,
      "khuyến": 1650,
      "đâu": 1651,
      "lãi": 1652,
      "sn": 1653,
      "ãn": 1654,
      "cựu": 1655,
      "bãi": 1656,
      "mềm": 1657,
      "cắt": 1658,
      "đh": 1659,
      "trịnh": 1660,
      "đón": 1661,
      "bạc": 1662,
      "thù": 1663,
      "hôn": 1664,
      "ngô": 1665,
      "gue": 1666,
      "ja": 1667,
      "duyệt": 1668,
      "pha": 1669,
      "2014": 1670,
      "tuyệt": 1671,
      "khám": 1672,
      "kẻ": 1673,
      "dàng": 1674,
      "bar": 1675,
      "bền": 1676,
      "70": 1677,
      "ali": 1678,
      "sóc": 1679,
      "thpt": 1680,
      "gen": 1681,
      "hè": 1682,
      "ii": 1683,
      "nghìn": 1684,
      "phán": 1685,
      "ven": 1686,
      "khóa": 1687,
      "phận": 1688,
      "%.": 1689,
      "mắc": 1690,
      "đem": 1691,
      "đọc": 1692,
      "xấu": 1693,
      "thua": 1694,
      "ry": 1695,
      "phan": 1696,
      "pv": 1697,
      "giết": 1698,
      "giảng": 1699,
      "trăm": 1700,
      "đạn": 1701,
      "đỗ": 1702,
      "điển": 1703,
      "vân": 1704,
      "sea": 1705,
      "2009": 1706,
      "dây": 1707,
      "họa": 1708,
      "ll": 1709,
      "quê": 1710,
      "trưng": 1711,
      "èn": 1712,
      "lea": 1713,
      "mưa": 1714,
      "apple": 1715,
      "lưới": 1716,
      "kiên": 1717,
      "tim": 1718,
      "huấn": 1719,
      "bạch": 1720,
      "sứ": 1721,
      "gắng": 1722,
      "ỉnh": 1723,
      "chặn": 1724,
      "rơi": 1725,
      "cảng": 1726,
      "đám": 1727,
      "nộp": 1728,
      "bờ": 1729,
      "đoán": 1730,
      "hạnh": 1731,
      "por": 1732,
      "lái": 1733,
      "chợ": 1734,
      "kiểu": 1735,
      "bắn": 1736,
      "đen": 1737,
      "dõi": 1738,
      "500": 1739,
      "nn": 1740,
      "ngồi": 1741,
      "hấp": 1742,
      "ala": 1743,
      "cậu": 1744,
      "thiệu": 1745,
      "nguyện": 1746,
      "nhẹ": 1747,
      "bồi": 1748,
      "chiếu": 1749,
      "ron": 1750,
      "ót": 1751,
      "cặp": 1752,
      "sợ": 1753,
      "ct": 1754,
      "kịch": 1755,
      "hiến": 1756,
      "lạ": 1757,
      "phức": 1758,
      "khoán": 1759,
      "ngược": 1760,
      "ed": 1761,
      "chậm": 1762,
      "bom": 1763,
      "league": 1764,
      "chứa": 1765,
      "35": 1766,
      "sam": 1767,
      "ngũ": 1768,
      "tệ": 1769,
      "huynh": 1770,
      "khích": 1771,
      "sàng": 1772,
      "video": 1773,
      "thăng": 1774,
      "dứt": 1775,
      "dọa": 1776,
      "đe": 1777,
      "đòi": 1778,
      "45": 1779,
      "hâm": 1780,
      "nghèo": 1781,
      "nhiễm": 1782,
      "vin": 1783,
      "sen": 1784,
      "rời": 1785,
      "2010": 1786,
      "my": 1787,
      "lẫn": 1788,
      "kênh": 1789,
      "tụ": 1790,
      "facebook": 1791,
      "khắp": 1792,
      "hủy": 1793,
      "sho": 1794,
      "trà": 1795,
      "che": 1796,
      "trào": 1797,
      "liền": 1798,
      "tặng": 1799,
      "zi": 1800,
      "tấm": 1801,
      "tĩnh": 1802,
      "ộn": 1803,
      "ủi": 1804,
      "gương": 1805,
      "chúa": 1806,
      "ama": 1807,
      "com": 1808,
      "thịt": 1809,
      "80": 1810,
      "túy": 1811,
      "thiểu": 1812,
      "lắng": 1813,
      "mê": 1814,
      "tion": 1815,
      "ard": 1816,
      "giọng": 1817,
      "kè": 1818,
      "nt": 1819,
      "chục": 1820,
      "đau": 1821,
      "chấm": 1822,
      "kêu": 1823,
      "căng": 1824,
      "2013": 1825,
      "tal": 1826,
      "sắt": 1827,
      "mái": 1828,
      "trừ": 1829,
      "úa": 1830,
      "viet": 1831,
      "hào": 1832,
      "sỹ": 1833,
      "gỡ": 1834,
      "đinh": 1835,
      "sàn": 1836,
      "90": 1837,
      "ff": 1838,
      "ic": 1839,
      "mạc": 1840,
      "era": 1841,
      "dịp": 1842,
      "cuốn": 1843,
      "ườn": 1844,
      "wor": 1845,
      "top": 1846,
      "hề": 1847,
      "bè": 1848,
      "cc": 1849,
      "per": 1850,
      "tường": 1851,
      "lẻ": 1852,
      "chấn": 1853,
      "web": 1854,
      "bùi": 1855,
      "lối": 1856,
      "ad": 1857,
      "tiềm": 1858,
      "tam": 1859,
      "tùng": 1860,
      "hãy": 1861,
      "hán": 1862,
      "tnh": 1863,
      "mal": 1864,
      "trích": 1865,
      "ậc": 1866,
      "đuổi": 1867,
      "bậc": 1868,
      "xy": 1869,
      "miễn": 1870,
      "bào": 1871,
      "góc": 1872,
      "tnhh": 1873,
      "trữ": 1874,
      "ướp": 1875,
      "%,": 1876,
      "lộc": 1877,
      "36": 1878,
      "thôi": 1879,
      "ngầm": 1880,
      "ngừng": 1881,
      "đồn": 1882,
      "og": 1883,
      "trạm": 1884,
      "buôn": 1885,
      "chàng": 1886,
      "máu": 1887,
      "hơi": 1888,
      "uống": 1889,
      "ớt": 1890,
      "xâm": 1891,
      "khấu": 1892,
      "mơ": 1893,
      "cđ": 1894,
      "đai": 1895,
      "sạch": 1896,
      "id": 1897,
      "éo": 1898,
      "đoạt": 1899,
      "31": 1900,
      "nửa": 1901,
      "xo": 1902,
      "đỡ": 1903,
      "hứng": 1904,
      "gỗ": 1905,
      "cà": 1906,
      "bia": 1907,
      "khiển": 1908,
      "bánh": 1909,
      "vong": 1910,
      "tảng": 1911,
      "hằng": 1912,
      "xong": 1913,
      "sia": 1914,
      "xứ": 1915,
      "kháng": 1916,
      "ươi": 1917,
      "đẳng": 1918,
      "mấy": 1919,
      "non": 1920,
      "cú": 1921,
      "197": 1922,
      "ợt": 1923,
      "dri": 1924,
      "internet": 1925,
      "tung": 1926,
      "os": 1927,
      "đợi": 1928,
      "ser": 1929,
      "kg": 1930,
      "than": 1931,
      "lá": 1932,
      "huống": 1933,
      "tết": 1934,
      "bra": 1935,
      "kèm": 1936,
      "giàu": 1937,
      "hoảng": 1938,
      "lỗ": 1939,
      "lạnh": 1940,
      "clb": 1941,
      "vườn": 1942,
      "bot": 1943,
      "huyền": 1944,
      "ald": 1945,
      "ol": 1946,
      "bá": 1947,
      "gấp": 1948,
      "rai": 1949,
      "vé": 1950,
      "khuôn": 1951,
      "goog": 1952,
      "tph": 1953,
      "chạm": 1954,
      "google": 1955,
      "nhượng": 1956,
      "hoài": 1957,
      "m2": 1958,
      "mừng": 1959,
      "bạo": 1960,
      "viễn": 1961,
      "đợt": 1962,
      "cương": 1963,
      "sk": 1964,
      "hiếu": 1965,
      "tùy": 1966,
      "tphcm": 1967,
      "ex": 1968,
      "giỏi": 1969,
      "bão": 1970,
      "dan": 1971,
      "pr": 1972,
      "lắp": 1973,
      "tả": 1974,
      "pin": 1975,
      "thọ": 1976,
      "cup": 1977,
      "real": 1978,
      "mưu": 1979,
      "za": 1980,
      "ngủ": 1981,
      "thẻ": 1982,
      "quỳnh": 1983,
      "ụt": 1984,
      "loan": 1985,
      "mart": 1986,
      "thuyền": 1987,
      "xăng": 1988,
      "trại": 1989,
      "300": 1990,
      "str": 1991,
      "chở": 1992,
      "thánh": 1993,
      "hẹn": 1994,
      "cướp": 1995,
      "2012": 1996,
      "he": 1997,
      "đỉnh": 1998,
      "istan": 1999,
      "khung": 2000,
      "đáo": 2001,
      "hỏa": 2002,
      "cười": 2003,
      "rác": 2004,
      "dao": 2005,
      "bến": 2006,
      "ém": 2007,
      "iếp": 2008,
      "bốn": 2009,
      "cai": 2010,
      "lũ": 2011,
      "diệt": 2012,
      "cro": 2013,
      "dáng": 2014,
      "chẽ": 2015,
      "chăn": 2016,
      "ngang": 2017,
      "rủi": 2018,
      "fan": 2019,
      "kiệm": 2020,
      "nét": 2021,
      "ộm": 2022,
      "lip": 2023,
      "sài": 2024,
      "thép": 2025,
      "min": 2026,
      "tỏa": 2027,
      "camera": 2028,
      "bù": 2029,
      "2011": 2030,
      "phước": 2031,
      "of": 2032,
      "khẩn": 2033,
      "đền": 2034,
      "ói": 2035,
      "pro": 2036,
      "gói": 2037,
      "thụy": 2038,
      "ũi": 2039,
      "gs": 2040,
      "trinh": 2041,
      "af": 2042,
      "sạn": 2043,
      "ss": 2044,
      "2008": 2045,
      "thạch": 2046,
      "ines": 2047,
      "ngoái": 2048,
      "khen": 2049,
      "ram": 2050,
      "iran": 2051,
      "huế": 2052,
      "ngụ": 2053,
      "ngàn": 2054,
      "ft": 2055,
      "hiếm": 2056,
      "ya": 2057,
      "tán": 2058,
      "2020": 2059,
      "gió": 2060,
      "khổng": 2061,
      "mc": 2062,
      "trùng": 2063,
      "rà": 2064,
      "thịnh": 2065,
      "đứa": 2066,
      "xô": 2067,
      "ju": 2068,
      "trông": 2069,
      "show": 2070,
      "park": 2071,
      "trốn": 2072,
      "pháo": 2073,
      "har": 2074,
      "cơn": 2075,
      "đặng": 2076,
      "giáp": 2077,
      "vỡ": 2078,
      "bê": 2079,
      "hoang": 2080,
      "cãi": 2081,
      "world": 2082,
      "tc": 2083,
      "nàng": 2084,
      "dậy": 2085,
      "huỳnh": 2086,
      "samsung": 2087,
      "cưới": 2088,
      "lô": 2089,
      "ợn": 2090,
      "phấn": 2091,
      "chào": 2092,
      "cản": 2093,
      "phái": 2094,
      "trật": 2095,
      "nỗi": 2096,
      "ashi": 2097,
      ");": 2098,
      "thuần": 2099,
      "ham": 2100,
      "ira": 2101,
      "euro": 2102,
      "hn": 2103,
      "kia": 2104,
      "tá": 2105,
      "cờ": 2106,
      "túc": 2107,
      "mầm": 2108,
      "chuỗi": 2109,
      "ks": 2110,
      "giam": 2111,
      "vết": 2112,
      "hứa": 2113,
      "chinh": 2114,
      "gòn": 2115,
      "wa": 2116,
      "chel": 2117,
      "hổ": 2118,
      "mer": 2119,
      "chối": 2120,
      "smart": 2121,
      "land": 2122,
      "sco": 2123,
      "trăng": 2124,
      "gạo": 2125,
      "donald": 2126,
      "uk": 2127,
      "lipp": 2128,
      "loạn": 2129,
      "tóc": 2130,
      "mệnh": 2131,
      "trúng": 2132,
      "duyên": 2133,
      "dị": 2134,
      "ler": 2135,
      "tháo": 2136,
      "rau": 2137,
      "air": 2138,
      "xương": 2139,
      "hiền": 2140,
      "games": 2141,
      "túi": 2142,
      "ez": 2143,
      "tươi": 2144,
      "bây": 2145,
      "chút": 2146,
      "bit": 2147,
      "lam": 2148,
      "dã": 2149,
      "trộm": 2150,
      "tn": 2151,
      "uni": 2152,
      "cứng": 2153,
      "gala": 2154,
      "tứ": 2155,
      "buồn": 2156,
      "mạch": 2157,
      "ona": 2158,
      "điệp": 2159,
      "bữa": 2160,
      "ẳn": 2161,
      "nhĩ": 2162,
      "philipp": 2163,
      "clip": 2164,
      "del": 2165,
      "ghế": 2166,
      "tiếc": 2167,
      "up": 2168,
      "esia": 2169,
      "oo": 2170,
      "hẳn": 2171,
      "city": 2172,
      "win": 2173,
      "hs": 2174,
      "lon": 2175,
      "chốt": 2176,
      "men": 2177,
      "cty": 2178,
      "thảm": 2179,
      "thờ": 2180,
      "van": 2181,
      "thuẫn": 2182,
      "est": 2183,
      "sổ": 2184,
      "hang": 2185,
      "vỏ": 2186,
      "ku": 2187,
      "lúa": 2188,
      "seo": 2189,
      "pore": 2190,
      "ir": 2191,
      "lang": 2192,
      "singa": 2193,
      "ine": 2194,
      "malay": 2195,
      "ùm": 2196,
      "ắk": 2197,
      "nhánh": 2198,
      "singapore": 2199,
      "nhưỡng": 2200,
      "phỏng": 2201,
      "voi": 2202,
      "ste": 2203,
      "mắn": 2204,
      "tang": 2205,
      "u20": 2206,
      "38": 2207,
      "bò": 2208,
      "32": 2209,
      "lợn": 2210,
      "sta": 2211,
      "gt": 2212,
      "lồ": 2213,
      "ngton": 2214,
      "bụ": 2215,
      "trừng": 2216,
      "tuân": 2217,
      "lành": 2218,
      "400": 2219,
      "sút": 2220,
      "dường": 2221,
      "hàm": 2222,
      "xinh": 2223,
      "malaysia": 2224,
      "quên": 2225,
      "canh": 2226,
      "xh": 2227,
      "ris": 2228,
      "coin": 2229,
      "truyện": 2230,
      "nhắn": 2231,
      "chảy": 2232,
      "phượng": 2233,
      "indon": 2234,
      "mỏ": 2235,
      "xóm": 2236,
      "indonesia": 2237,
      "cb": 2238,
      "bó": 2239,
      "vie": 2240,
      "196": 2241,
      "drid": 2242,
      "ger": 2243,
      "tống": 2244,
      "33": 2245,
      "nai": 2246,
      "rắn": 2247,
      "gra": 2248,
      "chiêu": 2249,
      "trục": 2250,
      "cel": 2251,
      "madrid": 2252,
      "cổng": 2253,
      "tel": 2254,
      "lạm": 2255,
      "smartphone": 2256,
      "rối": 2257,
      "thai": 2258,
      "mes": 2259,
      "ngưỡng": 2260,
      "xóa": 2261,
      "34": 2262,
      "philippines": 2263,
      "xưa": 2264,
      "tổn": 2265,
      "bal": 2266,
      "đam": 2267,
      "micro": 2268,
      "kiều": 2269,
      "ps": 2270,
      "quà": 2271,
      "tro": 2272,
      "nhảy": 2273,
      "rael": 2274,
      "tách": 2275,
      "rượ": 2276,
      "tháp": 2277,
      "israel": 2278,
      "galaxy": 2279,
      "tha": 2280,
      "ina": 2281,
      "trầm": 2282,
      "hiển": 2283,
      "iraq": 2284,
      "cống": 2285,
      "rượu": 2286,
      "sáu": 2287,
      "37": 2288,
      "bel": 2289,
      "ji": 2290,
      "chánh": 2291,
      "mâu": 2292,
      "khôi": 2293,
      "bề": 2294,
      "tuệ": 2295,
      "lăng": 2296,
      "lừa": 2297,
      "mãi": 2298,
      "qt": 2299,
      "tor": 2300,
      "ngã": 2301,
      "tvt": 2302,
      "vietnam": 2303,
      "nhiêu": 2304,
      "giây": 2305,
      "gtvt": 2306,
      "thước": 2307,
      "thiệp": 2308,
      "mt": 2309,
      "washi": 2310,
      "iệc": 2311,
      "lào": 2312,
      "vạn": 2313,
      "săn": 2314,
      "lắm": 2315,
      "đb": 2316,
      "đập": 2317,
      "washington": 2318,
      "ana": 2319,
      "tàng": 2320,
      "75": 2321,
      "dàn": 2322,
      "yor": 2323,
      "lính": 2324,
      "thang": 2325,
      "cột": 2326,
      "fu": 2327,
      "cham": 2328,
      "lãng": 2329,
      "dược": 2330,
      "2007": 2331,
      "thận": 2332,
      "ngập": 2333,
      "gà": 2334,
      "vướng": 2335,
      "sữa": 2336,
      "sót": 2337,
      "tốn": 2338,
      "ano": 2339,
      "game": 2340,
      "hảo": 2341,
      "điệu": 2342,
      "hung": 2343,
      "hỏng": 2344,
      "ean": 2345,
      "tắt": 2346,
      "chó": 2347,
      "bồ": 2348,
      "tật": 2349,
      "dày": 2350,
      "tàn": 2351,
      "by": 2352,
      "lọc": 2353,
      "ze": 2354,
      "star": 2355,
      "khiếu": 2356,
      "([": 2357,
      "dow": 2358,
      "gan": 2359,
      "bri": 2360,
      "york": 2361,
      "nhãn": 2362,
      "wal": 2363,
      "55": 2364,
      "chim": 2365,
      "bitcoin": 2366,
      "giấu": 2367,
      "nhũng": 2368,
      "kín": 2369,
      "der": 2370,
      "49": 2371,
      "tuyết": 2372,
      "ren": 2373,
      "ons": 2374,
      "lầm": 2375,
      "pen": 2376,
      "đèn": 2377,
      "kì": 2378,
      "46": 2379,
      "soft": 2380,
      "mực": 2381,
      "47": 2382,
      "ênh": 2383,
      "ấc": 2384,
      "dinh": 2385,
      "dám": 2386,
      "già": 2387,
      "cất": 2388,
      "tràn": 2389,
      "chelsea": 2390,
      "xứng": 2391,
      "khoáng": 2392,
      "ngọt": 2393,
      "lấn": 2394,
      "đốt": 2395,
      "48": 2396,
      "il": 2397,
      "tre": 2398,
      "tròn": 2399,
      "đãi": 2400,
      "gợi": 2401,
      "ukrai": 2402,
      "vic": 2403,
      "huệ": 2404,
      "arsen": 2405,
      "fe": 2406,
      "huyết": 2407,
      "ẫy": 2408,
      "austr": 2409,
      "atar": 2410,
      "rẻ": 2411,
      "vời": 2412,
      "niêm": 2413,
      "hđqt": 2414,
      "phật": 2415,
      "tiệc": 2416,
      "ford": 2417,
      "mảnh": 2418,
      "ing": 2419,
      "thả": 2420,
      "tần": 2421,
      "lus": 2422,
      "tiễn": 2423,
      "sánh": 2424,
      "alia": 2425,
      "cốt": 2426,
      "shi": 2427,
      "chủng": 2428,
      "lệch": 2429,
      "rus": 2430,
      "thcs": 2431,
      "rãi": 2432,
      "you": 2433,
      "emi": 2434,
      "khuyết": 2435,
      "39": 2436,
      "ada": 2437,
      "hư": 2438,
      "chúc": 2439,
      "aldo": 2440,
      "não": 2441,
      "đừng": 2442,
      "vĩ": 2443,
      "war": 2444,
      "taxi": 2445,
      "kar": 2446,
      "dar": 2447,
      "ỉa": 2448,
      "ném": 2449,
      "sắm": 2450,
      "dy": 2451,
      "váy": 2452,
      "mãn": 2453,
      "rào": 2454,
      "gọn": 2455,
      "mũi": 2456,
      "ess": 2457,
      "australia": 2458,
      "dọc": 2459,
      "mas": 2460,
      "mông": 2461,
      "mét": 2462,
      "mv": 2463,
      "móc": 2464,
      "thoái": 2465,
      "soạn": 2466,
      "lưỡng": 2467,
      "quyển": 2468,
      "giày": 2469,
      "ronaldo": 2470,
      "bc": 2471,
      "củng": 2472,
      "qatar": 2473,
      "tand": 2474,
      "campu": 2475,
      "campuchia": 2476,
      "mon": 2477,
      "paris": 2478,
      "hối": 2479,
      "hồn": 2480,
      "bách": 2481,
      "mát": 2482,
      "cỏ": 2483,
      "tx": 2484,
      "xạ": 2485,
      "ươn": 2486,
      "hộp": 2487,
      "u22": 2488,
      "khâu": 2489,
      "triết": 2490,
      "ney": 2491,
      "khái": 2492,
      "fo": 2493,
      "trống": 2494,
      "thùy": 2495,
      "ester": 2496,
      "yết": 2497,
      "xế": 2498,
      "42": 2499,
      "cắp": 2500,
      "arsenal": 2501,
      "ượn": 2502,
      "65": 2503,
      "điền": 2504,
      "thoải": 2505,
      "bùng": 2506,
      "treo": 2507,
      "ner": 2508,
      "đậm": 2509,
      "tina": 2510,
      "microsoft": 2511,
      "xx": 2512,
      "ựng": 2513,
      "pl": 2514,
      "chuyền": 2515,
      "khóc": 2516,
      "đắt": 2517,
      "lò": 2518,
      "ara": 2519,
      "bớt": 2520,
      "bảy": 2521,
      "xưng": 2522,
      "mac": 2523,
      "dắt": 2524,
      "đệ": 2525,
      "hầm": 2526,
      "ben": 2527,
      "han": 2528,
      "vđ": 2529,
      "lọt": 2530,
      "ters": 2531,
      "pal": 2532,
      "nho": 2533,
      "len": 2534,
      "zil": 2535,
      "fran": 2536,
      "ted": 2537,
      "kistan": 2538,
      "ut": 2539,
      "john": 2540,
      "gb": 2541,
      "mảng": 2542,
      "dời": 2543,
      "mạo": 2544,
      "99": 2545,
      "cẩm": 2546,
      "kiệt": 2547,
      "đâm": 2548,
      "bơi": 2549,
      "2006": 2550,
      "it": 2551,
      "dâm": 2552,
      "canada": 2553,
      "táo": 2554,
      "đan": 2555,
      "lee": 2556,
      "gas": 2557,
      "sôi": 2558,
      "liêm": 2559,
      "champi": 2560,
      "chìm": 2561,
      "nhan": 2562,
      "uber": 2563,
      "150": 2564,
      "vỉa": 2565,
      "kiêm": 2566,
      "gar": 2567,
      "pc": 2568,
      "cv": 2569,
      "hô": 2570,
      "vang": 2571,
      "gro": 2572,
      "champions": 2573,
      "leo": 2574,
      "bốc": 2575,
      "vắng": 2576,
      "qđ": 2577,
      "195": 2578,
      "làn": 2579,
      "giấc": 2580,
      "600": 2581,
      "lụ": 2582,
      "01": 2583,
      "triệt": 2584,
      "tôm": 2585,
      "44": 2586,
      "đậu": 2587,
      "vẽ": 2588,
      "vây": 2589,
      "chép": 2590,
      "blo": 2591,
      "sel": 2592,
      "gdp": 2593,
      "mốc": 2594,
      "ley": 2595,
      "ruột": 2596,
      "ễu": 2597,
      "ghép": 2598,
      "nề": 2599,
      "vươn": 2600,
      "ngự": 2601,
      "ngon": 2602,
      "phẫu": 2603,
      "plus": 2604,
      "đắk": 2605,
      "thự": 2606,
      "cụm": 2607,
      "nắng": 2608,
      "robot": 2609,
      "pan": 2610,
      "yến": 2611,
      "vịnh": 2612,
      "ngạc": 2613,
      "2000": 2614,
      "dĩ": 2615,
      "phu": 2616,
      "khoe": 2617,
      "ag": 2618,
      "ting": 2619,
      "xưởng": 2620,
      "nút": 2621,
      "val": 2622,
      "mau": 2623,
      "ngọn": 2624,
      "ukraine": 2625,
      "inho": 2626,
      "ul": 2627,
      "les": 2628,
      "lymp": 2629,
      "dai": 2630,
      "sc": 2631,
      "rập": 2632,
      "um": 2633,
      "41": 2634,
      "67": 2635,
      "nại": 2636,
      "hoan": 2637,
      "bur": 2638,
      "dows": 2639,
      "lậu": 2640,
      "bin": 2641,
      "hẹp": 2642,
      "iệng": 2643,
      "cỡ": 2644,
      "đấy": 2645,
      "đầm": 2646,
      "chùa": 2647,
      "nhựa": 2648,
      "ood": 2649,
      "io": 2650,
      "dio": 2651,
      "cài": 2652,
      "khô": 2653,
      "trưa": 2654,
      "sốt": 2655,
      "lân": 2656,
      "las": 2657,
      "khứ": 2658,
      "fer": 2659,
      "lưng": 2660,
      "miệng": 2661,
      "wan": 2662,
      "ela": 2663,
      "xoay": 2664,
      "thúy": 2665,
      "cúp": 2666,
      "jam": 2667,
      "43": 2668,
      "én": 2669,
      "chừng": 2670,
      "bh": 2671,
      "bám": 2672,
      "heo": 2673,
      "sim": 2674,
      "gr": 2675,
      "khát": 2676,
      "ptnt": 2677,
      "lấp": 2678,
      "ngạch": 2679,
      "ruộng": 2680,
      "barcel": 2681,
      "hot": 2682,
      "barcelona": 2683,
      "den": 2684,
      "tter": 2685,
      "ves": 2686,
      "kí": 2687,
      "thùng": 2688,
      "argen": 2689,
      "tic": 2690,
      "vina": 2691,
      "đựng": 2692,
      "olymp": 2693,
      "trôi": 2694,
      "cơm": 2695,
      "kyo": 2696,
      "luân": 2697,
      "lỏng": 2698,
      "phiến": 2699,
      "ther": 2700,
      "des": 2701,
      "chip": 2702,
      "vẹn": 2703,
      "ye": 2704,
      "news": 2705,
      "):": 2706,
      "won": 2707,
      "ale": 2708,
      "85": 2709,
      "res": 2710,
      "khống": 2711,
      "iếng": 2712,
      "combank": 2713,
      "hòn": 2714,
      "her": 2715,
      "hò": 2716,
      "hđnd": 2717,
      "ken": 2718,
      "argentina": 2719,
      "ýt": 2720,
      "khoảnh": 2721,
      "dò": 2722,
      "cáp": 2723,
      "windows": 2724,
      "nhã": 2725,
      "lãm": 2726,
      "2005": 2727,
      "thợ": 2728,
      "line": 2729,
      "brazil": 2730,
      "vợt": 2731,
      "gã": 2732,
      "nhịp": 2733,
      "bổng": 2734,
      "ẹt": 2735,
      "/.": 2736,
      "lí": 2737,
      "2019": 2738,
      "thâm": 2739,
      "putin": 2740,
      "bro": 2741,
      "lli": 2742,
      "andro": 2743,
      "bỉ": 2744,
      "nđ": 2745,
      "dâu": 2746,
      "xico": 2747,
      "ak": 2748,
      "lặng": 2749,
      "thô": 2750,
      "mượn": 2751,
      "bon": 2752,
      "68": 2753,
      "95": 2754,
      "gon": 2755,
      "mười": 2756,
      "nhạy": 2757,
      "khoác": 2758,
      "800": 2759,
      "london": 2760,
      "bụi": 2761,
      "ec": 2762,
      "ab": 2763,
      "thói": 2764,
      "ớp": 2765,
      "kt": 2766,
      "cen": 2767,
      "nhung": 2768,
      "chai": 2769,
      "ốm": 2770,
      "messi": 2771,
      "64": 2772,
      "bơ": 2773,
      "phe": 2774,
      "mour": 2775,
      "hưu": 2776,
      "nas": 2777,
      "mây": 2778,
      "sd": 2779,
      "ẫm": 2780,
      "hạm": 2781,
      "tes": 2782,
      "eland": 2783,
      "vả": 2784,
      "liver": 2785,
      "khuyên": 2786,
      "miếu": 2787,
      "berg": 2788,
      "sto": 2789,
      "quyến": 2790,
      "ten": 2791,
      "khang": 2792,
      "hol": 2793,
      "mm": 2794,
      "mùi": 2795,
      "52": 2796,
      "mourinho": 2797,
      "youtu": 2798,
      "tus": 2799,
      "nấu": 2800,
      "quét": 2801,
      "lh": 2802,
      "ander": 2803,
      "sky": 2804,
      "vy": 2805,
      "ghan": 2806,
      "gánh": 2807,
      "giật": 2808,
      "hđxx": 2809,
      "trọn": 2810,
      "khéo": 2811,
      "mb": 2812,
      "ob": 2813,
      "trứng": 2814,
      "site": 2815,
      "reu": 2816,
      "lôi": 2817,
      "youtube": 2818,
      "vũng": 2819,
      "úy": 2820,
      "bón": 2821,
      "bấy": 2822,
      "ngợi": 2823,
      "fc": 2824,
      "hag": 2825,
      "gìn": 2826,
      "rèn": 2827,
      "cẩn": 2828,
      "dex": 2829,
      "trội": 2830,
      "sun": 2831,
      "pool": 2832,
      "ds": 2833,
      "./.": 2834,
      "thở": 2835,
      "sáp": 2836,
      "char": 2837,
      "đeo": 2838,
      "asean": 2839,
      "bọn": 2840,
      "nhàng": 2841,
      "đạp": 2842,
      "tia": 2843,
      "khe": 2844,
      "jong": 2845,
      "cưỡng": 2846,
      "dỡ": 2847,
      "hd": 2848,
      "dính": 2849,
      "tte": 2850,
      "ql": 2851,
      "king": 2852,
      "700": 2853,
      "ìa": 2854,
      "quyên": 2855,
      "ac": 2856,
      "je": 2857,
      "hen": 2858,
      "vất": 2859,
      "bích": 2860,
      "tám": 2861,
      "lla": 2862,
      "khơi": 2863,
      "bếp": 2864,
      "rạng": 2865,
      "77": 2866,
      "mexico": 2867,
      "reuters": 2868,
      "vải": 2869,
      "51": 2870,
      "loa": 2871,
      "mộc": 2872,
      "albu": 2873,
      "dra": 2874,
      "ướt": 2875,
      "ini": 2876,
      "bđ": 2877,
      "xả": 2878,
      "120": 2879,
      "sha": 2880,
      "mến": 2881,
      "đống": 2882,
      "lui": 2883,
      "đắc": 2884,
      "barca": 2885,
      "chênh": 2886,
      "pho": 2887,
      "58": 2888,
      "nhnn": 2889,
      "gạch": 2890,
      "android": 2891,
      "chester": 2892,
      "trắc": 2893,
      "xỉ": 2894,
      "đẻ": 2895,
      "thục": 2896,
      "lđlđ": 2897,
      "gre": 2898,
      "rt": 2899,
      "ngộ": 2900,
      "chín": 2901,
      "lũy": 2902,
      "tước": 2903,
      "chặng": 2904,
      "say": 2905,
      "eri": 2906,
      "72": 2907,
      "hoá": 2908,
      "nia": 2909,
      "gián": 2910,
      "giận": 2911,
      "bla": 2912,
      "olympic": 2913,
      "ital": 2914,
      "đồi": 2915,
      "tm": 2916,
      "nảy": 2917,
      "mệt": 2918,
      "ùn": 2919,
      "bái": 2920,
      "dập": 2921,
      "2004": 2922,
      "united": 2923,
      "liverpool": 2924,
      ",...": 2925,
      "lông": 2926,
      "muộn": 2927,
      "hụt": 2928,
      "88": 2929,
      "twi": 2930,
      "wer": 2931,
      "jack": 2932,
      "ceo": 2933,
      "hagl": 2934,
      "cal": 2935,
      "56": 2936,
      "nhì": 2937,
      "cor": 2938,
      "ĩa": 2939,
      "lạp": 2940,
      "set": 2941,
      "lứa": 2942,
      "cker": 2943,
      "rồng": 2944,
      "premi": 2945,
      "đoan": 2946,
      "tọa": 2947,
      "khiêm": 2948,
      "vđv": 2949,
      "57": 2950,
      "zon": 2951,
      "bre": 2952,
      "côn": 2953,
      "pgs": 2954,
      "qh": 2955,
      "ranh": 2956,
      "đôn": 2957,
      "nhí": 2958,
      "tị": 2959,
      "dội": 2960,
      "nhẫn": 2961,
      "pec": 2962,
      "logi": 2963,
      "afghan": 2964,
      "sốc": 2965,
      "fed": 2966,
      "tráng": 2967,
      "album": 2968,
      "1990": 2969,
      "mẻ": 2970,
      "group": 2971,
      "david": 2972,
      "grab": 2973,
      "59": 2974,
      "bột": 2975,
      "kông": 2976,
      "bận": 2977,
      "mosco": 2978,
      "diệu": 2979,
      "nhơn": 2980,
      "tiêm": 2981,
      "đằng": 2982,
      "que": 2983,
      "moscow": 2984,
      "afghanistan": 2985,
      "h30": 2986,
      "htx": 2987,
      "play": 2988,
      "lão": 2989,
      "eli": 2990,
      "mobi": 2991,
      "kong": 2992,
      "lf": 2993,
      "đáy": 2994,
      "btc": 2995,
      "mỏi": 2996,
      "gram": 2997,
      "cậy": 2998,
      "nhắm": 2999,
      "nhở": 3000,
      "trân": 3001,
      "led": 3002,
      "cntt": 3003,
      "nation": 3004,
      "ky": 3005,
      "alex": 3006,
      "manchester": 3007,
      "index": 3008,
      "website": 3009,
      "phùng": 3010,
      "kur": 3011,
      "hỗn": 3012,
      "vff": 3013,
      "ãng": 3014,
      "note": 3015,
      "bỏng": 3016,
      "pri": 3017,
      "ằn": 3018,
      "manh": 3019,
      "mí": 3020,
      "ns": 3021,
      "hong": 3022,
      "ỗng": 3023,
      "pau": 3024,
      "chuột": 3025,
      "tech": 3026,
      "đói": 3027,
      "luồng": 3028,
      "ccc": 3029,
      "flo": 3030,
      "bs": 3031,
      "mổ": 3032,
      "dam": 3033,
      "rũ": 3034,
      "wood": 3035,
      "gũi": 3036,
      "móng": 3037,
      "xách": 3038,
      "62": 3039,
      "bát": 3040,
      "nato": 3041,
      "chiêm": 3042,
      "bông": 3043,
      "2003": 3044,
      "bơm": 3045,
      "giãn": 3046,
      "saudi": 3047,
      "lường": 3048,
      "bút": 3049,
      "gy": 3050,
      "tine": 3051,
      "bus": 3052,
      "dệt": 3053,
      "vội": 3054,
      "vượng": 3055,
      "ngựa": 3056,
      "dia": 3057,
      "54": 3058,
      "sụp": 3059,
      "nở": 3060,
      "hcv": 3061,
      "ie": 3062,
      "lõi": 3063,
      "trâu": 3064,
      "dạ": 3065,
      "bert": 3066,
      "khải": 3067,
      "inch": 3068,
      "ae": 3069,
      "rỡ": 3070,
      "dãy": 3071,
      "liêu": 3072,
      "ls": 3073,
      "ms": 3074,
      "obama": 3075,
      "trùm": 3076,
      "miss": 3077,
      "đòn": 3078,
      "bội": 3079,
      "láng": 3080,
      "iii": 3081,
      "twitter": 3082,
      "tạ": 3083,
      "đĩa": 3084,
      "63": 3085,
      "phun": 3086,
      "trộn": 3087,
      "ireland": 3088,
      "geo": 3089,
      "trọ": 3090,
      "nhị": 3091,
      "tụng": 3092,
      "nham": 3093,
      "dâng": 3094,
      "virus": 3095,
      "ttel": 3096,
      "sạc": 3097,
      "ngãi": 3098,
      "sưu": 3099,
      "aland": 3100,
      "răng": 3101,
      "dẹp": 3102,
      "csgt": 3103,
      "sal": 3104,
      "giáng": 3105,
      "pccc": 3106,
      "khép": 3107,
      "lật": 3108,
      "tí": 3109,
      "thấu": 3110,
      "ker": 3111,
      "lở": 3112,
      "ght": 3113,
      "premier": 3114,
      "way": 3115,
      "dồn": 3116,
      "om": 3117,
      "53": 3118,
      "nhầm": 3119,
      "chôn": 3120,
      "mark": 3121,
      "lùi": 3122,
      "sti": 3123,
      "thạnh": 3124,
      "mù": 3125,
      "quỷ": 3126,
      "quái": 3127,
      "cia": 3128,
      "hoãn": 3129,
      "chém": 3130,
      "ngõ": 3131,
      "los": 3132,
      "79": 3133,
      "lou": 3134,
      "buýt": 3135,
      "02": 3136,
      "lề": 3137,
      "lạng": 3138,
      "đắp": 3139,
      "ari": 3140,
      "biz": 3141,
      "chael": 3142,
      "stan": 3143,
      "khói": 3144,
      "michael": 3145,
      "78": 3146,
      "dọn": 3147,
      "xá": 3148,
      "thám": 3149,
      "hoành": 3150,
      "tựu": 3151,
      "ino": 3152,
      "66": 3153,
      "kel": 3154,
      "vtv": 3155,
      "nan": 3156,
      "und": 3157,
      "sâm": 3158,
      "myan": 3159,
      "zealand": 3160,
      "rạp": 3161,
      "phế": 3162,
      "ngừa": 3163,
      "br": 3164,
      "mỏng": 3165,
      "vở": 3166,
      "khê": 3167,
      "trăn": 3168,
      "times": 3169,
      "lero": 3170,
      "oanh": 3171,
      "hit": 3172,
      "gay": 3173,
      "92": 3174,
      "tắm": 3175,
      "ụng": 3176,
      "cắm": 3177,
      "mậu": 3178,
      "gắt": 3179,
      "lữ": 3180,
      "pad": 3181,
      "ny": 3182,
      "myanmar": 3183,
      "vks": 3184,
      "sụt": 3185,
      "james": 3186,
      "national": 3187,
      "bụng": 3188,
      "blu": 3189,
      "khoan": 3190,
      "ngào": 3191,
      "dal": 3192,
      "nes": 3193,
      "trượt": 3194,
      "cửu": 3195,
      "quế": 3196,
      "cy": 3197,
      "grand": 3198,
      "vh": 3199,
      "léo": 3200,
      "cas": 3201,
      "%;": 3202,
      "mũ": 3203,
      "s8": 3204,
      "bưu": 3205,
      "đới": 3206,
      "chris": 3207,
      "viettel": 3208,
      "vp": 3209,
      "ỡi": 3210,
      "jan": 3211,
      "mor": 3212,
      "sợi": 3213,
      "cong": 3214,
      "kan": 3215,
      "kon": 3216,
      "bọc": 3217,
      "nghiện": 3218,
      "gom": 3219,
      "ôtô": 3220,
      "dv": 3221,
      "miếng": 3222,
      "98": 3223,
      "tủ": 3224,
      "csđt": 3225,
      "thắn": 3226,
      "thoa": 3227,
      "bm": 3228,
      "măng": 3229,
      "ea": 3230,
      "mập": 3231,
      "lộn": 3232,
      "cali": 3233,
      "tokyo": 3234,
      "phím": 3235,
      "bolero": 3236,
      "daily": 3237,
      "how": 3238,
      "bể": 3239,
      "nasa": 3240,
      "đúc": 3241,
      "đứt": 3242,
      "vóc": 3243,
      "haw": 3244,
      "mail": 3245,
      "nụ": 3246,
      "mir": 3247,
      "hiếp": 3248,
      "ash": 3249,
      "ctcp": 3250,
      "đính": 3251,
      "dc": 3252,
      "emen": 3253,
      "jer": 3254,
      "tar": 3255,
      "tcn": 3256,
      "dốc": 3257,
      "zu": 3258,
      "amazon": 3259,
      "gir": 3260,
      "red": 3261,
      "băn": 3262,
      "cer": 3263,
      "rực": 3264,
      "quãng": 3265,
      "mờ": 3266,
      "vành": 3267,
      "ail": 3268,
      "mtv": 3269,
      "kép": 3270,
      "1980": 3271,
      "uz": 3272,
      "qui": 3273,
      "61": 3274,
      "nghiệt": 3275,
      "bế": 3276,
      "lỡ": 3277,
      "đê": 3278,
      "ell": 3279,
      "chuộng": 3280,
      "ngắm": 3281,
      "bhxh": 3282,
      "lg": 3283,
      "mạn": 3284,
      "ev": 3285,
      "thổi": 3286,
      "vnpt": 3287,
      "cher": 3288,
      "golf": 3289,
      "nger": 3290,
      "hoại": 3291,
      "lồng": 3292,
      "khoăn": 3293,
      "250": 3294,
      "cóc": 3295,
      "ngơi": 3296,
      "nguyệt": 3297,
      "wo": 3298,
      "mat": 3299,
      "pvn": 3300,
      "múa": 3301,
      "nhiếp": 3302,
      "trạch": 3303,
      "ray": 3304,
      "sil": 3305,
      "lặn": 3306,
      "lặp": 3307,
      "thắc": 3308,
      "2002": 3309,
      "tiệm": 3310,
      "lines": 3311,
      "day": 3312,
      "2001": 3313,
      "ah": 3314,
      "gp": 3315,
      "thắt": 3316,
      "hố": 3317,
      "nhôm": 3318,
      "mộng": 3319,
      "ngực": 3320,
      "nlđ": 3321,
      "trễ": 3322,
      "thơm": 3323,
      "76": 3324,
      "ios": 3325,
      "lây": 3326,
      "mặn": 3327,
      "khuẩn": 3328,
      "catal": 3329,
      "%/": 3330,
      "tex": 3331,
      "tb": 3332,
      "angel": 3333,
      "qg": 3334,
      "online": 3335,
      "nồng": 3336,
      "1999": 3337,
      "ller": 3338,
      "califor": 3339,
      "mồi": 3340,
      "showbiz": 3341,
      "bor": 3342,
      "khía": 3343,
      "kr": 3344,
      "89": 3345,
      "bộc": 3346,
      "milan": 3347,
      "vấp": 3348,
      "california": 3349,
      "86": 3350,
      "xao": 3351,
      "kĩ": 3352,
      "1997": 3353,
      "lau": 3354,
      "đành": 3355,
      "ngoan": 3356,
      "71": 3357,
      "lor": 3358,
      "nv": 3359,
      "rich": 3360,
      "sou": 3361,
      "hắn": 3362,
      "đắn": 3363,
      "suối": 3364,
      "lie": 3365,
      "liga": 3366,
      "neymar": 3367,
      "09": 3368,
      "dở": 3369,
      "fpt": 3370,
      "kẹt": 3371,
      "pakistan": 3372,
      "xích": 3373,
      "bỗng": 3374,
      "chăng": 3375,
      "hước": 3376,
      "muối": 3377,
      "tặc": 3378,
      "chen": 3379,
      "lib": 3380,
      "thửa": 3381,
      "hãi": 3382,
      "bàng": 3383,
      "ek": 3384,
      "ot": 3385,
      "wat": 3386,
      "thon": 3387,
      "05": 3388,
      "jor": 3389,
      "ster": 3390,
      "lụa": 3391,
      "nhường": 3392,
      "ble": 3393,
      "mò": 3394,
      "ún": 3395,
      "port": 3396,
      "lắk": 3397,
      "tơ": 3398,
      "sci": 3399,
      "ngoặt": 3400,
      "ena": 3401,
      "gấu": 3402,
      "mường": 3403,
      "yu": 3404,
      "khốc": 3405,
      "kíp": 3406,
      "seoul": 3407,
      "pales": 3408,
      "hở": 3409,
      "đùa": 3410,
      "airlines": 3411,
      "dải": 3412,
      "rùa": 3413,
      "83": 3414,
      "tóm": 3415,
      "oan": 3416,
      "rỉ": 3417,
      "rửa": 3418,
      "py": 3419,
      "xí": 3420,
      "thạc": 3421,
      "var": 3422,
      "guar": 3423,
      "táng": 3424,
      "geor": 3425,
      "dl": 3426,
      "jose": 3427,
      "73": 3428,
      "cạn": 3429,
      "all": 3430,
      "nik": 3431,
      "69": 3432,
      "ớn": 3433,
      "fdi": 3434,
      "sạt": 3435,
      "])": 3436,
      "kurd": 3437,
      "nứt": 3438,
      "đụng": 3439,
      "túng": 3440,
      "zo": 3441,
      "ềng": 3442,
      "gò": 3443,
      "giềng": 3444,
      "ưởi": 3445,
      "fin": 3446,
      "sập": 3447,
      "uzbe": 3448,
      "lc": 3449,
      "paul": 3450,
      "girl": 3451,
      "palestine": 3452,
      "black": 3453,
      "gục": 3454,
      "ern": 3455,
      "tur": 3456,
      "%),": 3457,
      "mel": 3458,
      "phụng": 3459,
      "model": 3460,
      "holly": 3461,
      "tron": 3462,
      "khớp": 3463,
      "pop": 3464,
      "tour": 3465,
      "fifa": 3466,
      "oce": 3467,
      "mì": 3468,
      "ima": 3469,
      "liều": 3470,
      "vuông": 3471,
      "ngột": 3472,
      "cus": 3473,
      "tựa": 3474,
      "ngụy": 3475,
      "uzbekistan": 3476,
      "pla": 3477,
      "lầu": 3478,
      "intel": 3479,
      "lives": 3480,
      "03": 3481,
      "kề": 3482,
      "lận": 3483,
      "mọc": 3484,
      "nấm": 3485,
      "mía": 3486,
      "giường": 3487,
      "ap": 3488,
      "email": 3489,
      "ocean": 3490,
      "radar": 3491,
      "andre": 3492,
      "dro": 3493,
      "%).": 3494,
      "rộn": 3495,
      "sacombank": 3496,
      "hái": 3497,
      "dạn": 3498,
      "lap": 3499,
      "ẹo": 3500,
      "miêu": 3501,
      "khanh": 3502,
      "macron": 3503,
      "bt": 3504,
      "m3": 3505,
      "màng": 3506,
      "xông": 3507,
      "87": 3508,
      "lội": 3509,
      "nor": 3510,
      "pas": 3511,
      "nã": 3512,
      "tạng": 3513,
      "arabia": 3514,
      "1992": 3515,
      "dis": 3516,
      "apec": 3517,
      "fone": 3518,
      "đọng": 3519,
      "khuất": 3520,
      "cry": 3521,
      "iv": 3522,
      "ươm": 3523,
      "comp": 3524,
      "chan": 3525,
      "khuê": 3526,
      "uss": 3527,
      "]),": 3528,
      "cúng": 3529,
      "diễm": 3530,
      "willi": 3531,
      "oxy": 3532,
      "quát": 3533,
      "ding": 3534,
      "juven": 3535,
      "84": 3536,
      "chán": 3537,
      "cđv": 3538,
      "gor": 3539,
      "3d": 3540,
      "xit": 3541,
      "tồi": 3542,
      "vla": 3543,
      "rung": 3544,
      "live": 3545,
      "dịu": 3546,
      "hollywood": 3547,
      "cước": 3548,
      "ei": 3549,
      "vel": 3550,
      "lùng": 3551,
      "sét": 3552,
      "xôn": 3553,
      "nạp": 3554,
      "chiết": 3555,
      "ngặt": 3556,
      "chê": 3557,
      "đạc": 3558,
      "hổng": 3559,
      "châm": 3560,
      "nex": 3561,
      "west": 3562,
      "thoáng": 3563,
      "đuôi": 3564,
      "bấm": 3565,
      "gang": 3566,
      "điêu": 3567,
      "juventus": 3568,
      "74": 3569,
      "lụt": 3570,
      "lle": 3571,
      "khôn": 3572,
      "psg": 3573,
      "ey": 3574,
      "ốp": 3575,
      "04": 3576,
      "op": 3577,
      "ròng": 3578,
      "béo": 3579,
      "82": 3580,
      "dán": 3581,
      "chè": 3582,
      "1996": 3583,
      "jean": 3584,
      "pix": 3585,
      "nát": 3586,
      "ặm": 3587,
      "sic": 3588,
      "07": 3589,
      "nô": 3590,
      "ary": 3591,
      "hạch": 3592,
      "buông": 3593,
      "%)": 3594,
      "hoạn": 3595,
      "rã": 3596,
      "post": 3597,
      "kov": 3598,
      "kiềm": 3599,
      "kỉ": 3600,
      "lt": 3601,
      "phiền": 3602,
      "?.": 3603,
      "ward": 3604,
      "nk": 3605,
      "beco": 3606,
      "home": 3607,
      "ura": 3608,
      "kha": 3609,
      "dong": 3610,
      "xê": 3611,
      "robert": 3612,
      "1995": 3613,
      "jet": 3614,
      "130": 3615,
      "hé": 3616,
      "ling": 3617,
      "press": 3618,
      "gãy": 3619,
      "dd": 3620,
      "khan": 3621,
      "sl": 3622,
      "ever": 3623,
      "rể": 3624,
      "wn": 3625,
      "mòn": 3626,
      "rẽ": 3627,
      "xen": 3628,
      "lũng": 3629,
      "sấu": 3630,
      "venez": 3631,
      "đán": 3632,
      "ẻo": 3633,
      "totte": 3634,
      "1994": 3635,
      "glo": 3636,
      "laptop": 3637,
      "tottenham": 3638,
      "ráp": 3639,
      "bèn": 3640,
      "jc": 3641,
      "900": 3642,
      "93": 3643,
      "thưa": 3644,
      "brid": 3645,
      "cốc": 3646,
      "2021": 3647,
      "lát": 3648,
      "mồ": 3649,
      "kcn": 3650,
      "dor": 3651,
      "mini": 3652,
      "nâu": 3653,
      "bv": 3654,
      "jen": 3655,
      "uela": 3656,
      "1945": 3657,
      "bong": 3658,
      "thắm": 3659,
      "rủ": 3660,
      "nhạt": 3661,
      "lhq": 3662,
      "quật": 3663,
      "1975": 3664,
      "venezuela": 3665,
      "06": 3666,
      "vét": 3667,
      "ros": 3668,
      "bùn": 3669,
      "international": 3670,
      "kin": 3671,
      "1970": 3672,
      "sony": 3673,
      "sp": 3674,
      "81": 3675,
      "u19": 3676,
      "hond": 3677,
      "nadal": 3678,
      "cnn": 3679,
      "scot": 3680,
      "nghịch": 3681,
      "cọc": 3682,
      "khiếp": 3683,
      "tum": 3684,
      "dồi": 3685,
      "mày": 3686,
      "nhọn": 3687,
      "gv": 3688,
      "moon": 3689,
      "william": 3690,
      "gác": 3691,
      "cởi": 3692,
      "nok": 3693,
      "xám": 3694,
      "cuồng": 3695,
      "9x": 3696,
      "shar": 3697,
      "cci": 3698,
      "cua": 3699,
      "1998": 3700,
      "lăn": 3701,
      "lạt": 3702,
      "ngẫu": 3703,
      "rea": 3704,
      "96": 3705,
      "dạo": 3706,
      "tz": 3707,
      "dol": 3708,
      "lụy": 3709,
      "bđs": 3710,
      "dối": 3711,
      "gđ": 3712,
      "rạch": 3713,
      "rệt": 3714,
      "thầm": 3715,
      "elec": 3716,
      "''": 3717,
      "sna": 3718,
      "ếch": 3719,
      "pixel": 3720,
      "chéo": 3721,
      "andal": 3722,
      "97": 3723,
      "him": 3724,
      "phen": 3725,
      "insta": 3726,
      "rắc": 3727,
      "mara": 3728,
      "bayern": 3729,
      "khiêu": 3730,
      "....": 3731,
      "ngưng": 3732,
      "tran": 3733,
      "òm": 3734,
      "cay": 3735,
      "đớn": 3736,
      "nokia": 3737,
      "xk": 3738,
      "điên": 3739,
      "nhậm": 3740,
      "italy": 3741,
      "1993": 3742,
      "ami": 3743,
      "tom": 3744,
      "rock": 3745,
      "hôi": 3746,
      "vladi": 3747,
      "lắc": 3748,
      "phẳng": 3749,
      "1991": 3750,
      "08": 3751,
      "rò": 3752,
      "tưới": 3753,
      "báu": 3754,
      "nhé": 3755,
      "tím": 3756,
      "nạo": 3757,
      "scotland": 3758,
      "110": 3759,
      "gold": 3760,
      "kara": 3761,
      "mit": 3762,
      "vck": 3763,
      "ppo": 3764,
      "poli": 3765,
      "bbc": 3766,
      "tê": 3767,
      "khương": 3768,
      "onia": 3769,
      "stein": 3770,
      "instagram": 3771,
      "seri": 3772,
      "bai": 3773,
      "ịa": 3774,
      "hận": 3775,
      "gai": 3776,
      "mèo": 3777,
      "đuối": 3778,
      "stre": 3779,
      "ani": 3780,
      "2030": 3781,
      "rộ": 3782,
      "đếm": 3783,
      "ment": 3784,
      "rin": 3785,
      "hoà": 3786,
      "kv": 3787,
      "ngần": 3788,
      "nuối": 3789,
      "mẫn": 3790,
      "nếp": 3791,
      "ua": 3792,
      "dragon": 3793,
      "nương": 3794,
      "rome": 3795,
      "nghiêng": 3796,
      "eld": 3797,
      "hãn": 3798,
      "ning": 3799,
      "jon": 3800,
      "tem": 3801,
      "then": 3802,
      "die": 3803,
      "time": 3804,
      "chuồng": 3805,
      "mad": 3806,
      "hân": 3807,
      "ero": 3808,
      "tou": 3809,
      "dani": 3810,
      "nhát": 3811,
      "bì": 3812,
      "rịa": 3813,
      "tis": 3814,
      "asi": 3815,
      "gốm": 3816,
      "sương": 3817,
      "univer": 3818,
      "dừa": 3819,
      "giế": 3820,
      "huân": 3821,
      "bill": 3822,
      "oceanbank": 3823,
      "thung": 3824,
      "hóc": 3825,
      "vạch": 3826,
      "baba": 3827,
      "blue": 3828,
      "fla": 3829,
      "nén": 3830,
      "nhậu": 3831,
      "duệ": 3832,
      "deir": 3833,
      "bka": 3834,
      "evn": 3835,
      "pol": 3836,
      "350": 3837,
      "súc": 3838,
      "carbon": 3839,
      "đàng": 3840,
      "lei": 3841,
      "colo": 3842,
      "160": 3843,
      "chật": 3844,
      "big": 3845,
      "miện": 3846,
      "chửi": 3847,
      "toyo": 3848,
      "cấy": 3849,
      "neo": 3850,
      "siết": 3851,
      "xà": 3852,
      "lột": 3853,
      "boy": 3854,
      "nhiễu": 3855,
      "mác": 3856,
      "91": 3857,
      "thấm": 3858,
      "đệm": 3859,
      "chìa": 3860,
      "fox": 3861,
      "spi": 3862,
      "super": 3863,
      "stu": 3864,
      "bồn": 3865,
      "fre": 3866,
      "sv": 3867,
      "ue": 3868,
      "xát": 3869,
      "chư": 3870,
      "khao": 3871,
      "ngón": 3872,
      "martin": 3873,
      "jus": 3874,
      "pvc": 3875,
      "1989": 3876,
      "thềm": 3877,
      "chuối": 3878,
      "bes": 3879,
      "khâm": 3880,
      "hyun": 3881,
      "dj": 3882,
      "kẽ": 3883,
      "xướng": 3884,
      "spa": 3885,
      "thy": 3886,
      "1960": 3887,
      "china": 3888,
      "snap": 3889,
      "cis": 3890,
      "2025": 3891,
      "tico": 3892,
      "med": 3893,
      "bẫy": 3894,
      "sin": 3895,
      "zor": 3896,
      "catalonia": 3897,
      "jordan": 3898,
      "càn": 3899,
      "thoảng": 3900,
      "ntk": 3901,
      "nis": 3902,
      "burg": 3903,
      "cat": 3904,
      "cắn": 3905,
      "sad": 3906,
      "uel": 3907,
      "chat": 3908,
      "capi": 3909,
      "young": 3910,
      "cri": 3911,
      "chang": 3912,
      "ngỡ": 3913,
      "prote": 3914,
      "vladimir": 3915,
      "bẩn": 3916,
      "tràng": 3917,
      "thủng": 3918,
      "file": 3919,
      "shin": 3920,
      "nobel": 3921,
      "ntm": 3922,
      "aya": 3923,
      "zing": 3924,
      "hel": 3925,
      "anton": 3926,
      "qa": 3927,
      "hou": 3928,
      "ema": 3929,
      "rou": 3930,
      "ván": 3931,
      "wang": 3932,
      "xít": 3933,
      "jun": 3934,
      "trán": 3935,
      "hat": 3936,
      "lướt": 3937,
      "mươi": 3938,
      "xẻ": 3939,
      "viền": 3940,
      "use": 3941,
      "ware": 3942,
      "eng": 3943,
      "ture": 3944,
      "power": 3945,
      "hye": 3946,
      "mỉ": 3947,
      "hoán": 3948,
      "đấm": 3949,
      "wei": 3950,
      "italia": 3951,
      "dem": 3952,
      "zy": 3953,
      "comm": 3954,
      "vs": 3955,
      "diệp": 3956,
      "sing": 3957,
      "oai": 3958,
      "cou": 3959,
      "ttg": 3960,
      "khỉ": 3961,
      "bab": 3962,
      "nsnd": 3963,
      "thỉnh": 3964,
      "1m": 3965,
      "tẩy": 3966,
      "quách": 3967,
      "mỡ": 3968,
      "cừ": 3969,
      "fbi": 3970,
      "hao": 3971,
      "tẩu": 3972,
      "bkav": 3973,
      "tò": 3974,
      "old": 3975,
      "giếng": 3976,
      "muni": 3977,
      "offi": 3978,
      "toyota": 3979,
      "4g": 3980,
      "gat": 3981,
      "bưởi": 3982,
      "đạm": 3983,
      "alem": 3984,
      "bah": 3985,
      "sabeco": 3986,
      "series": 3987,
      "lar": 3988,
      "libya": 3989,
      "gối": 3990,
      "răn": 3991,
      "tct": 3992,
      "bara": 3993,
      "alibaba": 3994,
      "hari": 3995,
      "cuba": 3996,
      "ovic": 3997,
      "dẫu": 3998,
      "dian": 3999,
      "bắp": 4000,
      "tao": 4001,
      "sar": 4002,
      "contai": 4003,
      "1988": 4004,
      "yan": 4005,
      "cr": 4006,
      "lẫy": 4007,
      "phar": 4008,
      "bul": 4009,
      "mah": 4010,
      "george": 4011,
      "vã": 4012,
      "nhặt": 4013,
      "giọt": 4014,
      "fie": 4015,
      "dấy": 4016,
      "baby": 4017,
      "sch": 4018,
      "usb": 4019,
      "ast": 4020,
      "container": 4021,
      "chẩn": 4022,
      "ain": 4023,
      "tele": 4024,
      "az": 4025,
      "kas": 4026,
      "nsư": 4027,
      "nsưt": 4028,
      "fri": 4029,
      "pay": 4030,
      "oled": 4031,
      "nới": 4032,
      "còi": 4033,
      "2022": 4034,
      "rio": 4035,
      "vịt": 4036,
      "đắm": 4037,
      "bidv": 4038,
      "bén": 4039,
      "pg": 4040,
      "sty": 4041,
      "vá": 4042,
      "chay": 4043,
      "max": 4044,
      "sey": 4045,
      "ces": 4046,
      "lộng": 4047,
      "out": 4048,
      "khoang": 4049,
      "94": 4050,
      "mari": 4051,
      "mìn": 4052,
      "zen": 4053,
      "180": 4054,
      "rao": 4055,
      "xót": 4056,
      "utd": 4057,
      "kor": 4058,
      "đực": 4059,
      "hoi": 4060,
      "xd": 4061,
      "agri": 4062,
      "kẹo": 4063,
      "lim": 4064,
      "nhược": 4065,
      "đbqh": 4066,
      ".,": 4067,
      "pra": 4068,
      "mobile": 4069,
      "éc": 4070,
      "cos": 4071,
      "1986": 4072,
      "dỗ": 4073,
      "trãi": 4074,
      "via": 4075,
      "nòng": 4076,
      "tti": 4077,
      "chua": 4078,
      "logic": 4079,
      "nàn": 4080,
      "ngỏ": 4081,
      "ghen": 4082,
      "gal": 4083,
      "miên": 4084,
      "chà": 4085,
      "khiếm": 4086,
      "tràm": 4087,
      "oscar": 4088,
      "office": 4089,
      "vietcombank": 4090,
      "gri": 4091,
      "tup": 4092,
      "cris": 4093,
      "lánh": 4094,
      "boe": 4095,
      "cồn": 4096,
      "usalem": 4097,
      "cò": 4098,
      "chọc": 4099,
      "mw": 4100,
      "ori": 4101,
      "tào": 4102,
      "chez": 4103,
      "jerusalem": 4104,
      "mbia": 4105,
      "zim": 4106,
      "qual": 4107,
      "liễu": 4108,
      "phơi": 4109,
      "camp": 4110,
      "protein": 4111,
      "360": 4112,
      "cối": 4113,
      "tà": 4114,
      "ers": 4115,
      "chile": 4116,
      "sion": 4117,
      "scandal": 4118,
      "kem": 4119,
      "sg": 4120,
      "mãnh": 4121,
      "afp": 4122,
      "dr": 4123,
      "nướng": 4124,
      "vas": 4125,
      "hua": 4126,
      "view": 4127,
      "electron": 4128,
      "flc": 4129,
      "lít": 4130,
      "ise": 4131,
      "sanchez": 4132,
      "selfie": 4133,
      "1000": 4134,
      "kệ": 4135,
      "moto": 4136,
      "wanna": 4137,
      "abe": 4138,
      "gio": 4139,
      "tuyền": 4140,
      "jin": 4141,
      "ov": 4142,
      "lhp": 4143,
      "global": 4144,
      "jes": 4145,
      "vksnd": 4146,
      "hnx": 4147,
      "conte": 4148,
      "bridge": 4149,
      "photo": 4150,
      "bphone": 4151,
      "xảo": 4152,
      "soo": 4153,
      "jae": 4154,
      "abu": 4155,
      "thiêu": 4156,
      "mị": 4157,
      "luka": 4158,
      "lưỡi": 4159,
      "startup": 4160,
      "cỗ": 4161,
      "ựu": 4162,
      "leon": 4163,
      "qualcomm": 4164,
      "hốt": 4165,
      "cnv": 4166,
      "berlin": 4167,
      "far": 4168,
      "rẫy": 4169,
      "cám": 4170,
      "ộp": 4171,
      "bạt": 4172,
      "cọ": 4173,
      "td": 4174,
      ";,": 4175,
      "quất": 4176,
      "1982": 4177,
      "bóc": 4178,
      "gieo": 4179,
      "gdđt": 4180,
      "kok": 4181,
      "mắm": 4182,
      "xôi": 4183,
      "bour": 4184,
      "bloom": 4185,
      "lách": 4186,
      "fli": 4187,
      "mốt": 4188,
      "nđt": 4189,
      "tấu": 4190,
      "ẻm": 4191,
      "ngà": 4192,
      "nick": 4193,
      "green": 4194,
      "hill": 4195,
      "nhàn": 4196,
      "dặn": 4197,
      "ipad": 4198,
      "má": 4199,
      "chèo": 4200,
      "sur": 4201,
      "bệ": 4202,
      "wall": 4203,
      "gene": 4204,
      "harry": 4205,
      "nano": 4206,
      "vọt": 4207,
      "vớt": 4208,
      "phô": 4209,
      "chuông": 4210,
      "atle": 4211,
      ".\"": 4212,
      "sọ": 4213,
      "field": 4214,
      "thạo": 4215,
      "1987": 4216,
      "ep": 4217,
      "mona": 4218,
      "gặt": 4219,
      "angela": 4220,
      "rey": 4221,
      "cre": 4222,
      "lơ": 4223,
      "assad": 4224,
      "tịnh": 4225,
      "tụt": 4226,
      "hara": 4227,
      "ngất": 4228,
      "chọi": 4229,
      "tivi": 4230,
      "off": 4231,
      "sùng": 4232,
      "vứt": 4233,
      "chui": 4234,
      "back": 4235,
      "sis": 4236,
      "page": 4237,
      "key": 4238,
      "liveshow": 4239,
      "rổ": 4240,
      "hero": 4241,
      "mài": 4242,
      "vinam": 4243,
      "dane": 4244,
      "rong": 4245,
      "quỳ": 4246,
      "let": 4247,
      "hacker": 4248,
      "ghét": 4249,
      "bồng": 4250,
      "diên": 4251,
      "dưa": 4252,
      "run": 4253,
      "xấp": 4254,
      "e5": 4255,
      "ngài": 4256,
      "thomas": 4257,
      "zan": 4258,
      "atm": 4259,
      "slna": 4260,
      "cày": 4261,
      "lung": 4262,
      "yemen": 4263,
      "thính": 4264,
      "traf": 4265,
      "cap": 4266,
      "tốp": 4267,
      "140": 4268,
      "put": 4269,
      "atletico": 4270,
      "hẻm": 4271,
      "sjc": 4272,
      "tali": 4273,
      "hor": 4274,
      "babwe": 4275,
      "zimbabwe": 4276,
      "kai": 4277,
      "nể": 4278,
      "angeles": 4279,
      "whi": 4280,
      "1985": 4281,
      "đk": 4282,
      "sul": 4283,
      "giặc": 4284,
      "tiller": 4285,
      "rodri": 4286,
      "peter": 4287,
      "silk": 4288,
      "richard": 4289,
      "hét": 4290,
      "bru": 4291,
      "lót": 4292,
      "nang": 4293,
      "nal": 4294,
      "tảo": 4295,
      "mr": 4296,
      "nar": 4297,
      "nốt": 4298,
      "vtc": 4299,
      "para": 4300,
      "ctck": 4301,
      "dại": 4302,
      "dặm": 4303,
      "thâu": 4304,
      "vis": 4305,
      "thiêng": 4306,
      "marke": 4307,
      "tillerson": 4308,
      "bl": 4309,
      "xăm": 4310,
      "iếc": 4311,
      "petro": 4312,
      "was": 4313,
      "soi": 4314,
      "1950": 4315,
      "metro": 4316,
      "mora": 4317,
      "bạ": 4318,
      "rain": 4319,
      "cent": 4320,
      "gậy": 4321,
      "nghênh": 4322,
      "rah": 4323,
      "stem": 4324,
      "asia": 4325,
      "bis": 4326,
      "din": 4327,
      "moham": 4328,
      "louis": 4329,
      "lukaku": 4330,
      "kạn": 4331,
      "tsal": 4332,
      "futsal": 4333,
      "block": 4334,
      "quấy": 4335,
      "đè": 4336,
      "laser": 4337,
      "charles": 4338,
      "capital": 4339,
      "dang": 4340,
      "dào": 4341,
      "ip": 4342,
      "xiêm": 4343,
      "sdf": 4344,
      "llah": 4345,
      "jung": 4346,
      "aoke": 4347,
      "ence": 4348,
      "karaoke": 4349,
      ".\".": 4350,
      "kham": 4351,
      "quạt": 4352,
      "zidane": 4353,
      "scic": 4354,
      "agribank": 4355,
      "vhtt": 4356,
      "bloomberg": 4357,
      "rải": 4358,
      "ring": 4359,
      "cù": 4360,
      "cúc": 4361,
      "cành": 4362,
      "èm": 4363,
      "trọt": 4364,
      "ttck": 4365,
      "xuôi": 4366,
      "cưng": 4367,
      "iso": 4368,
      "feder": 4369,
      "dna": 4370,
      "né": 4371,
      "open": 4372,
      "sầm": 4373,
      "đặn": 4374,
      "khmer": 4375,
      "quầy": 4376,
      "esco": 4377,
      "gabe": 4378,
      "cớ": 4379,
      "spor": 4380,
      "ameri": 4381,
      "khoai": 4382,
      "victo": 4383,
      "ibra": 4384,
      "khiết": 4385,
      "mugabe": 4386,
      "hãm": 4387,
      "next": 4388,
      "cin": 4389,
      "schu": 4390,
      "boeing": 4391,
      "lay": 4392,
      "thal": 4393,
      "mani": 4394,
      "tinbank": 4395,
      "tec": 4396,
      "pep": 4397,
      "geria": 4398,
      "ukraina": 4399,
      "bỉnh": 4400,
      "ux": 4401,
      "vú": 4402,
      "ửng": 4403,
      "raq": 4404,
      "uefa": 4405,
      "federer": 4406,
      "gus": 4407,
      "trơn": 4408,
      "art": 4409,
      "monaco": 4410,
      "kam": 4411,
      "marketing": 4412,
      "sput": 4413,
      "bới": 4414,
      "has": 4415,
      "hama": 4416,
      "phẫn": 4417,
      "taylor": 4418,
      "dnnn": 4419,
      "frank": 4420,
      "walk": 4421,
      "jackson": 4422,
      "sừng": 4423,
      "vôi": 4424,
      "sỏi": 4425,
      "vir": 4426,
      "afc": 4427,
      "kình": 4428,
      "rễ": 4429,
      "tch": 4430,
      "vest": 4431,
      "khắt": 4432,
      "ance": 4433,
      "sili": 4434,
      "trafford": 4435,
      "ghé": 4436,
      "sputnik": 4437,
      "hp": 4438,
      "idol": 4439,
      "smi": 4440,
      "latinh": 4441,
      "ear": 4442,
      "nq": 4443,
      "ws": 4444,
      "thòi": 4445,
      "villa": 4446,
      "reso": 4447,
      "vietinbank": 4448,
      "sướng": 4449,
      "phà": 4450,
      "keo": 4451,
      "ngoạn": 4452,
      "ivan": 4453,
      "nản": 4454,
      "ttx": 4455,
      "tctd": 4456,
      "ipo": 4457,
      "ũa": 4458,
      "trau": 4459,
      "htc": 4460,
      "mur": 4461,
      "hydro": 4462,
      "bính": 4463,
      "rô": 4464,
      "hoằng": 4465,
      "hose": 4466,
      "lav": 4467,
      "450": 4468,
      "105": 4469,
      "iot": 4470,
      "kc": 4471,
      "arab": 4472,
      "int": 4473,
      "stephen": 4474,
      "mobifone": 4475,
      "luck": 4476,
      "buồng": 4477,
      "tpp": 4478,
      "everton": 4479,
      "đốn": 4480,
      "ele": 4481,
      "ou": 4482,
      "đắng": 4483,
      "musk": 4484,
      "170": 4485,
      "bứt": 4486,
      "blog": 4487,
      "flori": 4488,
      "toản": 4489,
      "tts": 4490,
      "lầy": 4491,
      "trol": 4492,
      "cara": 4493,
      "tions": 4494,
      "munich": 4495,
      "cle": 4496,
      "cẩu": 4497,
      "nặc": 4498,
      "ston": 4499,
      "timor": 4500,
      "oney": 4501,
      "merkel": 4502,
      "bks": 4503,
      "phông": 4504,
      "manuel": 4505,
      "stics": 4506,
      "gpmb": 4507,
      "raqqa": 4508,
      "cd": 4509,
      "scl": 4510,
      "ying": 4511,
      "team": 4512,
      "nou": 4513,
      "wannacry": 4514,
      "rang": 4515,
      "serge": 4516,
      "]).": 4517,
      "rd": 4518,
      "ụi": 4519,
      "francis": 4520,
      "dép": 4521,
      "sườn": 4522,
      "nhái": 4523,
      "giàn": 4524,
      "dt": 4525,
      "dẻo": 4526,
      "chuộc": 4527,
      "shb": 4528,
      "1983": 4529,
      "đbscl": 4530,
      "gõ": 4531,
      "roman": 4532,
      "phổi": 4533,
      "...,": 4534,
      "ilk": 4535,
      "honda": 4536,
      "clin": 4537,
      "uốn": 4538,
      "nico": 4539,
      "juli": 4540,
      "swi": 4541,
      "ttxvn": 4542,
      "1a": 4543,
      "?,": 4544,
      "woo": 4545,
      "tiano": 4546,
      "hun": 4547,
      "teen": 4548,
      "kiêu": 4549,
      "das": 4550,
      "maria": 4551,
      "brexit": 4552,
      "hường": 4553,
      "lúng": 4554,
      "chớp": 4555,
      "hoo": 4556,
      "bangkok": 4557,
      "asian": 4558,
      "bìa": 4559,
      "rạn": 4560,
      "sành": 4561,
      "sào": 4562,
      "khoát": 4563,
      "tuất": 4564,
      "gap": 4565,
      "juan": 4566,
      "logistics": 4567,
      "gba": 4568,
      "rơ": 4569,
      "cannes": 4570,
      "wenger": 4571,
      "jolie": 4572,
      "street": 4573,
      "mund": 4574,
      "daniel": 4575,
      "flash": 4576,
      "cq": 4577,
      "háo": 4578,
      "instein": 4579,
      "saigon": 4580,
      "flix": 4581,
      "phôi": 4582,
      "come": 4583,
      "boo": 4584,
      "florida": 4585,
      "mao": 4586,
      "đục": 4587,
      "phao": 4588,
      "low": 4589,
      "logo": 4590,
      "forbes": 4591,
      "chiểu": 4592,
      "mos": 4593,
      "thốn": 4594,
      "trâm": 4595,
      "sexy": 4596,
      "1984": 4597,
      "steve": 4598,
      "valen": 4599,
      "oc": 4600,
      "tăm": 4601,
      "von": 4602,
      "xiao": 4603,
      "sri": 4604,
      "uae": 4605,
      "tive": 4606,
      "mann": 4607,
      "xoáy": 4608,
      "xắn": 4609,
      "đả": 4610,
      "choáng": 4611,
      "eman": 4612,
      "poly": 4613,
      "tản": 4614,
      "michel": 4615,
      "ngòi": 4616,
      "chdc": 4617,
      "costa": 4618,
      "maya": 4619,
      "diola": 4620,
      "kal": 4621,
      "rớt": 4622,
      "đẫm": 4623,
      "lab": 4624,
      "barack": 4625,
      "lm": 4626,
      "lùm": 4627,
      "nhốt": 4628,
      "phàn": 4629,
      "sus": 4630,
      "vietnamnet": 4631,
      "cristiano": 4632,
      "vỹ": 4633,
      "gin": 4634,
      "attp": 4635,
      "damas": 4636,
      "hawai": 4637,
      "guardiola": 4638,
      "3g": 4639,
      "chả": 4640,
      "tian": 4641,
      "lis": 4642,
      "1979": 4643,
      "bênh": 4644,
      "store": 4645,
      "nhục": 4646,
      "vietjet": 4647,
      "vặt": 4648,
      "cuộn": 4649,
      "she": 4650,
      "guardian": 4651,
      "fs": 4652,
      "séc": 4653,
      "vinamilk": 4654,
      "'.": 4655,
      "ủa": 4656,
      "logy": 4657,
      "justin": 4658,
      "cau": 4659,
      "gạt": 4660,
      "colombia": 4661,
      "220": 4662,
      "tw": 4663,
      "tạc": 4664,
      "chót": 4665,
      "búp": 4666,
      "nung": 4667,
      "thiền": 4668,
      "mix": 4669,
      "tmcp": 4670,
      "netflix": 4671,
      "ráo": 4672,
      "try": 4673,
      "bịt": 4674,
      "bas": 4675,
      "made": 4676,
      "peru": 4677,
      "iness": 4678,
      "europa": 4679,
      "damascus": 4680,
      "bướ": 4681,
      "xáo": 4682,
      "điềm": 4683,
      "trick": 4684,
      "bầy": 4685,
      "visa": 4686,
      "duter": 4687,
      "snapdragon": 4688,
      "dê": 4689,
      "chdcnd": 4690,
      "hawaii": 4691,
      "duterte": 4692,
      "!.": 4693,
      "nhộn": 4694,
      "khoái": 4695,
      "som": 4696,
      "ezzor": 4697,
      "south": 4698,
      "',": 4699,
      "vard": 4700,
      "ral": 4701,
      "viêm": 4702,
      "115": 4703,
      "bóp": 4704,
      "alexander": 4705,
      "space": 4706,
      "trù": 4707,
      "sm": 4708,
      "kip": 4709,
      "watch": 4710,
      "clu": 4711,
      "mương": 4712,
      "sport": 4713,
      "music": 4714,
      "],": 4715,
      "hức": 4716,
      "giặt": 4717,
      "hiv": 4718,
      "iss": 4719,
      "antonio": 4720,
      "lừng": 4721,
      "pre": 4722,
      "trêu": 4723,
      "rom": 4724,
      "128": 4725,
      "bôi": 4726,
      "well": 4727,
      "doãn": 4728,
      "java": 4729,
      "bực": 4730,
      "gộp": 4731,
      "zz": 4732,
      "ngàng": 4733,
      "aki": 4734,
      "thỏ": 4735,
      "chanh": 4736,
      "trệ": 4737,
      "type": 4738,
      "silv": 4739,
      "icbm": 4740,
      "vách": 4741,
      "đúp": 4742,
      "phả": 4743,
      "beth": 4744,
      "johnson": 4745,
      "xé": 4746,
      "ngạn": 4747,
      "chì": 4748,
      "hiro": 4749,
      "nôm": 4750,
      "love": 4751,
      "gates": 4752,
      "dub": 4753,
      "fta": 4754,
      "hal": 4755,
      "ăk": 4756,
      "isa": 4757,
      "cial": 4758,
      "catwalk": 4759,
      "taliban": 4760,
      "cấn": 4761,
      "lén": 4762,
      "đũa": 4763,
      "1972": 4764,
      "1974": 4765,
      "desh": 4766,
      "award": 4767,
      "mba": 4768,
      "vác": 4769,
      "stal": 4770,
      "hee": 4771,
      "texas": 4772,
      "vỗ": 4773,
      "mach": 4774,
      "1981": 4775,
      "brad": 4776,
      "xvi": 4777,
      "õng": 4778,
      "mig": 4779,
      "jones": 4780,
      "wai": 4781,
      "125": 4782,
      "dre": 4783,
      "gót": 4784,
      "ffe": 4785,
      "xùm": 4786,
      "113": 4787,
      "mega": 4788,
      "miệt": 4789,
      "nel": 4790,
      "ngục": 4791,
      "thới": 4792,
      "are": 4793,
      "life": 4794,
      "kei": 4795,
      "kno": 4796,
      "tát": 4797,
      "mike": 4798,
      "saint": 4799,
      "rét": 4800,
      "yingluck": 4801,
      "dì": 4802,
      "chốn": 4803,
      "đbp": 4804,
      "bd": 4805,
      "rầm": 4806,
      "ếm": 4807,
      "unesco": 4808,
      "tinho": 4809,
      "jeff": 4810,
      "dad": 4811,
      "beau": 4812,
      "ruz": 4813,
      "1978": 4814,
      "smith": 4815,
      "gel": 4816,
      "wen": 4817,
      "quặng": 4818,
      "ania": 4819,
      "like": 4820,
      "isto": 4821,
      "carl": 4822,
      "bđbp": 4823,
      "gầy": 4824,
      "nấy": 4825,
      "scho": 4826,
      "neander": 4827,
      "kitô": 4828,
      "fic": 4829,
      "tnmt": 4830,
      "bxh": 4831,
      "tsu": 4832,
      "esa": 4833,
      "andy": 4834,
      "guay": 4835,
      "krem": 4836,
      "u21": 4837,
      "touch": 4838,
      "320": 4839,
      "bẻ": 4840,
      "truất": 4841,
      "ppe": 4842,
      "đtqg": 4843,
      "rates": 4844,
      "lựu": 4845,
      "2024": 4846,
      "roy": 4847,
      "lion": 4848,
      "heroin": 4849,
      "victoria": 4850,
      "neanderthal": 4851,
      "bp": 4852,
      "food": 4853,
      "gn": 4854,
      "kini": 4855,
      "thaad": 4856,
      "côi": 4857,
      "kìm": 4858,
      "thuở": 4859,
      "diễu": 4860,
      "tino": 4861,
      "teh": 4862,
      "berna": 4863,
      "1976": 4864,
      "diego": 4865,
      "gầm": 4866,
      "get": 4867,
      "dort": 4868,
      "co2": 4869,
      "sum": 4870,
      "delhi": 4871,
      "gươm": 4872,
      "kang": 4873,
      "thối": 4874,
      "gil": 4875,
      "muôn": 4876,
      "bol": 4877,
      "shop": 4878,
      "tamin": 4879,
      "1968": 4880,
      "ian": 4881,
      "sala": 4882,
      "ankara": 4883,
      "enter": 4884,
      "vol": 4885,
      "clinton": 4886,
      "bành": 4887,
      "jim": 4888,
      "spe": 4889,
      "ngây": 4890,
      "pper": 4891,
      "morata": 4892,
      "kremlin": 4893,
      "kền": 4894,
      "code": 4895,
      "ason": 4896,
      "vòi": 4897,
      "cert": 4898,
      "marawi": 4899,
      "att": 4900,
      "râu": 4901,
      "ngậm": 4902,
      "toan": 4903,
      "vitamin": 4904,
      "cnlđ": 4905,
      "joong": 4906,
      "xoài": 4907,
      "business": 4908,
      "imex": 4909,
      "rov": 4910,
      "wil": 4911,
      "benz": 4912,
      "too": 4913,
      "tae": 4914,
      "ryan": 4915,
      "master": 4916,
      "eliza": 4917,
      "ville": 4918,
      "phiêu": 4919,
      "bikini": 4920,
      "nắp": 4921,
      "wales": 4922,
      "coutinho": 4923,
      "bẩy": 4924,
      "gcn": 4925,
      "mea": 4926,
      "fashi": 4927,
      "hin": 4928,
      "lún": 4929,
      "sòng": 4930,
      "khaisilk": 4931,
      "media": 4932,
      "link": 4933,
      "lờ": 4934,
      "chạp": 4935,
      "giã": 4936,
      "ent": 4937,
      "dưng": 4938,
      "1971": 4939,
      "resort": 4940,
      "fashion": 4941,
      "f1": 4942,
      "kevin": 4943,
      "ple": 4944,
      "búa": 4945,
      "vr": 4946,
      "nhủ": 4947,
      "thắp": 4948,
      "choi": 4949,
      "sity": 4950,
      "nigeria": 4951,
      "guam": 4952,
      "1973": 4953,
      "tạt": 4954,
      "arus": 4955,
      "tial": 4956,
      "niê": 4957,
      "formo": 4958,
      "ox": 4959,
      "data": 4960,
      "khuya": 4961,
      "dortmund": 4962,
      "clar": 4963,
      "fire": 4964,
      ")...": 4965,
      "cúi": 4966,
      "stra": 4967,
      "chùm": 4968,
      "hệt": 4969,
      "roma": 4970,
      "clđ": 4971,
      "ibrahim": 4972,
      "pn": 4973,
      "rư": 4974,
      "đèo": 4975,
      "ish": 4976,
      "krông": 4977,
      "adn": 4978,
      "xị": 4979,
      "khoanh": 4980,
      "oda": 4981,
      "đùi": 4982,
      "ẽn": 4983,
      "nuốt": 4984,
      "fal": 4985,
      "rách": 4986,
      "phác": 4987,
      "paci": 4988,
      "hungary": 4989,
      "xuy": 4990,
      "thêu": 4991,
      "phy": 4992,
      "phanh": 4993,
      "titan": 4994,
      "guine": 4995,
      "gera": 4996,
      "cqđt": 4997,
      "vòm": 4998,
      "xoa": 4999,
      "bale": 5000,
      "abdu": 5001,
      "5m": 5002,
      "dạt": 5003,
      "tề": 5004,
      "nhọc": 5005,
      "tas": 5006,
      "df": 5007,
      "gard": 5008,
      "rốt": 5009,
      "vt": 5010,
      "thản": 5011,
      "gtgt": 5012,
      "henry": 5013,
      "chậu": 5014,
      "wifi": 5015,
      "kasper": 5016,
      "sina": 5017,
      "xài": 5018,
      "ngâm": 5019,
      "ppp": 5020,
      "tream": 5021,
      "hiên": 5022,
      "oun": 5023,
      "dies": 5024,
      "108": 5025,
      "nei": 5026,
      "week": 5027,
      "jenni": 5028,
      "formosa": 5029,
      "edi": 5030,
      "ix": 5031,
      "lẩn": 5032,
      "nơ": 5033,
      "mosk": 5034,
      "ping": 5035,
      "sham": 5036,
      "rub": 5037,
      "yong": 5038,
      "yang": 5039,
      "ming": 5040,
      "ronald": 5041,
      "burn": 5042,
      "elizabeth": 5043,
      "oppo": 5044,
      "dou": 5045,
      "pogba": 5046,
      "kỵ": 5047,
      "lem": 5048,
      "pes": 5049,
      "chững": 5050,
      "berry": 5051,
      "card": 5052,
      "break": 5053,
      "manila": 5054,
      "guinea": 5055,
      "moskva": 5056,
      "bagh": 5057,
      "ghê": 5058,
      "pton": 5059,
      "náo": 5060,
      "2023": 5061,
      "toà": 5062,
      "trailer": 5063,
      "1977": 5064,
      "av": 5065,
      "fes": 5066,
      "bangla": 5067,
      "fanpage": 5068,
      "curi": 5069,
      "banon": 5070,
      "core": 5071,
      "viếng": 5072,
      "xơ": 5073,
      "work": 5074,
      "voice": 5075,
      "sgk": 5076,
      "chrome": 5077,
      "eric": 5078,
      "otto": 5079,
      "dus": 5080,
      "slo": 5081,
      "u15": 5082,
      "vcci": 5083,
      "wb": 5084,
      "xì": 5085,
      "rex": 5086,
      "tain": 5087,
      "livestream": 5088,
      "insi": 5089,
      "lebanon": 5090,
      "thằng": 5091,
      "giằng": 5092,
      "end": 5093,
      "phil": 5094,
      "gui": 5095,
      "fir": 5096,
      "tấp": 5097,
      "vam": 5098,
      "dogan": 5099,
      "hamil": 5100,
      "night": 5101,
      "cnvclđ": 5102,
      "hamilton": 5103,
      "acb": 5104,
      "rụi": 5105,
      "õm": 5106,
      "phở": 5107,
      "solo": 5108,
      "light": 5109,
      "ttcp": 5110,
      "snn": 5111,
      "tehran": 5112,
      "xói": 5113,
      "thốt": 5114,
      "phì": 5115,
      "inc": 5116,
      "tui": 5117,
      "siri": 5118,
      "cưa": 5119,
      "ite": 5120,
      "nồi": 5121,
      "nhện": 5122,
      "750": 5123,
      "nần": 5124,
      "cago": 5125,
      "ghe": 5126,
      "kit": 5127,
      "idlib": 5128,
      "victor": 5129,
      "bangladesh": 5130,
      "112": 5131,
      "4k": 5132,
      "bừa": 5133,
      "od": 5134,
      "rước": 5135,
      "vùi": 5136,
      "system": 5137,
      "gran": 5138,
      "thiều": 5139,
      "cast": 5140,
      "hip": 5141,
      "bio": 5142,
      "linux": 5143,
      "kaspersky": 5144,
      "trặc": 5145,
      "tua": 5146,
      "chicago": 5147,
      "caro": 5148,
      "ib": 5149,
      "mắng": 5150,
      "ngọ": 5151,
      "macher": 5152,
      "ttle": 5153,
      "1954": 5154,
      "cội": 5155,
      "dp": 5156,
      "qc": 5157,
      "vegas": 5158,
      "genera": 5159,
      "rưỡi": 5160,
      "jennifer": 5161,
      "bql": 5162,
      "cook": 5163,
      "suýt": 5164,
      "yonha": 5165,
      "adam": 5166,
      "queen": 5167,
      "uras": 5168,
      "ctor": 5169,
      "ht": 5170,
      "nôn": 5171,
      "nghẽn": 5172,
      "rober": 5173,
      "leic": 5174,
      "main": 5175,
      "any": 5176,
      "muỗi": 5177,
      "col": 5178,
      "suôn": 5179,
      "box": 5180,
      "honduras": 5181,
      "yonhap": 5182,
      "lốp": 5183,
      "mg": 5184,
      "mali": 5185,
      "sas": 5186,
      "vnd": 5187,
      "xay": 5188,
      "khcn": 5189,
      "ont": 5190,
      "tos": 5191,
      "vnen": 5192,
      "pier": 5193,
      "vey": 5194,
      "karta": 5195,
      "schumacher": 5196,
      "ction": 5197,
      "ant": 5198,
      "mattis": 5199,
      "style": 5200,
      "hăng": 5201,
      "nem": 5202,
      "sầu": 5203,
      "tiệp": 5204,
      "đăk": 5205,
      "roger": 5206,
      "point": 5207,
      "bec": 5208,
      "noo": 5209,
      "harvard": 5210,
      "chain": 5211,
      "alpha": 5212,
      "mis": 5213,
      "cpu": 5214,
      "belarus": 5215,
      "pharma": 5216,
      "aff": 5217,
      "cõi": 5218,
      "nsnn": 5219,
      "sx": 5220,
      "beu": 5221,
      "xide": 5222,
      "240": 5223,
      "airbus": 5224,
      "cược": 5225,
      "hcb": 5226,
      "trỗi": 5227,
      "tỉa": 5228,
      "tah": 5229,
      "stone": 5230,
      "cđcs": 5231,
      "khốn": 5232,
      "104": 5233,
      "15h": 5234,
      "adi": 5235,
      "cào": 5236,
      "fly": 5237,
      "nạ": 5238,
      "tkv": 5239,
      "uyển": 5240,
      "vill": 5241,
      "nova": 5242,
      "ball": 5243,
      "catalan": 5244,
      "xiaomi": 5245,
      "hđt": 5246,
      "pala": 5247,
      "xon": 5248,
      "quấn": 5249,
      "vụn": 5250,
      "emmanuel": 5251,
      "ore": 5252,
      "jour": 5253,
      "full": 5254,
      "leicester": 5255,
      "plan": 5256,
      "đun": 5257,
      "ving": 5258,
      "ndt": 5259,
      "bie": 5260,
      "slam": 5261,
      "tton": 5262,
      "mou": 5263,
      "oko": 5264,
      "peria": 5265,
      "scott": 5266,
      "nm": 5267,
      "soái": 5268,
      "lia": 5269,
      ";)": 5270,
      "pher": 5271,
      "toát": 5272,
      "nóc": 5273,
      "petrol": 5274,
      "upcom": 5275,
      "rent": 5276,
      "tings": 5277,
      "sdđ": 5278,
      "francisco": 5279,
      "bướm": 5280,
      "đao": 5281,
      "lượn": 5282,
      "giục": 5283,
      "erdogan": 5284,
      "103": 5285,
      "blhs": 5286,
      "ibm": 5287,
      "pk": 5288,
      "ngửa": 5289,
      "nhấp": 5290,
      "alan": 5291,
      "sưa": 5292,
      "chưởng": 5293,
      "iềng": 5294,
      "auto": 5295,
      "ardo": 5296,
      "nón": 5297,
      "sor": 5298,
      "rooney": 5299,
      "101": 5300,
      "135": 5301,
      "angelina": 5302,
      "uav": 5303,
      "bung": 5304,
      "cli": 5305,
      "lanh": 5306,
      "ngả": 5307,
      "ươu": 5308,
      "row": 5309,
      "university": 5310,
      "rảnh": 5311,
      "sà": 5312,
      "tòi": 5313,
      "uất": 5314,
      "uẩn": 5315,
      "chèn": 5316,
      "thiêm": 5317,
      "bat": 5318,
      "dubai": 5319,
      "petrolimex": 5320,
      "htv": 5321,
      "ngủi": 5322,
      "chổi": 5323,
      "trans": 5324,
      "babylon": 5325,
      "bẩm": 5326,
      "yen": 5327,
      "luis": 5328,
      "rist": 5329,
      "club": 5330,
      "bernabeu": 5331,
      "kra": 5332,
      "ngao": 5333,
      "guez": 5334,
      "gau": 5335,
      "thuột": 5336,
      "hud": 5337,
      "serbia": 5338,
      "1969": 5339,
      "dè": 5340,
      "sếp": 5341,
      "anti": 5342,
      "vncb": 5343,
      "gameshow": 5344,
      "mbappe": 5345,
      "tgđ": 5346,
      "uỷ": 5347,
      "chải": 5348,
      "lock": 5349,
      "digi": 5350,
      "liu": 5351,
      "mic": 5352,
      "kate": 5353,
      "noel": 5354,
      "beria": 5355,
      "1967": 5356,
      "nvv": 5357,
      "bọ": 5358,
      "cph": 5359,
      "rỗi": 5360,
      "tower": 5361,
      "yeong": 5362,
      "center": 5363,
      "bục": 5364,
      "nọ": 5365,
      "tq": 5366,
      "trướng": 5367,
      "khử": 5368,
      "quyện": 5369,
      "mil": 5370,
      "russel": 5371,
      "aa": 5372,
      "ion": 5373,
      "huý": 5374,
      "dnnvv": 5375,
      "gàng": 5376,
      "húc": 5377,
      "wto": 5378,
      "20h": 5379,
      "toa": 5380,
      "1930": 5381,
      "zakh": 5382,
      "flores": 5383,
      "aeda": 5384,
      "white": 5385,
      "sports": 5386,
      "bún": 5387,
      "hh": 5388,
      "qaeda": 5389,
      "rad": 5390,
      "ink": 5391,
      "sir": 5392,
      "nhuộm": 5393,
      "williams": 5394,
      "gân": 5395,
      "nhai": 5396,
      "ubkt": 5397,
      "jakarta": 5398,
      "vinaphone": 5399,
      "techno": 5400,
      "bahrain": 5401,
      "fast": 5402,
      "gắm": 5403,
      "swift": 5404,
      "?\".": 5405,
      "dmi": 5406,
      "quây": 5407,
      "rat": 5408,
      "vik": 5409,
      "vich": 5410,
      "nguội": 5411,
      "bou": 5412,
      "17h": 5413,
      "lionel": 5414,
      "lửng": 5415,
      "rót": 5416,
      "thề": 5417,
      "thor": 5418,
      "chem": 5419,
      "tics": 5420,
      "coo": 5421,
      "had": 5422,
      "loud": 5423,
      "nức": 5424,
      "yể": 5425,
      "giêng": 5426,
      "rob": 5427,
      "pres": 5428,
      "1965": 5429,
      "brown": 5430,
      "disney": 5431,
      "crimea": 5432,
      "silicon": 5433,
      "gun": 5434,
      "kw": 5435,
      "oa": 5436,
      "uông": 5437,
      "exim": 5438,
      "cừu": 5439,
      "comey": 5440,
      "awards": 5441,
      "log": 5442,
      "bull": 5443,
      "102": 5444,
      "nie": 5445,
      "ics": 5446,
      "board": 5447,
      "atgt": 5448,
      "tana": 5449,
      "lđbđ": 5450,
      "tesla": 5451,
      "pat": 5452,
      "wol": 5453,
      "nhức": 5454,
      "toshi": 5455,
      "106": 5456,
      "uru": 5457,
      "jeans": 5458,
      "dream": 5459,
      "wel": 5460,
      "audio": 5461,
      "cụt": 5462,
      "yeon": 5463,
      "hr": 5464,
      "vat": 5465,
      "zard": 5466,
      "giò": 5467,
      "motor": 5468,
      "gregor": 5469,
      "house": 5470,
      "diêm": 5471,
      "cover": 5472,
      "sat": 5473,
      "wonder": 5474,
      "nhúng": 5475,
      "thiếp": 5476,
      "khinh": 5477,
      "vàn": 5478,
      "arena": 5479,
      "enko": 5480,
      "miu": 5481,
      "mary": 5482,
      "pera": 5483,
      "ruồi": 5484,
      "diesel": 5485,
      "best": 5486,
      "hạo": 5487,
      "tít": 5488,
      "test": 5489,
      "blockchain": 5490,
      "thừng": 5491,
      "chảnh": 5492,
      "lotte": 5493,
      "high": 5494,
      "start": 5495,
      "valencia": 5496,
      "ibrahimovic": 5497,
      "\"...": 5498,
      "mấu": 5499,
      "mép": 5500,
      "mala": 5501,
      "tth": 5502,
      "thê": 5503,
      "trói": 5504,
      "look": 5505,
      "sol": 5506,
      "sov": 5507,
      "bir": 5508,
      "brasil": 5509,
      "hez": 5510,
      "hươu": 5511,
      "mượt": 5512,
      "mtt": 5513,
      "chước": 5514,
      "lov": 5515,
      "kir": 5516,
      "ement": 5517,
      "zucker": 5518,
      "lậy": 5519,
      "ngắt": 5520,
      "trèo": 5521,
      "ượm": 5522,
      "256": 5523,
      "21h": 5524,
      "1962": 5525,
      "garden": 5526,
      "550": 5527,
      "bb": 5528,
      "bã": 5529,
      "blan": 5530,
      "bct": 5531,
      "xperia": 5532,
      "okovic": 5533,
      "harvey": 5534,
      "djokovic": 5535,
      "bhu": 5536,
      "sê": 5537,
      "123": 5538,
      "lẻo": 5539,
      "blues": 5540,
      "pacific": 5541,
      "hezbo": 5542,
      "230": 5543,
      "vnex": 5544,
      "wis": 5545,
      "109": 5546,
      "will": 5547,
      "1964": 5548,
      "a3": 5549,
      "gps": 5550,
      "văng": 5551,
      "bad": 5552,
      "mag": 5553,
      "ath": 5554,
      "dậu": 5555,
      "eco": 5556,
      "ekip": 5557,
      "sói": 5558,
      "ườm": 5559,
      "silva": 5560,
      "mttq": 5561,
      "fel": 5562,
      "kiếp": 5563,
      "oh": 5564,
      "zer": 5565,
      "đò": 5566,
      "chập": 5567,
      "rap": 5568,
      "list": 5569,
      "vuốt": 5570,
      "shima": 5571,
      "kn": 5572,
      "vờ": 5573,
      "vựng": 5574,
      "chỉn": 5575,
      "bush": 5576,
      "matic": 5577,
      "cio": 5578,
      "nny": 5579,
      "massa": 5580,
      "hezbollah": 5581,
      "vnexpress": 5582,
      "9h": 5583,
      "ges": 5584,
      "ngạt": 5585,
      "19h": 5586,
      "sund": 5587,
      "ubck": 5588,
      "8h": 5589,
      "asus": 5590,
      "cla": 5591,
      "gm": 5592,
      "klo": 5593,
      "s9": 5594,
      "xnk": 5595,
      "nguyền": 5596,
      "liêng": 5597,
      "hyt": 5598,
      "nnptnt": 5599,
      "kenne": 5600,
      "lều": 5601,
      "u18": 5602,
      "radio": 5603,
      "sửu": 5604,
      "water": 5605,
      "holding": 5606,
      "zuckerberg": 5607,
      "260": 5608,
      "méo": 5609,
      "chiên": 5610,
      "ane": 5611,
      "111": 5612,
      "280": 5613,
      "pierre": 5614,
      "vãn": 5615,
      "mun": 5616,
      "10h": 5617,
      "dae": 5618,
      "nhoáng": 5619,
      "journal": 5620,
      "acv": 5621,
      "hcđ": 5622,
      "jay": 5623,
      "chom": 5624,
      "vietgap": 5625,
      "jar": 5626,
      "tý": 5627,
      "đôla": 5628,
      "sergio": 5629,
      "xộn": 5630,
      "nhạ": 5631,
      "trổ": 5632,
      "tie": 5633,
      "emira": 5634,
      "catp": 5635,
      "tdtt": 5636,
      "\")": 5637,
      "giơ": 5638,
      "cur": 5639,
      "joseph": 5640,
      "kus": 5641,
      "rafa": 5642,
      "nhuệ": 5643,
      "16h": 5644,
      "khuynh": 5645,
      "hawk": 5646,
      "mitsu": 5647,
      "ethi": 5648,
      "mé": 5649,
      "múi": 5650,
      "ost": 5651,
      "quí": 5652,
      "155": 5653,
      "18h": 5654,
      "kiev": 5655,
      "vamc": 5656,
      "atia": 5657,
      "nậm": 5658,
      "yon": 5659,
      "zam": 5660,
      "ngham": 5661,
      "cmc": 5662,
      "hitler": 5663,
      "emirates": 5664,
      "2m": 5665,
      "rem": 5666,
      "amster": 5667,
      "mosul": 5668,
      "amsterdam": 5669,
      "hạc": 5670,
      "reo": 5671,
      "khét": 5672,
      "anna": 5673,
      "190": 5674,
      "bhyt": 5675,
      "shu": 5676,
      "nghẹn": 5677,
      "imf": 5678,
      "voọc": 5679,
      "aleppo": 5680,
      "vpbank": 5681,
      "dh": 5682,
      "gán": 5683,
      "hông": 5684,
      "kes": 5685,
      "lọ": 5686,
      "side": 5687,
      "116": 5688,
      "hawking": 5689,
      "3m": 5690,
      "fen": 5691,
      "fia": 5692,
      "năn": 5693,
      "ella": 5694,
      "cafe": 5695,
      "lina": 5696,
      "ful": 5697,
      "machine": 5698,
      "dơi": 5699,
      "mân": 5700,
      "nin": 5701,
      "ola": 5702,
      "vc": 5703,
      "ngẫm": 5704,
      "serie": 5705,
      "sảo": 5706,
      "thà": 5707,
      "nhàm": 5708,
      "euph": 5709,
      "merce": 5710,
      "bell": 5711,
      "kane": 5712,
      "650": 5713,
      "a1": 5714,
      "ach": 5715,
      "bèo": 5716,
      "hus": 5717,
      "phồng": 5718,
      "anthon": 5719,
      "lic": 5720,
      "sit": 5721,
      "law": 5722,
      "100m": 5723,
      "gate": 5724,
      "joe": 5725,
      "prin": 5726,
      "ksnd": 5727,
      "rãnh": 5728,
      "gla": 5729,
      "sắn": 5730,
      "twe": 5731,
      "joy": 5732,
      "fur": 5733,
      "kis": 5734,
      "vil": 5735,
      "lat": 5736,
      "beauty": 5737,
      "axit": 5738,
      "hano": 5739,
      "ngói": 5740,
      "town": 5741,
      "securi": 5742,
      "ppen": 5743,
      "croatia": 5744,
      "franco": 5745,
      "corp": 5746,
      "uruguay": 5747,
      "anthony": 5748,
      "opec": 5749,
      "pel": 5750,
      "ngùi": 5751,
      "imo": 5752,
      "ror": 5753,
      "oneplus": 5754,
      "north": 5755,
      "display": 5756,
      "chomsky": 5757,
      "qsdđ": 5758,
      "dock": 5759,
      "elon": 5760,
      "room": 5761,
      "opia": 5762,
      "rodriguez": 5763,
      "cra": 5764,
      "cru": 5765,
      "foo": 5766,
      "yama": 5767,
      "dos": 5768,
      "lavrov": 5769,
      "kcna": 5770,
      "sergei": 5771,
      "210": 5772,
      "bali": 5773,
      "gruz": 5774,
      "kay": 5775,
      "chao": 5776,
      "neu": 5777,
      "vỏn": 5778,
      "1963": 5779,
      "1966": 5780,
      "ethiopia": 5781,
      "hwas": 5782,
      "mh": 5783,
      "ars": 5784,
      "kilo": 5785,
      "1959": 5786,
      "gruzia": 5787,
      "té": 5788,
      "name": 5789,
      "sig": 5790,
      "000m2": 5791,
      "xing": 5792,
      "malia": 5793,
      "american": 5794,
      "bọt": 5795,
      "fon": 5796,
      "ness": 5797,
      "cation": 5798,
      "lian": 5799,
      "mid": 5800,
      "luyến": 5801,
      "pui": 5802,
      "chợt": 5803,
      "365": 5804,
      "salman": 5805,
      "ather": 5806,
      "db": 5807,
      "einstein": 5808,
      "gật": 5809,
      "hale": 5810,
      "đĩnh": 5811,
      "ửu": 5812,
      "chích": 5813,
      "xiv": 5814,
      "km2": 5815,
      "huawei": 5816,
      "euphrates": 5817,
      "dney": 5818,
      "tể": 5819,
      "xào": 5820,
      "chói": 5821,
      "bund": 5822,
      "pic": 5823,
      "cr7": 5824,
      "knock": 5825,
      "lùn": 5826,
      "sảng": 5827,
      "wim": 5828,
      "ngách": 5829,
      "chướng": 5830,
      "phia": 5831,
      "thun": 5832,
      "alas": 5833,
      "1949": 5834,
      "rodrigo": 5835,
      "5g": 5836,
      "cồ": 5837,
      "hả": 5838,
      "kts": 5839,
      "sò": 5840,
      "rage": 5841,
      "riy": 5842,
      "seung": 5843,
      "stam": 5844,
      "ets": 5845,
      "__": 5846,
      "perez": 5847,
      "zalo": 5848,
      "hamas": 5849,
      "graph": 5850,
      "kelly": 5851,
      "xịt": 5852,
      "xuyến": 5853,
      "agu": 5854,
      "bch": 5855,
      "pai": 5856,
      "ngơ": 5857,
      "diana": 5858,
      "vier": 5859,
      "yahoo": 5860,
      "steven": 5861,
      "baltic": 5862,
      "settings": 5863,
      "christian": 5864,
      "ethan": 5865,
      "lăm": 5866,
      "qi": 5867,
      "xb": 5868,
      "toma": 5869,
      "mata": 5870,
      "cks": 5871,
      "gea": 5872,
      "crystal": 5873,
      "brunei": 5874,
      "sọc": 5875,
      "tòng": 5876,
      "127": 5877,
      "(+": 5878,
      "ace": 5879,
      "hau": 5880,
      "ssi": 5881,
      "chin": 5882,
      "chưng": 5883,
      "rash": 5884,
      "see": 5885,
      "yoga": 5886,
      "compu": 5887,
      "wait": 5888,
      "bửu": 5889,
      "heli": 5890,
      "đẽ": 5891,
      "chốc": 5892,
      "cour": 5893,
      "lien": 5894,
      "asa": 5895,
      "nilon": 5896,
      "ette": 5897,
      "cie": 5898,
      "france": 5899,
      "science": 5900,
      "andrew": 5901,
      "mohammed": 5902,
      "diều": 5903,
      "nạt": 5904,
      "tuý": 5905,
      "1940": 5906,
      "caf": 5907,
      "sudan": 5908,
      "inawa": 5909,
      "woman": 5910,
      "lcd": 5911,
      "virgi": 5912,
      "ado": 5913,
      "llo": 5914,
      "lte": 5915,
      "plei": 5916,
      "xước": 5917,
      "tral": 5918,
      "khoắn": 5919,
      "rica": 5920,
      "coun": 5921,
      "moo": 5922,
      "dực": 5923,
      "edu": 5924,
      "hùm": 5925,
      "nc": 5926,
      "rậm": 5927,
      "sảnh": 5928,
      "cambridge": 5929,
      "lyon": 5930,
      "alexis": 5931,
      "universe": 5932,
      "mịn": 5933,
      "hđtv": 5934,
      "eth": 5935,
      "sộ": 5936,
      "xl": 5937,
      "thèm": 5938,
      "trác": 5939,
      "senger": 5940,
      "bez": 5941,
      "golden": 5942,
      "ounce": 5943,
      "hwasong": 5944,
      "opera": 5945,
      "ery": 5946,
      "rie": 5947,
      "1946": 5948,
      "sio": 5949,
      "duẩn": 5950,
      "22h": 5951,
      "macbook": 5952,
      "lđlđvn": 5953,
      "hủ": 5954,
      "nus": 5955,
      "sie": 5956,
      "165": 5957,
      "lyn": 5958,
      "piano": 5959,
      "võng": 5960,
      "ads": 5961,
      "express": 5962,
      "1961": 5963,
      "pascal": 5964,
      "telecom": 5965,
      "bừng": 5966,
      "hazard": 5967,
      "gabri": 5968,
      "yoo": 5969,
      ",\"": 5970,
      "bst": 5971,
      "gập": 5972,
      "hợi": 5973,
      "kali": 5974,
      "mải": 5975,
      "nà": 5976,
      "zin": 5977,
      "khỏa": 5978,
      "conne": 5979,
      "edge": 5980,
      "surface": 5981,
      "atp": 5982,
      "oz": 5983,
      "ngán": 5984,
      "thuyên": 5985,
      "chòm": 5986,
      "phách": 5987,
      "latin": 5988,
      "shan": 5989,
      "270": 5990,
      "1958": 5991,
      "tthc": 5992,
      "alaska": 5993,
      "vẫy": 5994,
      "ngóng": 5995,
      "nhào": 5996,
      "dit": 5997,
      "arez": 5998,
      "tiger": 5999,
      "tag": 6000,
      "marvel": 6001,
      "calisto": 6002,
      "plaza": 6003,
      "mỉm": 6004,
      "bran": 6005,
      "cồng": 6006,
      "eti": 6007,
      "kd": 6008,
      "mít": 6009,
      "ấng": 6010,
      "tival": 6011,
      "emont": 6012,
      "dev": 6013,
      "atvs": 6014,
      "sydney": 6015,
      "with": 6016,
      "hsmt": 6017,
      "kuwait": 6018,
      "dí": 6019,
      "who": 6020,
      "đc": 6021,
      "(\"": 6022,
      "bau": 6023,
      "ether": 6024,
      "ww": 6025,
      "xốp": 6026,
      "nhả": 6027,
      "phớt": 6028,
      "ties": 6029,
      "alle": 6030,
      "ase": 6031,
      "hyund": 6032,
      "messenger": 6033,
      "ways": 6034,
      "christo": 6035,
      "free": 6036,
      "houthi": 6037,
      "hyundai": 6038,
      "gao": 6039,
      "isi": 6040,
      "lợp": 6041,
      "rỗng": 6042,
      "tày": 6043,
      "rose": 6044,
      "mada": 6045,
      "brand": 6046,
      "festival": 6047,
      "dmitry": 6048,
      "avi": 6049,
      "sỡ": 6050,
      "huyên": 6051,
      "thampton": 6052,
      "sub": 6053,
      "mol": 6054,
      "hanna": 6055,
      "lđt": 6056,
      "nao": 6057,
      "rụng": 6058,
      "cuông": 6059,
      "colu": 6060,
      "sica": 6061,
      "tpbank": 6062,
      "14h": 6063,
      "pitt": 6064,
      "edward": 6065,
      "cúm": 6066,
      "ject": 6067,
      "erik": 6068,
      "nhịn": 6069,
      "studio": 6070,
      "bishi": 6071,
      "dĩnh": 6072,
      "sờ": 6073,
      "rick": 6074,
      "island": 6075,
      "cid": 6076,
      "xix": 6077,
      "dell": 6078,
      "bsr": 6079,
      "fram": 6080,
      "tằm": 6081,
      "ngai": 6082,
      "cht": 6083,
      "đãng": 6084,
      "vivo": 6085,
      "kids": 6086,
      "stand": 6087,
      "gym": 6088,
      "kennedy": 6089,
      "evan": 6090,
      "pub": 6091,
      "ngó": 6092,
      "bịa": 6093,
      "sei": 6094,
      "bil": 6095,
      "nic": 6096,
      "đổng": 6097,
      "central": 6098,
      "dvd": 6099,
      "bulgar": 6100,
      "clo": 6101,
      "ngs": 6102,
      "thán": 6103,
      "khăng": 6104,
      "doha": 6105,
      "thìn": 6106,
      "muham": 6107,
      "secre": 6108,
      "bluetoo": 6109,
      "bấp": 6110,
      "mâm": 6111,
      "nand": 6112,
      "tỵ": 6113,
      "ufo": 6114,
      "ration": 6115,
      "cono": 6116,
      "1955": 6117,
      "cheon": 6118,
      "status": 6119,
      "story": 6120,
      "gangwon": 6121,
      "murray": 6122,
      "entertain": 6123,
      "kpop": 6124,
      "swan": 6125,
      "down": 6126,
      "southampton": 6127,
      "leonardo": 6128,
      "adidas": 6129,
      "virginia": 6130,
      "bluetooth": 6131,
      "119": 6132,
      "buy": 6133,
      "ef": 6134,
      "miến": 6135,
      "sấm": 6136,
      "chóc": 6137,
      "chén": 6138,
      "horea": 6139,
      "11m": 6140,
      "rence": 6141,
      "oxford": 6142,
      "entertainment": 6143,
      "bô": 6144,
      "bam": 6145,
      "diệm": 6146,
      "đố": 6147,
      "thong": 6148,
      "inf": 6149,
      "tures": 6150,
      "haiti": 6151,
      "ely": 6152,
      "roi": 6153,
      "118": 6154,
      "...)": 6155,
      "carlos": 6156,
      "pc45": 6157,
      "blackberry": 6158,
      "cõng": 6159,
      "nhồi": 6160,
      "cep": 6161,
      "produ": 6162,
      "kenya": 6163,
      "ik": 6164,
      "pon": 6165,
      "sưởi": 6166,
      "nhâm": 6167,
      "củi": 6168,
      "145": 6169,
      "brook": 6170,
      "america": 6171,
      "mercedes": 6172,
      "gabriel": 6173,
      "370": 6174,
      "bốt": 6175,
      "ice": 6176,
      "jang": 6177,
      "sanh": 6178,
      "ệch": 6179,
      "ỏm": 6180,
      "​​": 6181,
      "khay": 6182,
      "107": 6183,
      "sara": 6184,
      "cnc": 6185,
      "word": 6186,
      "vhttdl": 6187,
      "mitsubishi": 6188,
      "ave": 6189,
      "hm": 6190,
      "lười": 6191,
      "pus": 6192,
      "tẩm": 6193,
      "xiếc": 6194,
      "giàng": 6195,
      "nghiền": 6196,
      "tek": 6197,
      "kazakh": 6198,
      "xoắn": 6199,
      "ethanol": 6200,
      "madagas": 6201,
      "hờ": 6202,
      "sải": 6203,
      "trút": 6204,
      "tab": 6205,
      "dun": 6206,
      "pot": 6207,
      "vez": 6208,
      "derby": 6209,
      "morgan": 6210,
      "héc": 6211,
      "\";": 6212,
      "mĩ": 6213,
      "nxb": 6214,
      "sand": 6215,
      "vạ": 6216,
      "giỗ": 6217,
      "lump": 6218,
      "suarez": 6219,
      "bashar": 6220,
      "bet": 6221,
      "leno": 6222,
      "selena": 6223,
      "prime": 6224,
      "romania": 6225,
      "ict": 6226,
      "két": 6227,
      "xua": 6228,
      "buff": 6229,
      "lad": 6230,
      "lady": 6231,
      "126": 6232,
      "patrick": 6233,
      "xii": 6234,
      "novo": 6235,
      "tệp": 6236,
      "1956": 6237,
      "ferra": 6238,
      "simon": 6239,
      "mirror": 6240,
      "klopp": 6241,
      "bezos": 6242,
      "madagascar": 6243,
      "dằn": 6244,
      "gào": 6245,
      "ski": 6246,
      "vắt": 6247,
      "gis": 6248,
      "alty": 6249,
      "concert": 6250,
      "bos": 6251,
      "met": 6252,
      "tụi": 6253,
      "itar": 6254,
      "kins": 6255,
      "digital": 6256,
      "bầm": 6257,
      "iu": 6258,
      "ica": 6259,
      "rông": 6260,
      "tâu": 6261,
      "đọ": 6262,
      "độn": 6263,
      "1920": 6264,
      "sáo": 6265,
      "137": 6266,
      "vov": 6267,
      "server": 6268,
      "grande": 6269,
      "%-": 6270,
      "ngừ": 6271,
      "chầu": 6272,
      "hon": 6273,
      "turing": 6274,
      "1947": 6275,
      "ghana": 6276,
      "kuala": 6277,
      "đkvđ": 6278,
      "foot": 6279,
      "rashford": 6280,
      "mùng": 6281,
      "hoay": 6282,
      "armen": 6283,
      "rez": 6284,
      "gdemont": 6285,
      "bermu": 6286,
      "ransom": 6287,
      "hdbank": 6288,
      "bledon": 6289,
      "palace": 6290,
      "puigdemont": 6291,
      "wimbledon": 6292,
      "stamford": 6293,
      "pleiku": 6294,
      "bulgaria": 6295,
      "dấn": 6296,
      "gờ": 6297,
      "jr": 6298,
      "qr": 6299,
      "váng": 6300,
      "trá": 6301,
      "phiệt": 6302,
      "loay": 6303,
      "lotti": 6304,
      "cưỡi": 6305,
      "gol": 6306,
      "1953": 6307,
      "eximbank": 6308,
      "cang": 6309,
      "ths": 6310,
      "tuột": 6311,
      "bella": 6312,
      "telegraph": 6313,
      "yểm": 6314,
      "hem": 6315,
      "húy": 6316,
      "oli": 6317,
      "u11": 6318,
      "nghẹt": 6319,
      "doji": 6320,
      "body": 6321,
      "122": 6322,
      "mina": 6323,
      "benzema": 6324,
      "insider": 6325,
      "secret": 6326,
      "mand": 6327,
      "plo": 6328,
      "mus": 6329,
      "cola": 6330,
      "117": 6331,
      "vinson": 6332,
      "fintech": 6333,
      "school": 6334,
      "general": 6335,
      "armenia": 6336,
      "%);": 6337,
      "mễ": 6338,
      "ois": 6339,
      "vung": 6340,
      "xp": 6341,
      "yếm": 6342,
      "ụn": 6343,
      "hop": 6344,
      "họng": 6345,
      "shinzo": 6346,
      "bundes": 6347,
      "bts": 6348,
      "lán": 6349,
      "mbi": 6350,
      "yi": 6351,
      "ypg": 6352,
      "nhỉ": 6353,
      "khuếch": 6354,
      "tpost": 6355,
      "philip": 6356,
      "afrin": 6357,
      "thaco": 6358,
      "lumpur": 6359,
      "mem": 6360,
      "nhảm": 6361,
      "thur": 6362,
      "river": 6363,
      "lanka": 6364,
      "marco": 6365,
      "atlan": 6366,
      "trừu": 6367,
      "philippe": 6368,
      "penalty": 6369,
      "abc": 6370,
      "over": 6371,
      "yel": 6372,
      "điếu": 6373,
      "thóc": 6374,
      "chắp": 6375,
      "2050": 6376,
      "dom": 6377,
      "1948": 6378,
      "141": 6379,
      "beta": 6380,
      "dona": 6381,
      "joh": 6382,
      "jos": 6383,
      "pharao": 6384,
      "jesus": 6385,
      "soobin": 6386,
      "riyad": 6387,
      "kazakhstan": 6388,
      "jaya": 6389,
      "oán": 6390,
      "cháo": 6391,
      "vision": 6392,
      "lite": 6393,
      "bob": 6394,
      "kén": 6395,
      "urani": 6396,
      "tụy": 6397,
      "vani": 6398,
      "vietpost": 6399,
      "mauri": 6400,
      "stream": 6401,
      "hiroshima": 6402,
      "găng": 6403,
      "pur": 6404,
      "rợn": 6405,
      "vcb": 6406,
      "giòn": 6407,
      "rique": 6408,
      "175": 6409,
      "dioxide": 6410,
      "dent": 6411,
      "jersey": 6412,
      "ltd": 6413,
      "lienvietpost": 6414,
      "ransomware": 6415,
      "ee": 6416,
      "hít": 6417,
      "kẹp": 6418,
      "lốc": 6419,
      "lạch": 6420,
      "lượm": 6421,
      "mạt": 6422,
      "mone": 6423,
      "mcc": 6424,
      "sục": 6425,
      "tta": 6426,
      "vali": 6427,
      "òe": 6428,
      "diva": 6429,
      "1900": 6430,
      "hugh": 6431,
      "mana": 6432,
      "mei": 6433,
      "force": 6434,
      "care": 6435,
      "olympia": 6436,
      "muhammad": 6437,
      "lienvietpostbank": 6438,
      "dẫm": 6439,
      "rôn": 6440,
      "vế": 6441,
      "vần": 6442,
      "what": 6443,
      "trứ": 6444,
      "lucas": 6445,
      "caq": 6446,
      "maz": 6447,
      "121": 6448,
      "hãnh": 6449,
      "sak": 6450,
      "wiki": 6451,
      "talk": 6452,
      "share": 6453,
      "chàm": 6454,
      "850": 6455,
      "aja": 6456,
      "ecua": 6457,
      "hanh": 6458,
      "sấy": 6459,
      "vl": 6460,
      "xz": 6461,
      "zoo": 6462,
      "homo": 6463,
      "12h": 6464,
      "michi": 6465,
      "modu": 6466,
      "kiêng": 6467,
      "papu": 6468,
      "santos": 6469,
      "hsbc": 6470,
      "panama": 6471,
      "technology": 6472,
      "2h": 6473,
      "ig": 6474,
      "kun": 6475,
      "plu": 6476,
      "rs": 6477,
      "rườm": 6478,
      "sô": 6479,
      "chài": 6480,
      "bun": 6481,
      "lex": 6482,
      "benjam": 6483,
      "bỉm": 6484,
      "wayne": 6485,
      "benjamin": 6486,
      "hmông": 6487,
      "ora": 6488,
      "homs": 6489,
      "cuống": 6490,
      "arch": 6491,
      "sevilla": 6492,
      "patri": 6493,
      "pvf": 6494,
      "hani": 6495,
      "bermuda": 6496,
      "ajax": 6497,
      "6h": 6498,
      "kb": 6499,
      "phai": 6500,
      "rapper": 6501,
      "nature": 6502,
      "quýt": 6503,
      "vnm": 6504,
      "brian": 6505,
      "jessica": 6506,
      "michelle": 6507,
      "royal": 6508,
      "gỉ": 6509,
      "glas": 6510,
      "rùng": 6511,
      "thặng": 6512,
      "chày": 6513,
      "ere": 6514,
      "madu": 6515,
      "habeco": 6516,
      "beckham": 6517,
      "ecuador": 6518,
      "(?": 6519,
      "j7": 6520,
      "tỏi": 6521,
      "chắt": 6522,
      "phồn": 6523,
      "bộn": 6524,
      "enco": 6525,
      "banking": 6526,
      "rod": 6527,
      "hil": 6528,
      "ors": 6529,
      "guitar": 6530,
      "nom": 6531,
      "johan": 6532,
      "1957": 6533,
      "spacex": 6534,
      "acid": 6535,
      "diệc": 6536,
      "gc": 6537,
      "hắc": 6538,
      "đốm": 6539,
      "nhét": 6540,
      "nhằn": 6541,
      "chằng": 6542,
      "uyễn": 6543,
      "xuồng": 6544,
      "cape": 6545,
      "nepal": 6546,
      "bike": 6547,
      "ultra": 6548,
      "vinacon": 6549,
      "6s": 6550,
      "fra": 6551,
      "kl": 6552,
      "sủa": 6553,
      "gien": 6554,
      "ens": 6555,
      "vib": 6556,
      "vice": 6557,
      "lish": 6558,
      "basel": 6559,
      "make": 6560,
      "thụt": 6561,
      "peters": 6562,
      "ksin": 6563,
      "gary": 6564,
      "theresa": 6565,
      "charlie": 6566,
      "cpi": 6567,
      "htm": 6568,
      "pao": 6569,
      "súp": 6570,
      "yoko": 6571,
      "giỏ": 6572,
      "doping": 6573,
      "rian": 6574,
      "copa": 6575,
      "lake": 6576,
      "mekong": 6577,
      "beng": 6578,
      "cir": 6579,
      "389": 6580,
      "stant": 6581,
      "hanoi": 6582,
      "standard": 6583,
      "mam": 6584,
      "hous": 6585,
      "invest": 6586,
      "cuốc": 6587,
      "sumer": 6588,
      "thoi": 6589,
      "gos": 6590,
      "vnđ": 6591,
      "sylv": 6592,
      "check": 6593,
      "líu": 6594,
      "vpf": 6595,
      "ashin": 6596,
      "kềnh": 6597,
      "1h": 6598,
      "brussel": 6599,
      "crea": 6600,
      "fair": 6601,
      "hts": 6602,
      "jason": 6603,
      "điểu": 6604,
      "emma": 6605,
      "table": 6606,
      "road": 6607,
      "bass": 6608,
      "masan": 6609,
      "nguôi": 6610,
      "124": 6611,
      "guin": 6612,
      "pod": 6613,
      "network": 6614,
      "bmw": 6615,
      "python": 6616,
      "papua": 6617,
      "hỷ": 6618,
      "alli": 6619,
      "cass": 6620,
      "vệt": 6621,
      "verde": 6622,
      "xỉu": 6623,
      "gerald": 6624,
      "nhuyễn": 6625,
      "phèo": 6626,
      "quỵ": 6627,
      "colle": 6628,
      "114": 6629,
      "now": 6630,
      "paddock": 6631,
      "rơm": 6632,
      "1b": 6633,
      "g20": 6634,
      "lép": 6635,
      "náu": 6636,
      "plas": 6637,
      "remi": 6638,
      "trót": 6639,
      "alvar": 6640,
      "roo": 6641,
      "joo": 6642,
      "versta": 6643,
      "drive": 6644,
      "fuji": 6645,
      "great": 6646,
      "rafael": 6647,
      "verstappen": 6648,
      "crai": 6649,
      "hk": 6650,
      "pyeong": 6651,
      "als": 6652,
      "somalia": 6653,
      "ross": 6654,
      "23h": 6655,
      "sap": 6656,
      "sahara": 6657,
      "graphi": 6658,
      "salah": 6659,
      "bctc": 6660,
      "lenovo": 6661,
      "mó": 6662,
      "nến": 6663,
      "nọc": 6664,
      "ous": 6665,
      "qs": 6666,
      "rì": 6667,
      "vơ": 6668,
      "robo": 6669,
      "đhcđ": 6670,
      "ramos": 6671,
      "vinasun": 6672,
      "kẽm": 6673,
      "lb": 6674,
      "mkhi": 6675,
      "xổ": 6676,
      "host": 6677,
      "mili": 6678,
      "marc": 6679,
      "ghz": 6680,
      "tony": 6681,
      "ntbd": 6682,
      "hormone": 6683,
      "nusra": 6684,
      "maduro": 6685,
      "3000": 6686,
      "720": 6687,
      "rồ": 6688,
      "cảo": 6689,
      "alves": 6690,
      "napoli": 6691,
      "deu": 6692,
      "fit": 6693,
      "your": 6694,
      "iceland": 6695,
      "zara": 6696,
      "fergus": 6697,
      "holdings": 6698,
      "html": 6699,
      "8x": 6700,
      "ềnh": 6701,
      "nhối": 6702,
      "quẩn": 6703,
      "covid": 6704,
      "organ": 6705,
      "129": 6706,
      "11h": 6707,
      "assi": 6708,
      "mez": 6709,
      "shs": 6710,
      "pear": 6711,
      "not": 6712,
      "dance": 6713,
      "64gb": 6714,
      "under": 6715,
      "aguero": 6716,
      "vinaconex": 6717,
      "acc": 6718,
      "bợ": 6719,
      "cộ": 6720,
      "eun": 6721,
      "iq": 6722,
      "tẻ": 6723,
      "amon": 6724,
      "elle": 6725,
      "basti": 6726,
      "matt": 6727,
      "ist": 6728,
      "hadi": 6729,
      "saa": 6730,
      "sab": 6731,
      "deau": 6732,
      "fica": 6733,
      "noi": 6734,
      "mall": 6735,
      "maute": 6736,
      "ecd": 6737,
      "bhutan": 6738,
      "christopher": 6739,
      "gờm": 6740,
      "epc": 6741,
      "hấn": 6742,
      "svđ": 6743,
      "zhang": 6744,
      "ngạo": 6745,
      "nhẹn": 6746,
      "quin": 6747,
      "loe": 6748,
      "tish": 6749,
      "condo": 6750,
      "tưng": 6751,
      "esta": 6752,
      "eston": 6753,
      "robin": 6754,
      "suit": 6755,
      "dera": 6756,
      "vinachem": 6757,
      "casino": 6758,
      "ahmad": 6759,
      "first": 6760,
      "aag": 6761,
      "biếu": 6762,
      "if": 6763,
      "nhóc": 6764,
      "thads": 6765,
      "chảo": 6766,
      "alon": 6767,
      "asen": 6768,
      "marcus": 6769,
      "vpcp": 6770,
      "brussels": 6771,
      "gả": 6772,
      "mịch": 6773,
      "oecd": 6774,
      "u16": 6775,
      "đày": 6776,
      "lof": 6777,
      "assyria": 6778,
      "canon": 6779,
      "jobs": 6780,
      "đhqg": 6781,
      "gareth": 6782,
      "paulo": 6783,
      "taryan": 6784,
      "ottoman": 6785,
      "flynn": 6786,
      "mkhitaryan": 6787,
      "ferguson": 6788,
      "cta": 6789,
      "cloud": 6790,
      "dãi": 6791,
      "ggs": 6792,
      "sá": 6793,
      "scar": 6794,
      "ẳm": 6795,
      "tuni": 6796,
      "elli": 6797,
      "weinstein": 6798,
      "koh": 6799,
      "stress": 6800,
      "castle": 6801,
      "cằn": 6802,
      "lẫm": 6803,
      "mỳ": 6804,
      "nau": 6805,
      "sr": 6806,
      "ree": 6807,
      "deep": 6808,
      "gaza": 6809,
      "velo": 6810,
      "eum": 6811,
      "worth": 6812,
      "azer": 6813,
      "430": 6814,
      "cạo": 6815,
      "tđc": 6816,
      "wy": 6817,
      "nhỉnh": 6818,
      "ins": 6819,
      "rico": 6820,
      "cept": 6821,
      "tric": 6822,
      "qltt": 6823,
      "market": 6824,
      "ariana": 6825,
      "bourg": 6826,
      "security": 6827,
      "houston": 6828,
      "dật": 6829,
      "exo": 6830,
      "rượt": 6831,
      "tng": 6832,
      "sound": 6833,
      "habi": 6834,
      "nike": 6835,
      "shei": 6836,
      "tweet": 6837,
      "tuýp": 6838,
      "azerbai": 6839,
      "\").": 6840,
      "apol": 6841,
      "gli": 6842,
      "lé": 6843,
      "wu": 6844,
      "infone": 6845,
      "loc": 6846,
      "huyệt": 6847,
      "tya": 6848,
      "ese": 6849,
      "usa": 6850,
      "boston": 6851,
      "miura": 6852,
      "nhuần": 6853,
      "hybrid": 6854,
      "citi": 6855,
      "pard": 6856,
      "chev": 6857,
      "bhl": 6858,
      "manhatt": 6859,
      "more": 6860,
      "melania": 6861,
      "cassini": 6862,
      "infonet": 6863,
      "mk": 6864,
      "oto": 6865,
      "tol": 6866,
      "eron": 6867,
      "vụt": 6868,
      "mura": 6869,
      "eller": 6870,
      "lewis": 6871,
      "boong": 6872,
      "152": 6873,
      "sarah": 6874,
      "ship": 6875,
      "azerbaijan": 6876,
      "manhattan": 6877,
      "!\".": 6878,
      "mè": 6879,
      "ẫng": 6880,
      "thày": 6881,
      "lazi": 6882,
      "148": 6883,
      "kie": 6884,
      "shenko": 6885,
      "apollo": 6886,
      "hựu": 6887,
      "mn": 6888,
      "nếm": 6889,
      "chun": 6890,
      "miami": 6891,
      "bei": 6892,
      "weather": 6893,
      "clau": 6894,
      "hart": 6895,
      "macau": 6896,
      "hdr": 6897,
      "prince": 6898,
      "fsa": 6899,
      "lì": 6900,
      "nái": 6901,
      "wong": 6902,
      "thẳm": 6903,
      "tice": 6904,
      "1944": 6905,
      "200m": 6906,
      "sein": 6907,
      "marie": 6908,
      "24h": 6909,
      "joon": 6910,
      "eur": 6911,
      "gáy": 6912,
      "ipv": 6913,
      "mận": 6914,
      "nôi": 6915,
      "tl": 6916,
      "phất": 6917,
      "today": 6918,
      "225": 6919,
      "pac": 6920,
      "film": 6921,
      "gear": 6922,
      "vinal": 6923,
      "thaksin": 6924,
      "mịt": 6925,
      "835": 6926,
      "gali": 6927,
      "hòng": 6928,
      "sỉ": 6929,
      "xù": 6930,
      "chần": 6931,
      "phiện": 6932,
      "inde": 6933,
      "tak": 6934,
      "cacb": 6935,
      "dadi": 6936,
      "nude": 6937,
      "mane": 6938,
      "bee": 6939,
      "cnbc": 6940,
      "japan": 6941,
      "grace": 6942,
      "techcombank": 6943,
      "medve": 6944,
      "griez": 6945,
      "ancelotti": 6946,
      "nicolas": 6947,
      "riyadh": 6948,
      "cacbon": 6949,
      "gượng": 6950,
      "jas": 6951,
      "ngổn": 6952,
      "chệch": 6953,
      "rado": 6954,
      "taka": 6955,
      "hack": 6956,
      "marine": 6957,
      "kil": 6958,
      "swansea": 6959,
      "estonia": 6960,
      "fred": 6961,
      "ozil": 6962,
      "rola": 6963,
      "roll": 6964,
      "project": 6965,
      "stylist": 6966,
      "earch": 6967,
      "ivanka": 6968,
      "haley": 6969,
      "7h": 6970,
      "báng": 6971,
      "mma": 6972,
      "zone": 6973,
      "íu": 6974,
      "good": 6975,
      "gucci": 6976,
      "stro": 6977,
      "elite": 6978,
      "hillary": 6979,
      "massachu": 6980,
      "ferrari": 6981,
      "griezmann": 6982,
      "idi": 6983,
      "nùng": 6984,
      "riết": 6985,
      "sưng": 6986,
      "sứa": 6987,
      "tủy": 6988,
      "tney": 6989,
      "ngấm": 6990,
      "thệ": 6991,
      "phò": 6992,
      "ướn": 6993,
      "albert": 6994,
      "ental": 6995,
      "159": 6996,
      "setts": 6997,
      "date": 6998,
      "144": 6999,
      "newton": 7000,
      "cari": 7001,
      "cheng": 7002,
      "finan": 7003,
      "single": 7004,
      "motorola": 7005,
      "dìu": 7006,
      "baghdad": 7007,
      "cruise": 7008,
      "%...": 7009,
      "480": 7010,
      "hand": 7011,
      "kat": 7012,
      "mẩu": 7013,
      "zza": 7014,
      "trơ": 7015,
      "luộc": 7016,
      "vii": 7017,
      "cah": 7018,
      "celo": 7019,
      "ppy": 7020,
      "boots": 7021,
      "burnley": 7022,
      "roberto": 7023,
      "bvtv": 7024,
      "eva": 7025,
      "hc": 7026,
      "hard": 7027,
      "kị": 7028,
      "mống": 7029,
      "rê": 7030,
      "ựt": 7031,
      "nhọ": 7032,
      "aman": 7033,
      "dic": 7034,
      "essa": 7035,
      "base": 7036,
      "sico": 7037,
      "hire": 7038,
      "ust": 7039,
      "hae": 7040,
      "gomez": 7041,
      "133": 7042,
      "tsk": 7043,
      "juve": 7044,
      "căm": 7045,
      "ide": 7046,
      "juni": 7047,
      "lút": 7048,
      "omar": 7049,
      "pf": 7050,
      "đậy": 7051,
      "giầy": 7052,
      "rit": 7053,
      "nghiễm": 7054,
      "fat": 7055,
      "shim": 7056,
      "pence": 7057,
      "bundesliga": 7058,
      "financial": 7059,
      "c1": 7060,
      "hễ": 7061,
      "hhen": 7062,
      "chội": 7063,
      "choàng": 7064,
      "dot": 7065,
      "khoét": 7066,
      "dior": 7067,
      "buri": 7068,
      "migu": 7069,
      "50m": 7070,
      "danao": 7071,
      "research": 7072,
      "kwh": 7073,
      "cộm": 7074,
      "dột": 7075,
      "gne": 7076,
      "hub": 7077,
      "mồng": 7078,
      "osa": 7079,
      "xt": 7080,
      "chừ": 7081,
      "trồ": 7082,
      "nghé": 7083,
      "thuỷ": 7084,
      "socie": 7085,
      "but": 7086,
      "suk": 7087,
      "hur": 7088,
      "davis": 7089,
      "sana": 7090,
      "kova": 7091,
      "wars": 7092,
      "congo": 7093,
      "varman": 7094,
      "sergey": 7095,
      "toshiba": 7096,
      "vinalines": 7097,
      "miguel": 7098,
      "(-": 7099,
      "].": 7100,
      "even": 7101,
      "jona": 7102,
      "nỉ": 7103,
      "rêu": 7104,
      "ổng": 7105,
      "chông": 7106,
      "allen": 7107,
      "soc": 7108,
      "gaz": 7109,
      "tennis": 7110,
      "wayback": 7111,
      "xíu": 7112,
      "remix": 7113,
      "kkt": 7114,
      "mút": 7115,
      "sem": 7116,
      "tắn": 7117,
      "nhữ": 7118,
      "chet": 7119,
      "trũng": 7120,
      "trảng": 7121,
      "erson": 7122,
      "1917": 7123,
      "airways": 7124,
      "belle": 7125,
      "stoke": 7126,
      "hassan": 7127,
      "johnny": 7128,
      "medvedev": 7129,
      "4gb": 7130,
      "cca": 7131,
      "dỏm": 7132,
      "elo": 7133,
      "ml": 7134,
      "ợm": 7135,
      "concept": 7136,
      "rid": 7137,
      "taek": 7138,
      "pedia": 7139,
      "fort": 7140,
      "peri": 7141,
      "kyr": 7142,
      "phàm": 7143,
      "francois": 7144,
      "condotel": 7145,
      "tngt": 7146,
      "massachusetts": 7147,
      "kèo": 7148,
      "sặc": 7149,
      "sale": 7150,
      "đấng": 7151,
      "nhổ": 7152,
      "khố": 7153,
      "vien": 7154,
      "thia": 7155,
      "boxing": 7156,
      "131": 7157,
      "newcastle": 7158,
      "penn": 7159,
      "dark": 7160,
      "1952": 7161,
      "brun": 7162,
      "peskov": 7163,
      "hất": 7164,
      "pia": 7165,
      "spar": 7166,
      "đv": 7167,
      "ert": 7168,
      "aro": 7169,
      "ener": 7170,
      "terry": 7171,
      "154": 7172,
      "cki": 7173,
      "pos": 7174,
      "134": 7175,
      "aires": 7176,
      "four": 7177,
      "fried": 7178,
      "rious": 7179,
      "bourne": 7180,
      "geneva": 7181,
      "ronaldinho": 7182,
      "baghdadi": 7183,
      "g7": 7184,
      "gớm": 7185,
      "cut": 7186,
      "tiếu": 7187,
      "khuấy": 7188,
      "lah": 7189,
      "13h": 7190,
      "puer": 7191,
      "adb": 7192,
      "warri": 7193,
      "shah": 7194,
      "dailymail": 7195,
      "viktor": 7196,
      "méxico": 7197,
      "bần": 7198,
      "hới": 7199,
      "mủ": 7200,
      "pdf": 7201,
      "scan": 7202,
      "stri": 7203,
      "zur": 7204,
      "thớt": 7205,
      "chy": 7206,
      "giăng": 7207,
      "1939": 7208,
      "pole": 7209,
      "jazz": 7210,
      "perry": 7211,
      "cairo": 7212,
      "walker": 7213,
      "benfica": 7214,
      "aka": 7215,
      "nhe": 7216,
      "thuấn": 7217,
      "dier": 7218,
      "rihanna": 7219,
      "158": 7220,
      "cmnd": 7221,
      "xavi": 7222,
      "pak": 7223,
      "wanda": 7224,
      "abram": 7225,
      "kings": 7226,
      "blogger": 7227,
      "zoom": 7228,
      "++": 7229,
      "2a": 7230,
      "f3": 7231,
      "gấm": 7232,
      "glee": 7233,
      "hấu": 7234,
      "wri": 7235,
      "xới": 7236,
      "úm": 7237,
      "giê": 7238,
      "hotel": 7239,
      "1941": 7240,
      "little": 7241,
      "mars": 7242,
      "marcelo": 7243,
      "142": 7244,
      "138": 7245,
      "ders": 7246,
      "valverde": 7247,
      "prix": 7248,
      "eyang": 7249,
      "abdul": 7250,
      "(,": 7251,
      "btv": 7252,
      "kro": 7253,
      "lố": 7254,
      "xòe": 7255,
      "ngốc": 7256,
      "chôm": 7257,
      "amd": 7258,
      "vip": 7259,
      "hing": 7260,
      "last": 7261,
      "bean": 7262,
      "ballad": 7263,
      "hòm": 7264,
      "3h": 7265,
      "bala": 7266,
      "evo": 7267,
      "ses": 7268,
      "vor": 7269,
      "khoá": 7270,
      "mueller": 7271,
      "buồm": 7272,
      "179": 7273,
      "true": 7274,
      "thern": 7275,
      "brom": 7276,
      "abbas": 7277,
      "corpo": 7278,
      "aegis": 7279,
      "karate": 7280,
      "ffett": 7281,
      "bieber": 7282,
      "tomahawk": 7283,
      "mbier": 7284,
      "uranium": 7285,
      "\"),": 7286,
      "380": 7287,
      "950": 7288,
      "blđ": 7289,
      "gởi": 7290,
      "iz": 7291,
      "ico": 7292,
      "mnang": 7293,
      "rìa": 7294,
      "scm": 7295,
      "éon": 7296,
      "ngưu": 7297,
      "gic": 7298,
      "ame": 7299,
      "boli": 7300,
      "martial": 7301,
      "168": 7302,
      "jaco": 7303,
      "minzy": 7304,
      "mcgregor": 7305,
      "jing": 7306,
      "ille": 7307,
      "warmbier": 7308,
      "stanford": 7309,
      "electronics": 7310,
      "nbc": 7311,
      "vun": 7312,
      "alth": 7313,
      "caz": 7314,
      "isco": 7315,
      "157": 7316,
      "mario": 7317,
      "đtm": 7318,
      "tanya": 7319,
      "fortu": 7320,
      "rocket": 7321,
      "buffon": 7322,
      "pharaoh": 7323,
      "module": 7324,
      "indepen": 7325,
      "4h": 7326,
      "econo": 7327,
      "jp": 7328,
      "múc": 7329,
      "nê": 7330,
      "ques": 7331,
      "augus": 7332,
      "roland": 7333,
      "search": 7334,
      "mode": 7335,
      "222": 7336,
      "toni": 7337,
      "hèn": 7338,
      "head": 7339,
      "lenin": 7340,
      "salva": 7341,
      "spider": 7342,
      "ethereum": 7343,
      "michigan": 7344,
      "5h": 7345,
      "bỡ": 7346,
      "dứa": 7347,
      "ló": 7348,
      "vơi": 7349,
      "nhựt": 7350,
      "think": 7351,
      "gie": 7352,
      "diamon": 7353,
      "vili": 7354,
      "rir": 7355,
      "buffett": 7356,
      "suma": 7357,
      "sier": 7358,
      "rera": 7359,
      "modi": 7360,
      "174": 7361,
      "warren": 7362,
      "masters": 7363,
      "item": 7364,
      "grdp": 7365,
      "megapixel": 7366,
      "computer": 7367,
      "mnangag": 7368,
      "jur": 7369,
      "lặc": 7370,
      "níu": 7371,
      "ré": 7372,
      "swe": 7373,
      "vặn": 7374,
      "nhô": 7375,
      "nháy": 7376,
      "aids": 7377,
      "contin": 7378,
      "mumb": 7379,
      "tass": 7380,
      "sex": 7381,
      "tail": 7382,
      "geun": 7383,
      "istanbul": 7384,
      "tner": 7385,
      "anders": 7386,
      "henri": 7387,
      "pnj": 7388,
      "columbia": 7389,
      "pyeongchang": 7390,
      "alonso": 7391,
      "puerto": 7392,
      "4m": 7393,
      "6m": 7394,
      "aba": 7395,
      "bn": 7396,
      "hẻo": 7397,
      "lằn": 7398,
      "nhtm": 7399,
      "chs": 7400,
      "sos": 7401,
      "cốp": 7402,
      "sebasti": 7403,
      "mẹo": 7404,
      "goo": 7405,
      "carib": 7406,
      "snsd": 7407,
      "samuel": 7408,
      "british": 7409,
      "goldman": 7410,
      "korea": 7411,
      "mnangagwa": 7412,
      "mumbai": 7413,
      "rama": 7414,
      "sủ": 7415,
      "tột": 7416,
      "vng": 7417,
      "chol": 7418,
      "roup": 7419,
      "chuồn": 7420,
      "liễn": 7421,
      "trẻo": 7422,
      "hyo": 7423,
      "lles": 7424,
      "karl": 7425,
      "found": 7426,
      "melbourne": 7427,
      "reagan": 7428,
      "attt": 7429,
      "kirk": 7430,
      "etihad": 7431,
      "\"-": 7432,
      "340": 7433,
      "lóc": 7434,
      "mồm": 7435,
      "giun": 7436,
      "quar": 7437,
      "emo": 7438,
      "ligue": 7439,
      "isk": 7440,
      "aser": 7441,
      "ttvn": 7442,
      "kid": 7443,
      "136": 7444,
      "cing": 7445,
      "fitz": 7446,
      "kabul": 7447,
      "dele": 7448,
      "feed": 7449,
      "deniso": 7450,
      "kyung": 7451,
      "hussein": 7452,
      "bg": 7453,
      "cạp": 7454,
      "dđ": 7455,
      "eas": 7456,
      "hinh": 7457,
      "pto": 7458,
      "xby": 7459,
      "nge": 7460,
      "nhòa": 7461,
      "arthur": 7462,
      "vụng": 7463,
      "tit": 7464,
      "tuồng": 7465,
      "vio": 7466,
      "siberia": 7467,
      "donia": 7468,
      "mino": 7469,
      "walmart": 7470,
      "phom": 7471,
      "casting": 7472,
      "earth": 7473,
      "isaac": 7474,
      "5s": 7475,
      "dìm": 7476,
      "dtts": 7477,
      "feli": 7478,
      "g6": 7479,
      "nập": 7480,
      "nkt": 7481,
      "npk": 7482,
      "peo": 7483,
      "nhá": 7484,
      "dok": 7485,
      "luxem": 7486,
      "alban": 7487,
      "cop": 7488,
      "bach": 7489,
      "bixby": 7490,
      "napol": 7491,
      "niko": 7492,
      "139": 7493,
      "beat": 7494,
      "yoon": 7495,
      "brah": 7496,
      "kiati": 7497,
      "sunni": 7498,
      "qlda": 7499,
      "morning": 7500,
      "chenko": 7501,
      "gcnqsdđ": 7502,
      "tahrir": 7503,
      "napoléon": 7504,
      "420": 7505,
      "fuk": 7506,
      "rình": 7507,
      "scu": 7508,
      "sms": 7509,
      "vò": 7510,
      "vắc": 7511,
      "yun": 7512,
      "ngùng": 7513,
      "tróc": 7514,
      "only": 7515,
      "diff": 7516,
      "aly": 7517,
      "đtvn": 7518,
      "carlo": 7519,
      "mênh": 7520,
      "bele": 7521,
      "desk": 7522,
      "tencent": 7523,
      "hdv": 7524,
      "phoen": 7525,
      "justice": 7526,
      "atvslđ": 7527,
      "bú": 7528,
      "lts": 7529,
      "mứt": 7530,
      "râm": 7531,
      "zel": 7532,
      "nhác": 7533,
      "trỏ": 7534,
      "trớ": 7535,
      "ono": 7536,
      "doll": 7537,
      "viii": 7538,
      "seong": 7539,
      "seven": 7540,
      "1800": 7541,
      "gaga": 7542,
      "state": 7543,
      "jamie": 7544,
      "shaw": 7545,
      "vtv3": 7546,
      "deuts": 7547,
      "assistant": 7548,
      "jonathan": 7549,
      "scmp": 7550,
      "lỵ": 7551,
      "tỳ": 7552,
      "vna": 7553,
      "vfs": 7554,
      "ngẩn": 7555,
      "triền": 7556,
      "antt": 7557,
      "cons": 7558,
      "mul": 7559,
      "coca": 7560,
      "lear": 7561,
      "netanya": 7562,
      "teaser": 7563,
      "185": 7564,
      "poro": 7565,
      "pova": 7566,
      "hecta": 7567,
      "bềnh": 7568,
      "watford": 7569,
      "chanel": 7570,
      "maradona": 7571,
      "ipv6": 7572,
      "mích": 7573,
      "pct": 7574,
      "tớ": 7575,
      "v30": 7576,
      "zal": 7577,
      "homes": 7578,
      "audi": 7579,
      "luông": 7580,
      "thoả": 7581,
      "pit": 7582,
      "shinawa": 7583,
      "pedro": 7584,
      "santa": 7585,
      "mindanao": 7586,
      "arsene": 7587,
      "warner": 7588,
      "premium": 7589,
      "shinawatra": 7590,
      "aca": 7591,
      "abi": 7592,
      "fron": 7593,
      "hỉnh": 7594,
      "nậu": 7595,
      "ròi": 7596,
      "ngời": 7597,
      "ngợp": 7598,
      "mão": 7599,
      "stb": 7600,
      "xoăn": 7601,
      "darwin": 7602,
      "leste": 7603,
      "nando": 7604,
      "ashley": 7605,
      "girls": 7606,
      "richter": 7607,
      "weibo": 7608,
      "limi": 7609,
      "mohamed": 7610,
      "roberts": 7611,
      "petersburg": 7612,
      "alvaro": 7613,
      "netanyahu": 7614,
      "bói": 7615,
      "cshs": 7616,
      "from": 7617,
      "hốc": 7618,
      "sạp": 7619,
      "tợn": 7620,
      "xiết": 7621,
      "zar": 7622,
      "ngáo": 7623,
      "chòi": 7624,
      "load": 7625,
      "lum": 7626,
      "tier": 7627,
      "enos": 7628,
      "đoái": 7629,
      "cabin": 7630,
      "chuốt": 7631,
      "fax": 7632,
      "katy": 7633,
      "mayweather": 7634,
      "thani": 7635,
      "mond": 7636,
      "panda": 7637,
      "year": 7638,
      "turn": 7639,
      "maritime": 7640,
      "carolina": 7641,
      "corporation": 7642,
      "cằm": 7643,
      "hằn": 7644,
      "mướn": 7645,
      "oman": 7646,
      "sến": 7647,
      "tg": 7648,
      "đỗi": 7649,
      "khali": 7650,
      "doạ": 7651,
      "bịch": 7652,
      "enrique": 7653,
      "tara": 7654,
      "1912": 7655,
      "marsh": 7656,
      "vn30": 7657,
      "eden": 7658,
      "vietnams": 7659,
      "stars": 7660,
      "kheed": 7661,
      "jetstar": 7662,
      "housing": 7663,
      "firefox": 7664,
      "330": 7665,
      "dẳng": 7666,
      "fish": 7667,
      "nắn": 7668,
      "squ": 7669,
      "xén": 7670,
      "trĩ": 7671,
      "indo": 7672,
      "roc": 7673,
      "ushu": 7674,
      "vncert": 7675,
      "very": 7676,
      "kop": 7677,
      "communi": 7678,
      "palm": 7679,
      "jane": 7680,
      "channel": 7681,
      "asiad": 7682,
      "itu": 7683,
      "lươn": 7684,
      "nim": 7685,
      "ole": 7686,
      "sủng": 7687,
      "tì": 7688,
      "quai": 7689,
      "ans": 7690,
      "anfield": 7691,
      "rajoy": 7692,
      "tov": 7693,
      "192": 7694,
      "hio": 7695,
      "review": 7696,
      "mori": 7697,
      "bing": 7698,
      "camero": 7699,
      "tripoli": 7700,
      "vada": 7701,
      "netbook": 7702,
      "vinashin": 7703,
      "steel": 7704,
      "400m": 7705,
      "wilson": 7706,
      "tablet": 7707,
      "lockheed": 7708,
      "cameroon": 7709,
      "dầm": 7710,
      "fol": 7711,
      "kiệu": 7712,
      "íp": 7713,
      "nhún": 7714,
      "thét": 7715,
      "christ": 7716,
      "khxh": 7717,
      "thuỵ": 7718,
      "aus": 7719,
      "khoẻ": 7720,
      "cơva": 7721,
      "1937": 7722,
      "235": 7723,
      "cler": 7724,
      "form": 7725,
      "yah": 7726,
      "inity": 7727,
      "redmi": 7728,
      "nikkei": 7729,
      "compo": 7730,
      "mwg": 7731,
      "orion": 7732,
      "click": 7733,
      "football": 7734,
      "fitzgerald": 7735,
      "limited": 7736,
      "5km": 7737,
      "8m": 7738,
      "guy": 7739,
      "nỏ": 7740,
      "xv": 7741,
      "yl": 7742,
      "ngầu": 7743,
      "nhút": 7744,
      "dova": 7745,
      "nguyen": 7746,
      "this": 7747,
      "hugo": 7748,
      "156": 7749,
      "tten": 7750,
      "cic": 7751,
      "pvp": 7752,
      "menu": 7753,
      "phui": 7754,
      "zuki": 7755,
      "billboard": 7756,
      "rough": 7757,
      "engine": 7758,
      "avenger": 7759,
      "sylvania": 7760,
      "denisova": 7761,
      "poroshenko": 7762,
      "ation": 7763,
      "ckho": 7764,
      "done": 7765,
      "jk": 7766,
      "msn": 7767,
      "nsa": 7768,
      "oe": 7769,
      "sứt": 7770,
      "sbd": 7771,
      "tấc": 7772,
      "trọc": 7773,
      "giggs": 7774,
      "ras": 7775,
      "xus": 7776,
      "copy": 7777,
      "marx": 7778,
      "develo": 7779,
      "nixon": 7780,
      "cienco": 7781,
      "gara": 7782,
      "pez": 7783,
      "koi": 7784,
      "samson": 7785,
      "wave": 7786,
      "999": 7787,
      "jeon": 7788,
      "polis": 7789,
      "romelu": 7790,
      "nickname": 7791,
      "sporting": 7792,
      "falcon": 7793,
      "bời": 7794,
      "gpu": 7795,
      "kri": 7796,
      "nấp": 7797,
      "nấc": 7798,
      "tto": 7799,
      "vánh": 7800,
      "vít": 7801,
      "thỏi": 7802,
      "chây": 7803,
      "trầy": 7804,
      "lowe": 7805,
      "dison": 7806,
      "1942": 7807,
      "cavani": 7808,
      "basic": 7809,
      "miller": 7810,
      "146": 7811,
      "xiii": 7812,
      "clay": 7813,
      "vđqg": 7814,
      "ferdin": 7815,
      "arif": 7816,
      "xviii": 7817,
      "villar": 7818,
      "cto": 7819,
      "hóm": 7820,
      "hwang": 7821,
      "sẹo": 7822,
      "tong": 7823,
      "phình": 7824,
      "lution": 7825,
      "eme": 7826,
      "conn": 7827,
      "tuông": 7828,
      "sửng": 7829,
      "soon": 7830,
      "buenos": 7831,
      "cab": 7832,
      "cata": 7833,
      "siu": 7834,
      "miley": 7835,
      "issa": 7836,
      "sean": 7837,
      "ppc": 7838,
      "cana": 7839,
      "tvb": 7840,
      "parker": 7841,
      "update": 7842,
      "english": 7843,
      "dembele": 7844,
      "pelé": 7845,
      "mccain": 7846,
      "bengal": 7847,
      "graphic": 7848,
      "luxembourg": 7849,
      "eter": 7850,
      "mỗ": 7851,
      "nya": 7852,
      "nest": 7853,
      "rốn": 7854,
      "vạt": 7855,
      "ais": 7856,
      "aron": 7857,
      "busan": 7858,
      "lacaz": 7859,
      "thoạt": 7860,
      "midd": 7861,
      "163": 7862,
      "donna": 7863,
      "bern": 7864,
      "ids": 7865,
      "heid": 7866,
      "jorge": 7867,
      "foods": 7868,
      "edition": 7869,
      "slova": 7870,
      "novosti": 7871,
      "lacazette": 7872,
      "hẫng": 7873,
      "zona": 7874,
      "chon": 7875,
      "hoắc": 7876,
      "cket": 7877,
      "poster": 7878,
      "147": 7879,
      "tvqh": 7880,
      "sanna": 7881,
      "pvtex": 7882,
      "cbcc": 7883,
      "aeon": 7884,
      "independent": 7885,
      "310": 7886,
      "brent": 7887,
      "f5": 7888,
      "hv": 7889,
      "lị": 7890,
      "ohio": 7891,
      "ud": 7892,
      "trầu": 7893,
      "trát": 7894,
      "trệt": 7895,
      "anne": 7896,
      "alam": 7897,
      "cole": 7898,
      "dap": 7899,
      "moore": 7900,
      "pov": 7901,
      "143": 7902,
      "herrera": 7903,
      "watson": 7904,
      "georgia": 7905,
      "universal": 7906,
      "rìu": 7907,
      "warriors": 7908,
      "'),": 7909,
      "b2": 7910,
      "bở": 7911,
      "bgdđt": 7912,
      "d1": 7913,
      "hall": 7914,
      "đong": 7915,
      "202": 7916,
      "205": 7917,
      "doo": 7918,
      "control": 7919,
      "bury": 7920,
      "cash": 7921,
      "liban": 7922,
      "lisa": 7923,
      "ligh": 7924,
      "andra": 7925,
      "pple": 7926,
      "ghton": 7927,
      "túm": 7928,
      "132": 7929,
      "gawa": 7930,
      "pizza": 7931,
      "gdpt": 7932,
      "vec": 7933,
      "carter": 7934,
      "jac": 7935,
      "porto": 7936,
      "danny": 7937,
      "1951": 7938,
      "fernando": 7939,
      "snapchat": 7940,
      "caribe": 7941,
      "ferdinand": 7942,
      "gồng": 7943,
      "gmail": 7944,
      "hởi": 7945,
      "kp": 7946,
      "kèn": 7947,
      "mama": 7948,
      "sche": 7949,
      "tủi": 7950,
      "zhou": 7951,
      "giông": 7952,
      "dah": 7953,
      "camex": 7954,
      "becamex": 7955,
      "gad": 7956,
      "pink": 7957,
      "furious": 7958,
      "arizona": 7959,
      "finance": 7960,
      "flags": 7961,
      "pennsylvania": 7962,
      "bolivia": 7963,
      "5000": 7964,
      "cch": 7965,
      "gru": 7966,
      "lồi": 7967,
      "mỉa": 7968,
      "oi": 7969,
      "oliver": 7970,
      "ui": 7971,
      "zhu": 7972,
      "nhõm": 7973,
      "ging": 7974,
      "mào": 7975,
      "luke": 7976,
      "sophia": 7977,
      "1943": 7978,
      "chur": 7979,
      "ista": 7980,
      "153": 7981,
      "defen": 7982,
      "heat": 7983,
      "desi": 7984,
      "brow": 7985,
      "corn": 7986,
      "match": 7987,
      "matthe": 7988,
      "company": 7989,
      "kamal": 7990,
      "ipod": 7991,
      "café": 7992,
      "caribbean": 7993,
      "1kg": 7994,
      "];": 7995,
      "bmp": 7996,
      "mún": 7997,
      "vâng": 7998,
      "đác": 7999,
      "ngươi": 8000,
      "nhm": 8001,
      "indus": 8002,
      "206": 8003,
      "diêu": 8004,
      "viva": 8005,
      "mace": 8006,
      "report": 8007,
      "30m": 8008,
      "savill": 8009,
      "nagas": 8010,
      "164": 8011,
      "172": 8012,
      "mey": 8013,
      "medi": 8014,
      "beach": 8015,
      "vac": 8016,
      "verage": 8017,
      "hđba": 8018,
      "alian": 8019,
      "harris": 8020,
      "kers": 8021,
      "kelvin": 8022,
      "bruy": 8023,
      "julia": 8024,
      "douglas": 8025,
      "square": 8026,
      "slovakia": 8027,
      "bris": 8028,
      "fami": 8029,
      "găm": 8030,
      "gọt": 8031,
      "ius": 8032,
      "rè": 8033,
      "đơ": 8034,
      "ngoãn": 8035,
      "ries": 8036,
      "bana": 8037,
      "sui": 8038,
      "chịt": 8039,
      "manag": 8040,
      "178": 8041,
      "cil": 8042,
      "tva": 8043,
      "driver": 8044,
      "union": 8045,
      "irma": 8046,
      "titanic": 8047,
      "blancos": 8048,
      "kyrgy": 8049,
      "management": 8050,
      "960": 8051,
      "b1": 8052,
      "clas": 8053,
      "gong": 8054,
      "ganh": 8055,
      "obi": 8056,
      "oil": 8057,
      "rho": 8058,
      "teo": 8059,
      "đút": 8060,
      "điếm": 8061,
      "chk": 8062,
      "khăm": 8063,
      "raf": 8064,
      "toại": 8065,
      "lil": 8066,
      "balo": 8067,
      "happy": 8068,
      "mp3": 8069,
      "chap": 8070,
      "ports": 8071,
      "edine": 8072,
      "tcty": 8073,
      "mono": 8074,
      "southern": 8075,
      "electric": 8076,
      "wolf": 8077,
      "connect": 8078,
      "nandez": 8079,
      "buya": 8080,
      "dăm": 8081,
      "kry": 8082,
      "knight": 8083,
      "lp": 8084,
      "nvi": 8085,
      "rưng": 8086,
      "đẩu": 8087,
      "đhđ": 8088,
      "challe": 8089,
      "dire": 8090,
      "elberg": 8091,
      "mia": 8092,
      "bic": 8093,
      "181": 8094,
      "nah": 8095,
      "1400": 8096,
      "lain": 8097,
      "pablo": 8098,
      "shine": 8099,
      "waco": 8100,
      "shibuya": 8101,
      "aker": 8102,
      "blade": 8103,
      "rouhani": 8104,
      "paraguay": 8105,
      "nicole": 8106,
      "gregory": 8107,
      "ninja": 8108,
      "pearl": 8109,
      "lazio": 8110,
      "bgk": 8111,
      "bruyne": 8112,
      "kyrgyz": 8113,
      "540": 8114,
      "bcđ": 8115,
      "cruz": 8116,
      "hash": 8117,
      "igor": 8118,
      "ket": 8119,
      "rel": 8120,
      "rụt": 8121,
      "đười": 8122,
      "khế": 8123,
      "khiên": 8124,
      "phỉ": 8125,
      "quậy": 8126,
      "nghai": 8127,
      "ault": 8128,
      "lecler": 8129,
      "sulli": 8130,
      "nder": 8131,
      "boa": 8132,
      "ghềnh": 8133,
      "nile": 8134,
      "gua": 8135,
      "urs": 8136,
      "interest": 8137,
      "ssd": 8138,
      "mont": 8139,
      "kcx": 8140,
      "ruby": 8141,
      "ubcknn": 8142,
      "sheikh": 8143,
      "deutsche": 8144,
      "nagasaki": 8145,
      "leclerc": 8146,
      "ita": 8147,
      "kash": 8148,
      "mách": 8149,
      "pang": 8150,
      "tót": 8151,
      "nhích": 8152,
      "ene": 8153,
      "travel": 8154,
      "cope": 8155,
      "194": 8156,
      "roe": 8157,
      "khóm": 8158,
      "margin": 8159,
      "cameron": 8160,
      "ppi": 8161,
      "kee": 8162,
      "edin": 8163,
      "works": 8164,
      "service": 8165,
      "howard": 8166,
      "yuri": 8167,
      "slim": 8168,
      "zinedine": 8169,
      "avengers": 8170,
      "api": 8171,
      "bron": 8172,
      "dw": 8173,
      "hời": 8174,
      "mầu": 8175,
      "mẩn": 8176,
      "nện": 8177,
      "núp": 8178,
      "ocb": 8179,
      "rúng": 8180,
      "rạc": 8181,
      "ucci": 8182,
      "zzi": 8183,
      "đần": 8184,
      "that": 8185,
      "ches": 8186,
      "anto": 8187,
      "tivo": 8188,
      "eno": 8189,
      "enzy": 8190,
      "solar": 8191,
      "1080": 8192,
      "history": 8193,
      "tera": 8194,
      "bid": 8195,
      "depor": 8196,
      "got": 8197,
      "beverage": 8198,
      "delta": 8199,
      "32gb": 8200,
      "fund": 8201,
      "hotgirl": 8202,
      "active": 8203,
      "shanghai": 8204,
      "moldova": 8205,
      "junior": 8206,
      "continental": 8207,
      "!,": 8208,
      "7s": 8209,
      "ktt": 8210,
      "kđt": 8211,
      "pvi": 8212,
      "spec": 8213,
      "ngút": 8214,
      "giu": 8215,
      "gióng": 8216,
      "archi": 8217,
      "constan": 8218,
      "litva": 8219,
      "bae": 8220,
      "cky": 8221,
      "vincent": 8222,
      "germain": 8223,
      "cell": 8224,
      "akash": 8225,
      "tiago": 8226,
      "hariri": 8227,
      "adobe": 8228,
      "jurgen": 8229,
      "people": 8230,
      "savills": 8231,
      "fis": 8232,
      "kle": 8233,
      "pung": 8234,
      "rna": 8235,
      "nhăn": 8236,
      "chĩa": 8237,
      "trust": 8238,
      "erland": 8239,
      "suông": 8240,
      "lithi": 8241,
      "singh": 8242,
      "mãng": 8243,
      "sten": 8244,
      "trudeau": 8245,
      "sher": 8246,
      "venus": 8247,
      "malware": 8248,
      "idc": 8249,
      "scri": 8250,
      "shara": 8251,
      "spd": 8252,
      "hindu": 8253,
      "tunisia": 8254,
      "diamond": 8255,
      "macedonia": 8256,
      "nvidia": 8257,
      "\":": 8258,
      "213": 8259,
      "5kg": 8260,
      "bậy": 8261,
      "biếm": 8262,
      "blin": 8263,
      "cdu": 8264,
      "fm": 8265,
      "fle": 8266,
      "hắt": 8267,
      "lóng": 8268,
      "yd": 8269,
      "yip": 8270,
      "giời": 8271,
      "essen": 8272,
      "ello": 8273,
      "1938": 8274,
      "10m": 8275,
      "hito": 8276,
      "trợn": 8277,
      "lênh": 8278,
      "1500": 8279,
      "189": 8280,
      "cii": 8281,
      "hea": 8282,
      "heine": 8283,
      "hsc": 8284,
      "masdar": 8285,
      "stockho": 8286,
      "acer": 8287,
      "iniesta": 8288,
      "cript": 8289,
      "photoshop": 8290,
      "cooper": 8291,
      "latvia": 8292,
      "evans": 8293,
      "sebastian": 8294,
      "flagship": 8295,
      "7m": 8296,
      "alu": 8297,
      "câm": 8298,
      "lõng": 8299,
      "tnd": 8300,
      "zai": 8301,
      "ngớt": 8302,
      "nhếch": 8303,
      "1914": 8304,
      "midu": 8305,
      "cken": 8306,
      "1802": 8307,
      "đtdđ": 8308,
      "cleo": 8309,
      "kuo": 8310,
      "chamber": 8311,
      "wondo": 8312,
      "larry": 8313,
      "learning": 8314,
      "azi": 8315,
      "bgtvt": 8316,
      "dji": 8317,
      "ecb": 8318,
      "hót": 8319,
      "ips": 8320,
      "mxh": 8321,
      "owen": 8322,
      "s3": 8323,
      "spin": 8324,
      "sanders": 8325,
      "tơi": 8326,
      "vênh": 8327,
      "vượn": 8328,
      "wc": 8329,
      "wester": 8330,
      "zla": 8331,
      "ngớ": 8332,
      "xui": 8333,
      "toái": 8334,
      "timo": 8335,
      "algeria": 8336,
      "ngoai": 8337,
      "161": 8338,
      "162": 8339,
      "shot": 8340,
      "hein": 8341,
      "stitu": 8342,
      "ahmed": 8343,
      "villarreal": 8344,
      "sharapova": 8345,
      "ato": 8346,
      "cđt": 8347,
      "mả": 8348,
      "mọt": 8349,
      "pam": 8350,
      "rp": 8351,
      "rành": 8352,
      "vãi": 8353,
      "đùn": 8354,
      "thiểm": 8355,
      "hoạ": 8356,
      "arti": 8357,
      "vigo": 8358,
      "cứa": 8359,
      "coco": 8360,
      "ligen": 8361,
      "macos": 8362,
      "tayyip": 8363,
      "hum": 8364,
      "nevada": 8365,
      "aston": 8366,
      "...\"": 8367,
      "moun": 8368,
      "bili": 8369,
      "bird": 8370,
      "166": 8371,
      "linde": 8372,
      "bright": 8373,
      "dys": 8374,
      "itz": 8375,
      "garros": 8376,
      "ioc": 8377,
      "therine": 8378,
      "kylian": 8379,
      "sultan": 8380,
      "glass": 8381,
      "phoenix": 8382,
      "cặn": 8383,
      "hê": 8384,
      "lạy": 8385,
      "pet": 8386,
      "vằn": 8387,
      "nhấc": 8388,
      "phon": 8389,
      "giở": 8390,
      "209": 8391,
      "lopez": 8392,
      "vico": 8393,
      "1918": 8394,
      "asso": 8395,
      "sachs": 8396,
      "niger": 8397,
      "bổn": 8398,
      "hey": 8399,
      "fans": 8400,
      "vices": 8401,
      "lens": 8402,
      "denis": 8403,
      "broad": 8404,
      "anderson": 8405,
      "baht": 8406,
      "aztec": 8407,
      "kaity": 8408,
      "mohammad": 8409,
      "phillip": 8410,
      "transfor": 8411,
      "sierra": 8412,
      "itunes": 8413,
      "kyrgyzstan": 8414,
      "heineken": 8415,
      "1ha": 8416,
      "1km": 8417,
      "9m": 8418,
      "fb": 8419,
      "fhs": 8420,
      "gren": 8421,
      "lẩu": 8422,
      "lõm": 8423,
      "thảy": 8424,
      "domini": 8425,
      "disco": 8426,
      "boris": 8427,
      "hui": 8428,
      "149": 8429,
      "kawa": 8430,
      "kol": 8431,
      "alexa": 8432,
      "scien": 8433,
      "leigh": 8434,
      "colorado": 8435,
      "iskander": 8436,
      "stockholm": 8437,
      "zlatan": 8438,
      "+,": 8439,
      "bủa": 8440,
      "glu": 8441,
      "ito": 8442,
      "ltt": 8443,
      "nị": 8444,
      "ttr": 8445,
      "yam": 8446,
      "phào": 8447,
      "anz": 8448,
      "iểng": 8449,
      "cul": 8450,
      "lux": 8451,
      "band": 8452,
      "bannon": 8453,
      "1936": 8454,
      "rocker": 8455,
      "siro": 8456,
      "dead": 8457,
      "lvn": 8458,
      "dntn": 8459,
      "venice": 8460,
      "zig": 8461,
      "lẻn": 8462,
      "graham": 8463,
      "anov": 8464,
      "softbank": 8465,
      "software": 8466,
      "kyle": 8467,
      "superman": 8468,
      "change": 8469,
      "zania": 8470,
      "cindy": 8471,
      "virgin": 8472,
      "alphabet": 8473,
      "craig": 8474,
      "albania": 8475,
      "440": 8476,
      "460": 8477,
      "5ha": 8478,
      "bưng": 8479,
      "tộ": 8480,
      "vớ": 8481,
      "ẵm": 8482,
      "amp": 8483,
      "domin": 8484,
      "tomo": 8485,
      "tura": 8486,
      "muay": 8487,
      "els": 8488,
      "sikh": 8489,
      "mill": 8490,
      "saakash": 8491,
      "173": 8492,
      "mee": 8493,
      "chad": 8494,
      "tanzania": 8495,
      "kata": 8496,
      "wick": 8497,
      "excel": 8498,
      "gpxd": 8499,
      "nikki": 8500,
      "router": 8501,
      "outh": 8502,
      "xvii": 8503,
      "vingroup": 8504,
      "bruno": 8505,
      "kiatisak": 8506,
      "composite": 8507,
      "bona": 8508,
      "ichi": 8509,
      "spri": 8510,
      "t2": 8511,
      "vữa": 8512,
      "vãng": 8513,
      "xúi": 8514,
      "chát": 8515,
      "quàng": 8516,
      "ush": 8517,
      "isp": 8518,
      "retail": 8519,
      "laini": 8520,
      "prom": 8521,
      "hner": 8522,
      "tors": 8523,
      "ground": 8524,
      "burgh": 8525,
      "credit": 8526,
      "fellaini": 8527,
      "education": 8528,
      "lđtb": 8529,
      "claude": 8530,
      "đhđcđ": 8531,
      "saakashvili": 8532,
      "470": 8533,
      "630": 8534,
      "abo": 8535,
      "cỏi": 8536,
      "cze": 8537,
      "eda": 8538,
      "gem": 8539,
      "kru": 8540,
      "lk": 8541,
      "rèm": 8542,
      "tone": 8543,
      "vồng": 8544,
      "vút": 8545,
      "zh": 8546,
      "đát": 8547,
      "india": 8548,
      "doi": 8549,
      "loch": 8550,
      "loãng": 8551,
      "alba": 8552,
      "higu": 8553,
      "ubtvqh": 8554,
      "dùi": 8555,
      "motion": 8556,
      "nafta": 8557,
      "nicho": 8558,
      "beyon": 8559,
      "gdđh": 8560,
      "279": 8561,
      "santiago": 8562,
      "myra": 8563,
      "sime": 8564,
      "grabbike": 8565,
      "systems": 8566,
      "queens": 8567,
      "hmd": 8568,
      "matthew": 8569,
      "770": 8570,
      "apa": 8571,
      "bẹp": 8572,
      "jal": 8573,
      "pun": 8574,
      "stor": 8575,
      "phích": 8576,
      "giễu": 8577,
      "quăng": 8578,
      "ario": 8579,
      "emy": 8580,
      "...;": 8581,
      "saf": 8582,
      "goal": 8583,
      "167": 8584,
      "1600": 8585,
      "176": 8586,
      "dns": 8587,
      "petr": 8588,
      "nos": 8589,
      "yol": 8590,
      "wagen": 8591,
      "stefan": 8592,
      "hòe": 8593,
      "''.": 8594,
      "himal": 8595,
      "bruce": 8596,
      "rahman": 8597,
      "julian": 8598,
      "planet": 8599,
      "____": 8600,
      "guinness": 8601,
      "plasma": 8602,
      "a2": 8603,
      "diết": 8604,
      "demi": 8605,
      "eb": 8606,
      "eye": 8607,
      "east": 8608,
      "ium": 8609,
      "nỡ": 8610,
      "vẹt": 8611,
      "phc": 8612,
      "aica": 8613,
      "ripple": 8614,
      "some": 8615,
      "bui": 8616,
      "1911": 8617,
      "sukho": 8618,
      "bag": 8619,
      "186": 8620,
      "lincol": 8621,
      "290": 8622,
      "500m": 8623,
      "hsg": 8624,
      "bros": 8625,
      "cookie": 8626,
      "patriot": 8627,
      "asensio": 8628,
      "taekwondo": 8629,
      "wright": 8630,
      "foundation": 8631,
      "lindelof": 8632,
      "associa": 8633,
      "2g": 8634,
      "a8": 8635,
      "bống": 8636,
      "echo": 8637,
      "ffi": 8638,
      "iel": 8639,
      "vv": 8640,
      "vảy": 8641,
      "đẫy": 8642,
      "chạc": 8643,
      "đóa": 8644,
      "things": 8645,
      "1922": 8646,
      "modem": 8647,
      "navi": 8648,
      "gori": 8649,
      "kido": 8650,
      "joa": 8651,
      "edm": 8652,
      "adrian": 8653,
      "lands": 8654,
      "window": 8655,
      "torino": 8656,
      "ples": 8657,
      "geographic": 8658,
      "gordon": 8659,
      "claren": 8660,
      "osaka": 8661,
      "academ": 8662,
      "lithium": 8663,
      "còng": 8664,
      "hổi": 8665,
      "hụi": 8666,
      "iron": 8667,
      "kard": 8668,
      "mber": 8669,
      "pti": 8670,
      "psy": 8671,
      "sán": 8672,
      "são": 8673,
      "vsd": 8674,
      "phis": 8675,
      "tuỳ": 8676,
      "tation": 8677,
      "1933": 8678,
      "reen": 8679,
      "ttc": 8680,
      "cmcn": 8681,
      "245": 8682,
      "lini": 8683,
      "lẽo": 8684,
      "hđlđ": 8685,
      "icloud": 8686,
      "balkan": 8687,
      "byzan": 8688,
      "jonghyun": 8689,
      "intelligen": 8690,
      "roud": 8691,
      "kalani": 8692,
      "thỏm": 8693,
      "avatar": 8694,
      "novak": 8695,
      "aviv": 8696,
      "infinity": 8697,
      "joshua": 8698,
      "lincoln": 8699,
      "!!": 8700,
      "570": 8701,
      "aaron": 8702,
      "gg": 8703,
      "gye": 8704,
      "hăm": 8705,
      "mim": 8706,
      "mướt": 8707,
      "pru": 8708,
      "đéc": 8709,
      "nhũ": 8710,
      "alis": 8711,
      "tuộc": 8712,
      "mics": 8713,
      "marse": 8714,
      "đuống": 8715,
      "1789": 8716,
      "hyper": 8717,
      "yoshi": 8718,
      "vincom": 8719,
      "advan": 8720,
      "feet": 8721,
      "agung": 8722,
      "vinatex": 8723,
      "yeh": 8724,
      "grammy": 8725,
      "frame": 8726,
      "dollar": 8727,
      "deportivo": 8728,
      "410": 8729,
      "8b": 8730,
      "hách": 8731,
      "lgb": 8732,
      "mclaren": 8733,
      "rand": 8734,
      "vcp": 8735,
      "xâu": 8736,
      "²,": 8737,
      "nhép": 8738,
      "amy": 8739,
      "indra": 8740,
      "islam": 8741,
      "ttm": 8742,
      "saw": 8743,
      "veri": 8744,
      "sene": 8745,
      "mers": 8746,
      "ments": 8747,
      "moni": 8748,
      "plx": 8749,
      "eiro": 8750,
      "marathon": 8751,
      "couture": 8752,
      "bournem": 8753,
      "htv7": 8754,
      "lawrence": 8755,
      "design": 8756,
      "czech": 8757,
      "marseille": 8758,
      "bournemouth": 8759,
      "218": 8760,
      "319": 8761,
      "520": 8762,
      "ata": 8763,
      "gni": 8764,
      "lr": 8765,
      "pis": 8766,
      "s7": 8767,
      "sụn": 8768,
      "whit": 8769,
      "chồn": 8770,
      "quặc": 8771,
      "lot": 8772,
      "loren": 8773,
      "sik": 8774,
      "cpc": 8775,
      "vacc": 8776,
      "kea": 8777,
      "javas": 8778,
      "ronto": 8779,
      "gamesh": 8780,
      "celta": 8781,
      "britney": 8782,
      "shiite": 8783,
      "ners": 8784,
      "bored": 8785,
      "gilgamesh": 8786,
      "sunderland": 8787,
      "oracle": 8788,
      "salvador": 8789,
      "marshall": 8790,
      "loween": 8791,
      "copenha": 8792,
      "western": 8793,
      "4x": 8794,
      "bặm": 8795,
      "fay": 8796,
      "ffa": 8797,
      "gôn": 8798,
      "hng": 8799,
      "kdc": 8800,
      "mớ": 8801,
      "nba": 8802,
      "pơ": 8803,
      "schi": 8804,
      "ufc": 8805,
      "nháo": 8806,
      "trượng": 8807,
      "gina": 8808,
      "quẹt": 8809,
      "20m": 8810,
      "toronto": 8811,
      "mula": 8812,
      "1929": 8813,
      "lever": 8814,
      "cad": 8815,
      "castro": 8816,
      "manga": 8817,
      "madonna": 8818,
      "dara": 8819,
      "wide": 8820,
      "short": 8821,
      "vén": 8822,
      "cbcnv": 8823,
      "andrea": 8824,
      "sinai": 8825,
      "carat": 8826,
      "bướu": 8827,
      "qcg": 8828,
      "batman": 8829,
      "javascript": 8830,
      "217": 8831,
      "747": 8832,
      "banh": 8833,
      "bùa": 8834,
      "lìa": 8835,
      "nẻo": 8836,
      "qn": 8837,
      "uv": 8838,
      "vầy": 8839,
      "yes": 8840,
      "đanh": 8841,
      "thằn": 8842,
      "chử": 8843,
      "thunder": 8844,
      "aubam": 8845,
      "luống": 8846,
      "confe": 8847,
      "bàu": 8848,
      "sumi": 8849,
      "baker": 8850,
      "bow": 8851,
      "lane": 8852,
      "dual": 8853,
      "saostar": 8854,
      "daq": 8855,
      "marin": 8856,
      "marcos": 8857,
      "dea": 8858,
      "hydra": 8859,
      "vogue": 8860,
      "monte": 8861,
      "gerard": 8862,
      "gadda": 8863,
      "kalanick": 8864,
      "aubameyang": 8865,
      ".)": 8866,
      "2ha": 8867,
      "2km": 8868,
      "aq": 8869,
      "act": 8870,
      "abra": 8871,
      "fun": 8872,
      "jai": 8873,
      "plvn": 8874,
      "sne": 8875,
      "spo": 8876,
      "uri": 8877,
      "chửng": 8878,
      "tráo": 8879,
      "trẫm": 8880,
      "dijk": 8881,
      "cations": 8882,
      "laden": 8883,
      "mingham": 8884,
      "read": 8885,
      "bev": 8886,
      "wechat": 8887,
      "wit": 8888,
      "vinci": 8889,
      "tncn": 8890,
      "palmyra": 8891,
      "777": 8892,
      "xỉn": 8893,
      "call": 8894,
      "bregas": 8895,
      "playboy": 8896,
      "zenfone": 8897,
      "silver": 8898,
      "yellen": 8899,
      "roose": 8900,
      "hadid": 8901,
      "perisic": 8902,
      "cj": 8903,
      "hms": 8904,
      "nành": 8905,
      "pve": 8906,
      "pvoi": 8907,
      "ngửi": 8908,
      "chiềng": 8909,
      "ayut": 8910,
      "amin": 8911,
      "legen": 8912,
      "orlan": 8913,
      "bolt": 8914,
      "sec": 8915,
      "phire": 8916,
      "napo": 8917,
      "nathan": 8918,
      "deen": 8919,
      "pping": 8920,
      "okinawa": 8921,
      "trụi": 8922,
      "wich": 8923,
      "dric": 8924,
      "jica": 8925,
      "champa": 8926,
      "ingrad": 8927,
      "wart": 8928,
      "karim": 8929,
      "scg": 8930,
      "dall": 8931,
      "cyrus": 8932,
      "laura": 8933,
      "sharp": 8934,
      "halloween": 8935,
      "mouth": 8936,
      "birmingham": 8937,
      "mazda": 8938,
      "wikipedia": 8939,
      "desktop": 8940,
      "vaccine": 8941,
      "pvoil": 8942,
      "730": 8943,
      "bết": 8944,
      "biền": 8945,
      "dôi": 8946,
      "nớt": 8947,
      "sla": 8948,
      "zia": 8949,
      "đằm": 8950,
      "thãi": 8951,
      "thót": 8952,
      "chớ": 8953,
      "trend": 8954,
      "gib": 8955,
      "hok": 8956,
      "raw": 8957,
      "rakhi": 8958,
      "207": 8959,
      "208": 8960,
      "lott": 8961,
      "liber": 8962,
      "maps": 8963,
      "ttgt": 8964,
      "safe": 8965,
      "marca": 8966,
      "guru": 8967,
      "171": 8968,
      "gdtx": 8969,
      "pee": 8970,
      "services": 8971,
      "ezzur": 8972,
      "torres": 8973,
      "dynam": 8974,
      "gart": 8975,
      "bhtn": 8976,
      "alexandre": 8977,
      "yuan": 8978,
      "campbell": 8979,
      "russell": 8980,
      "lđtbxh": 8981,
      "public": 8982,
      "college": 8983,
      "energy": 8984,
      "punggye": 8985,
      "ielts": 8986,
      "roosevel": 8987,
      "560": 8988,
      "b5": 8989,
      "bảnh": 8990,
      "cẳng": 8991,
      "icon": 8992,
      "slav": 8993,
      "tau": 8994,
      "quez": 8995,
      "aimar": 8996,
      "rag": 8997,
      "doc": 8998,
      "ensis": 8999,
      "soán": 9000,
      "191": 9001,
      "rei": 9002,
      "ômét": 9003,
      "phila": 9004,
      "ttđb": 9005,
      "modo": 9006,
      "dec": 9007,
      "beck": 9008,
      "petya": 9009,
      "serena": 9010,
      "cbs": 9011,
      "german": 9012,
      "byte": 9013,
      "brother": 9014,
      "stanley": 9015,
      "hello": 9016,
      "kardashi": 9017,
      "vcpmc": 9018,
      "gaddafi": 9019,
      "roosevelt": 9020,
      "820": 9021,
      "aqu": 9022,
      "ova": 9023,
      "vne": 9024,
      "ngóc": 9025,
      "nhản": 9026,
      "khẽ": 9027,
      "vàm": 9028,
      "institu": 9029,
      "dium": 9030,
      "luk": 9031,
      "luồn": 9032,
      "tide": 9033,
      "buk": 9034,
      "lily": 9035,
      "khít": 9036,
      "tern": 9037,
      "ced": 9038,
      "187": 9039,
      "1885": 9040,
      "depp": 9041,
      "169": 9042,
      "177": 9043,
      "gab": 9044,
      "pir": 9045,
      "lins": 9046,
      "kmen": 9047,
      "carles": 9048,
      "sense": 9049,
      "europe": 9050,
      "rush": 9051,
      "jamaica": 9052,
      "sterling": 9053,
      "wski": 9054,
      "volks": 9055,
      "paolo": 9056,
      "organic": 9057,
      "doklam": 9058,
      "antoine": 9059,
      "byzantine": 9060,
      "3c": 9061,
      "911": 9062,
      "bsc": 9063,
      "hột": 9064,
      "kiểng": 9065,
      "rầu": 9066,
      "rôm": 9067,
      "shy": 9068,
      "semi": 9069,
      "xở": 9070,
      "nhụ": 9071,
      "giroud": 9072,
      "rating": 9073,
      "cure": 9074,
      "ernes": 9075,
      "tea": 9076,
      "182": 9077,
      "183": 9078,
      "224": 9079,
      "nold": 9080,
      "vati": 9081,
      "vosto": 9082,
      "barry": 9083,
      "mcdonald": 9084,
      "hamburg": 9085,
      "ktnn": 9086,
      "vtvcab": 9087,
      "capita": 9088,
      "xịn": 9089,
      "abdullah": 9090,
      "hudders": 9091,
      "cchc": 9092,
      "napoleon": 9093,
      "huddersfield": 9094,
      "')": 9095,
      "+.": 9096,
      "216": 9097,
      "780": 9098,
      ":\"": 9099,
      "bqt": 9100,
      "dế": 9101,
      "gừng": 9102,
      "gpt": 9103,
      "hích": 9104,
      "hera": 9105,
      "lima": 9106,
      "pm": 9107,
      "tậu": 9108,
      "vcs": 9109,
      "wem": 9110,
      "yar": 9111,
      "².": 9112,
      "ngốn": 9113,
      "khal": 9114,
      "racing": 9115,
      "ric": 9116,
      "193": 9117,
      "susan": 9118,
      "meta": 9119,
      "fabregas": 9120,
      "258": 9121,
      "oka": 9122,
      "vuitton": 9123,
      "cska": 9124,
      "kota": 9125,
      "venia": 9126,
      "alexe": 9127,
      "jeremy": 9128,
      "rossi": 9129,
      "vasep": 9130,
      "hills": 9131,
      "offline": 9132,
      "qcvn": 9133,
      "tndn": 9134,
      "dominic": 9135,
      "rakhine": 9136,
      "apo": 9137,
      "agen": 9138,
      "fam": 9139,
      "jmg": 9140,
      "kao": 9141,
      "mành": 9142,
      "angola": 9143,
      "tore": 9144,
      "til": 9145,
      "coni": 9146,
      "quad": 9147,
      "esar": 9148,
      "1916": 9149,
      "sunny": 9150,
      "dur": 9151,
      "nikov": 9152,
      "vidal": 9153,
      "barba": 9154,
      "exxon": 9155,
      "benite": 9156,
      "lling": 9157,
      "nasdaq": 9158,
      "qh13": 9159,
      "farm": 9160,
      "hamad": 9161,
      "slovenia": 9162,
      "kushner": 9163,
      "yokohama": 9164,
      "nicholas": 9165,
      "copenhagen": 9166,
      "volkswagen": 9167,
      "benitez": 9168,
      "845": 9169,
      "dget": 9170,
      "fai": 9171,
      "góa": 9172,
      "há": 9173,
      "ln": 9174,
      "lỏi": 9175,
      "lpg": 9176,
      "mbo": 9177,
      "mler": 9178,
      "money": 9179,
      "nán": 9180,
      "oen": 9181,
      "sẫm": 9182,
      "vre": 9183,
      "vựa": 9184,
      "ngợm": 9185,
      "nhảnh": 9186,
      "nhòm": 9187,
      "tht": 9188,
      "giza": 9189,
      "quáng": 9190,
      "204": 9191,
      "rim": 9192,
      "sochi": 9193,
      "sour": 9194,
      "imi": 9195,
      "rover": 9196,
      "tevez": 9197,
      "hak": 9198,
      "guat": 9199,
      "cies": 9200,
      "pire": 9201,
      "sharif": 9202,
      "nhớt": 9203,
      "valu": 9204,
      "lder": 9205,
      "kovic": 9206,
      "crop": 9207,
      "tree": 9208,
      "shire": 9209,
      "dybala": 9210,
      "garcia": 9211,
      "dowski": 9212,
      "kyoto": 9213,
      "emens": 9214,
      "laurent": 9215,
      "turkmen": 9216,
      "spurs": 9217,
      "nissan": 9218,
      "bouti": 9219,
      "kbnn": 9220,
      "kilômét": 9221,
      "ernesto": 9222,
      ")-": 9223,
      "390": 9224,
      "660": 9225,
      "a5": 9226,
      "biếng": 9227,
      "rần": 9228,
      "snow": 9229,
      "tó": 9230,
      "vát": 9231,
      "wha": 9232,
      "zhi": 9233,
      "đùng": 9234,
      "ởm": 9235,
      "thx": 9236,
      "chùn": 9237,
      "khđt": 9238,
      "aud": 9239,
      "dora": 9240,
      "alber": 9241,
      "soy": 9242,
      "elsen": 9243,
      "1919": 9244,
      "bak": 9245,
      "sions": 9246,
      "terres": 9247,
      "nitơ": 9248,
      "ptth": 9249,
      "tùm": 9250,
      "cardo": 9251,
      "books": 9252,
      "vía": 9253,
      "javier": 9254,
      "minis": 9255,
      "stewart": 9256,
      "karen": 9257,
      "tene": 9258,
      "sayy": 9259,
      "mobil": 9260,
      "helen": 9261,
      "cọp": 9262,
      "clark": 9263,
      "motors": 9264,
      "hờn": 9265,
      "derations": 9266,
      "nheim": 9267,
      "athen": 9268,
      "bf": 9269,
      "equi": 9270,
      "gỏng": 9271,
      "lèo": 9272,
      "nứa": 9273,
      "u17": 9274,
      "chong": 9275,
      "khùng": 9276,
      "anis": 9277,
      "erp": 9278,
      "emala": 9279,
      "chiu": 9280,
      "buzz": 9281,
      "1932": 9282,
      "10x": 9283,
      "suzy": 9284,
      "dave": 9285,
      "sapp": 9286,
      "184": 9287,
      "dep": 9288,
      "gogh": 9289,
      "powell": 9290,
      "226": 9291,
      "gdck": 9292,
      "vertu": 9293,
      "voan": 9294,
      "ffin": 9295,
      "ccb": 9296,
      "malta": 9297,
      "afd": 9298,
      "kshire": 9299,
      "langua": 9300,
      "focus": 9301,
      "cherano": 9302,
      "cisco": 9303,
      "mahmou": 9304,
      "kaido": 9305,
      "128gb": 9306,
      "vienna": 9307,
      "hingya": 9308,
      "confederations": 9309,
      "orlando": 9310,
      "guatemala": 9311,
      "language": 9312,
      "0h": 9313,
      "214": 9314,
      "a92": 9315,
      "băm": 9316,
      "cật": 9317,
      "dm": 9318,
      "dát": 9319,
      "i7": 9320,
      "k2": 9321,
      "nách": 9322,
      "pment": 9323,
      "scb": 9324,
      "vx": 9325,
      "vfa": 9326,
      "wes": 9327,
      "ía": 9328,
      "õa": 9329,
      "ngưởng": 9330,
      "cóp": 9331,
      "arm": 9332,
      "tutan": 9333,
      "rosa": 9334,
      "calo": 9335,
      "oren": 9336,
      "mikhai": 9337,
      "naval": 9338,
      "dez": 9339,
      "potter": 9340,
      "chae": 9341,
      "donbass": 9342,
      "shel": 9343,
      "format": 9344,
      "kom": 9345,
      "jab": 9346,
      "program": 9347,
      "mascherano": 9348,
      "pc47": 9349,
      "championship": 9350,
      "lụi": 9351,
      "janet": 9352,
      "janeiro": 9353,
      "jenner": 9354,
      "foxconn": 9355,
      "cnvc": 9356,
      "kalibr": 9357,
      "olivier": 9358,
      "whatsapp": 9359,
      "sapphire": 9360,
      "essage": 9361,
      "brahmos": 9362,
      "hokkaido": 9363,
      "mahmoud": 9364,
      "tutankham": 9365,
      "215": 9366,
      "4000": 9367,
      "530": 9368,
      "680": 9369,
      "a4": 9370,
      "aung": 9371,
      "bêu": 9372,
      "dẻ": 9373,
      "dặt": 9374,
      "hpg": 9375,
      "tnt": 9376,
      "hoon": 9377,
      "holo": 9378,
      "sophi": 9379,
      "rohingya": 9380,
      "supp": 9381,
      "hidd": 9382,
      "gur": 9383,
      "đtnđ": 9384,
      "242": 9385,
      "shtt": 9386,
      "vera": 9387,
      "kep": 9388,
      "ntd": 9389,
      "akka": 9390,
      "skype": 9391,
      "tía": 9392,
      "787": 9393,
      "nylon": 9394,
      "lingard": 9395,
      "drone": 9396,
      "http": 9397,
      "hughes": 9398,
      "jacques": 9399,
      "family": 9400,
      "simeone": 9401,
      "tutankhamun": 9402,
      "737": 9403,
      "clai": 9404,
      "dhabi": 9405,
      "fos": 9406,
      "nệ": 9407,
      "pci": 9408,
      "s2": 9409,
      "sững": 9410,
      "vet": 9411,
      "đản": 9412,
      "nhk": 9413,
      "trảm": 9414,
      "php": 9415,
      "rasia": 9416,
      "incheon": 9417,
      "sukh": 9418,
      "lit": 9419,
      "liberia": 9420,
      "lade": 9421,
      "sapi": 9422,
      "maroc": 9423,
      "navas": 9424,
      "nice": 9425,
      "manu": 9426,
      "pochet": 9427,
      "meghan": 9428,
      "hyuk": 9429,
      "257": 9430,
      "etta": 9431,
      "paper": 9432,
      "pick": 9433,
      "vos": 9434,
      "kobe": 9435,
      "ality": 9436,
      "shoot": 9437,
      "health": 9438,
      "eurozone": 9439,
      "vietnamobi": 9440,
      "tical": 9441,
      "price": 9442,
      "hongkong": 9443,
      "apg": 9444,
      "friday": 9445,
      "eleven": 9446,
      "nelson": 9447,
      "cheonan": 9448,
      "thinkpad": 9449,
      "heidelberg": 9450,
      "classic": 9451,
      "himalaya": 9452,
      "vietnamobile": 9453,
      ",..": 9454,
      "axít": 9455,
      "fy": 9456,
      "gmt": 9457,
      "hl": 9458,
      "mmy": 9459,
      "ota": 9460,
      "rb": 9461,
      "rặng": 9462,
      "sớ": 9463,
      "sson": 9464,
      "súy": 9465,
      "spot": 9466,
      "two": 9467,
      "thướt": 9468,
      "chqs": 9469,
      "trê": 9470,
      "khước": 9471,
      "ươc": 9472,
      "insu": 9473,
      "dụm": 9474,
      "tuồn": 9475,
      "vista": 9476,
      "espan": 9477,
      "liam": 9478,
      "borough": 9479,
      "huang": 9480,
      "000ha": 9481,
      "ghts": 9482,
      "nier": 9483,
      "rut": 9484,
      "275": 9485,
      "mesut": 9486,
      "luiz": 9487,
      "vpn": 9488,
      "plato": 9489,
      "dorf": 9490,
      "martinez": 9491,
      "256gb": 9492,
      "catalu": 9493,
      "kardashian": 9494,
      "pochettino": 9495,
      "espanyol": 9496,
      "223": 9497,
      "336": 9498,
      "gù": 9499,
      "gger": 9500,
      "igu": 9501,
      "kau": 9502,
      "kris": 9503,
      "n1": 9504,
      "ná": 9505,
      "pzig": 9506,
      "ráng": 9507,
      "shay": 9508,
      "zhe": 9509,
      "nhỡ": 9510,
      "gianh": 9511,
      "loát": 9512,
      "trading": 9513,
      "cott": 9514,
      "mak": 9515,
      "thaya": 9516,
      "boot": 9517,
      "huỷ": 9518,
      "neil": 9519,
      "151": 9520,
      "sac": 9521,
      "guốc": 9522,
      "kilô": 9523,
      "atlas": 9524,
      "etf": 9525,
      "pique": 9526,
      "rum": 9527,
      "seattle": 9528,
      "cctv": 9529,
      "heart": 9530,
      "penny": 9531,
      "montene": 9532,
      "panason": 9533,
      "dioxin": 9534,
      "brou": 9535,
      "leipzig": 9536,
      "neowin": 9537,
      "jimmy": 9538,
      "massage": 9539,
      "society": 9540,
      "jacob": 9541,
      "donetsk": 9542,
      "pvep": 9543,
      "mikhail": 9544,
      "montenegro": 9545,
      "panasonic": 9546,
      "980": 9547,
      "blai": 9548,
      "eh": 9549,
      "gáp": 9550,
      "kung": 9551,
      "pong": 9552,
      "sme": 9553,
      "ọp": 9554,
      "nhẽ": 9555,
      "chal": 9556,
      "analy": 9557,
      "nghê": 9558,
      "hoả": 9559,
      "child": 9560,
      "rison": 9561,
      "social": 9562,
      "nghĩnh": 9563,
      "hita": 9564,
      "mate": 9565,
      "bound": 9566,
      "miran": 9567,
      "ass": 9568,
      "dean": 9569,
      "niu": 9570,
      "guồng": 9571,
      "gael": 9572,
      "forest": 9573,
      "koro": 9574,
      "idg": 9575,
      "stephan": 9576,
      "station": 9577,
      "julius": 9578,
      "brooklyn": 9579,
      "fortune": 9580,
      "bernard": 9581,
      "senegal": 9582,
      "vostok": 9583,
      "dale": 9584,
      "gặm": 9585,
      "neman": 9586,
      "sú": 9587,
      "smal": 9588,
      "yale": 9589,
      "ngải": 9590,
      "phốt": 9591,
      "dick": 9592,
      "tun": 9593,
      "tuế": 9594,
      "imessage": 9595,
      "bani": 9596,
      "1901": 9597,
      "sushi": 9598,
      "siemens": 9599,
      "mation": 9600,
      "tttt": 9601,
      "188": 9602,
      "nua": 9603,
      "mpson": 9604,
      "guterres": 9605,
      "kita": 9606,
      "255": 9607,
      "vara": 9608,
      "santo": 9609,
      "263": 9610,
      "jad": 9611,
      "pvfc": 9612,
      "microsd": 9613,
      "brighton": 9614,
      "renault": 9615,
      "australian": 9616,
      "yev": 9617,
      "alexand": 9618,
      "prise": 9619,
      "quick": 9620,
      "industri": 9621,
      "challenge": 9622,
      "nemanja": 9623,
      "2d": 9624,
      "325": 9625,
      "a7": 9626,
      "cf": 9627,
      "cáng": 9628,
      "egel": 9629,
      "hú": 9630,
      "hâu": 9631,
      "lức": 9632,
      "lùa": 9633,
      "npt": 9634,
      "nòi": 9635,
      "riềng": 9636,
      "tèo": 9637,
      "zver": 9638,
      "chực": 9639,
      "amoled": 9640,
      "honey": 9641,
      "indiana": 9642,
      "2035": 9643,
      "muồi": 9644,
      "color": 9645,
      "1923": 9646,
      "1931": 9647,
      "thompson": 9648,
      "iaea": 9649,
      "sailles": 9650,
      "16mp": 9651,
      "nielsen": 9652,
      "ciem": 9653,
      "tskh": 9654,
      "url": 9655,
      "249": 9656,
      "versailles": 9657,
      "zation": 9658,
      "zawa": 9659,
      "charoen": 9660,
      "floren": 9661,
      "spicer": 9662,
      "murphy": 9663,
      "lisbon": 9664,
      "class": 9665,
      "atvstp": 9666,
      "investment": 9667,
      "abraham": 9668,
      "kilôgam": 9669,
      "5mm": 9670,
      "aj": 9671,
      "cand": 9672,
      "gna": 9673,
      "hleo": 9674,
      "m1": 9675,
      "och": 9676,
      "ome": 9677,
      "pé": 9678,
      "rục": 9679,
      "rúp": 9680,
      "síp": 9681,
      "vba": 9682,
      "yg": 9683,
      "yer": 9684,
      "zhong": 9685,
      "đs": 9686,
      "điếc": 9687,
      "thò": 9688,
      "thỉ": 9689,
      "thẹn": 9690,
      "phèn": 9691,
      "giẫm": 9692,
      "aim": 9693,
      "rachel": 9694,
      "cui": 9695,
      "aristo": 9696,
      "tiff": 9697,
      "alen": 9698,
      "alfred": 9699,
      "viê": 9700,
      "1910": 9701,
      "litz": 9702,
      "hide": 9703,
      "mako": 9704,
      "recep": 9705,
      "billi": 9706,
      "golan": 9707,
      "dnn": 9708,
      "pepe": 9709,
      "formula": 9710,
      "intercontinental": 9711,
      "vine": 9712,
      "vinaf": 9713,
      "vanua": 9714,
      "kura": 9715,
      "kumar": 9716,
      "385": 9717,
      "cbre": 9718,
      "hans": 9719,
      "melan": 9720,
      "solomon": 9721,
      "yểu": 9722,
      "zambia": 9723,
      "litecoin": 9724,
      "chamberlain": 9725,
      "nịnh": 9726,
      "345": 9727,
      "8h30": 9728,
      "alo": 9729,
      "ati": 9730,
      "apar": 9731,
      "gài": 9732,
      "ghou": 9733,
      "hq": 9734,
      "ivy": 9735,
      "nanh": 9736,
      "pd": 9737,
      "pù": 9738,
      "rợ": 9739,
      "sw": 9740,
      "wald": 9741,
      "ngung": 9742,
      "nhang": 9743,
      "thau": 9744,
      "cơi": 9745,
      "dios": 9746,
      "1925": 9747,
      "lewan": 9748,
      "nov": 9749,
      "285": 9750,
      "mendes": 9751,
      "jian": 9752,
      "lene": 9753,
      "ulsan": 9754,
      "daimler": 9755,
      "simp": 9756,
      "here": 9757,
      "charter": 9758,
      "ql1": 9759,
      "kurz": 9760,
      "wook": 9761,
      "raya": 9762,
      "donga": 9763,
      "demo": 9764,
      "mariano": 9765,
      "lhpn": 9766,
      "gusta": 9767,
      "stalin": 9768,
      "access": 9769,
      "essential": 9770,
      "gorilla": 9771,
      "lgbt": 9772,
      "depth": 9773,
      "760": 9774,
      "?\"": 9775,
      "beo": 9776,
      "cùi": 9777,
      "c46": 9778,
      "fall": 9779,
      "gé": 9780,
      "lự": 9781,
      "nực": 9782,
      "pris": 9783,
      "rts": 9784,
      "sính": 9785,
      "tle": 9786,
      "yana": 9787,
      "zero": 9788,
      "trám": 9789,
      "203": 9790,
      "erec": 9791,
      "alma": 9792,
      "đoản": 9793,
      "ried": 9794,
      "recor": 9795,
      "tttm": 9796,
      "bian": 9797,
      "guk": 9798,
      "pou": 9799,
      "pomp": 9800,
      "1428": 9801,
      "254": 9802,
      "csxh": 9803,
      "299": 9804,
      "266": 9805,
      "zada": 9806,
      "mind": 9807,
      "kuz": 9808,
      "jiang": 9809,
      "walter": 9810,
      "lsberg": 9811,
      "turner": 9812,
      "complex": 9813,
      "homepod": 9814,
      "globe": 9815,
      "photos": 9816,
      "kalin": 9817,
      "romeo": 9818,
      "jeffrey": 9819,
      "htv9": 9820,
      "bilbao": 9821,
      "xz1": 9822,
      "hilton": 9823,
      "ridge": 9824,
      "rocco": 9825,
      "middle": 9826,
      "academy": 9827,
      "intelligence": 9828,
      "barbados": 9829,
      "athens": 9830,
      "vanuatu": 9831,
      "(!": 9832,
      ")\".": 9833,
      "740": 9834,
      "930": 9835,
      "bít": 9836,
      "eta": 9837,
      "gw": 9838,
      "kwon": 9839,
      "qq": 9840,
      "sỏ": 9841,
      "tánh": 9842,
      "tép": 9843,
      "wushu": 9844,
      "yat": 9845,
      "chình": 9846,
      "giồng": 9847,
      "quệ": 9848,
      "aia": 9849,
      "nami": 9850,
      "loang": 9851,
      "dimi": 9852,
      "chill": 9853,
      "taji": 9854,
      "1924": 9855,
      "1927": 9856,
      "1905": 9857,
      "sure": 9858,
      "ussia": 9859,
      "16gb": 9860,
      "methan": 9861,
      "megan": 9862,
      "phonearena": 9863,
      "kaz": 9864,
      "vect": 9865,
      "hđh": 9866,
      "iden": 9867,
      "pine": 9868,
      "watt": 9869,
      "delphia": 9870,
      "feng": 9871,
      "zilla": 9872,
      "pant": 9873,
      "denim": 9874,
      "bond": 9875,
      "lord": 9876,
      "fashionista": 9877,
      "abadi": 9878,
      "erectus": 9879,
      "vectơ": 9880,
      "512": 9881,
      "620": 9882,
      "búi": 9883,
      "bren": 9884,
      "csu": 9885,
      "exy": 9886,
      "hana": 9887,
      "lốt": 9888,
      "liếng": 9889,
      "rát": 9890,
      "sli": 9891,
      "vạc": 9892,
      "xéo": 9893,
      "nheo": 9894,
      "giãi": 9895,
      "giga": 9896,
      "20km": 9897,
      "tois": 9898,
      "ngoặc": 9899,
      "vijaya": 9900,
      "muang": 9901,
      "thing": 9902,
      "espn": 9903,
      "elai": 9904,
      "tac": 9905,
      "bucks": 9906,
      "10km": 9907,
      "chul": 9908,
      "chít": 9909,
      "matx": 9910,
      "oreo": 9911,
      "bosn": 9912,
      "000km": 9913,
      "cera": 9914,
      "sabah": 9915,
      "1883": 9916,
      "227": 9917,
      "pack": 9918,
      "josh": 9919,
      "kul": 9920,
      "illin": 9921,
      "vicem": 9922,
      "vanga": 9923,
      "bđkh": 9924,
      "twice": 9925,
      "keley": 9926,
      "blackburn": 9927,
      "temer": 9928,
      "tourist": 9929,
      "franklin": 9930,
      "wendy": 9931,
      "maryland": 9932,
      "gmd": 9933,
      "asahi": 9934,
      "higuain": 9935,
      "pruden": 9936,
      "philadelphia": 9937,
      "nhụy": 9938,
      "turkmenistan": 9939,
      "sukhnah": 9940,
      "zverev": 9941,
      "bley": 9942,
      "btnmt": 9943,
      "dúa": 9944,
      "mandal": 9945,
      "nesia": 9946,
      "rc": 9947,
      "rh": 9948,
      "s1": 9949,
      "spy": 9950,
      "wti": 9951,
      "ngông": 9952,
      "nhạo": 9953,
      "thiếc": 9954,
      "amo": 9955,
      "hore": 9956,
      "indi": 9957,
      "este": 9958,
      "eline": 9959,
      "1935": 9960,
      "suzuki": 9961,
      "teng": 9962,
      "đáu": 9963,
      "1890": 9964,
      "rug": 9965,
      "gamma": 9966,
      "gede": 9967,
      "ldp": 9968,
      "kos": 9969,
      "265": 9970,
      "maldi": 9971,
      "unix": 9972,
      "celtic": 9973,
      "byung": 9974,
      "walt": 9975,
      "lympic": 9976,
      "chipset": 9977,
      "tủa": 9978,
      "text": 9979,
      "baidu": 9980,
      "boys": 9981,
      "royce": 9982,
      "golfer": 9983,
      "citizen": 9984,
      "vivaso": 9985,
      "enzyme": 9986,
      "safari": 9987,
      "sneaker": 9988,
      "sapiens": 9989,
      "catalunya": 9990,
      "lewandowski": 9991,
      "212": 9992,
      "3n": 9993,
      "990": 9994,
      "cgv": 9995,
      "edo": 9996,
      "gạ": 9997,
      "gáo": 9998,
      "hợt": 9999
    },
    "merges": [
      [
        "n",
        "g"
      ],
      [
        "n",
        "h"
      ],
      [
        "t",
        "h"
      ],
      [
        "c",
        "h"
      ],
      [
        "t",
        "r"
      ],
      [
        "k",
        "h"
      ],
      [
        "p",
        "h"
      ],
      [
        "i",
        "ệ"
      ],
      [
        "ô",
        "ng"
      ],
      [
        "g",
        "i"
      ],
      [
        "q",
        "u"
      ],
      [
        "ê",
        "n"
      ],
      [
        "v",
        "à"
      ],
      [
        "á",
        "c"
      ],
      [
        "i",
        "ế"
      ],
      [
        "c",
        "ủ"
      ],
      [
        "củ",
        "a"
      ],
      [
[...]
