{
  "version": "1.0",
  "truncation": null,
  "padding": null,
  "added_tokens": [
    {
      "id": 0,
      "content": "[PAD]",
      "single_word": false,
      "lstrip": false,
      "rstrip": false,
      "normalized": false,
      "special": true
    },
    {
      "id": 1,
      "content": "[UNK]",
      "single_word": false,
      "lstrip": false,
      "rstrip": false,
      "normalized": false,
      "special": true
    },
    {
      "id": 2,
      "content": "[CLS]",
      "single_word": false,
      "lstrip": false,
      "rstrip": false,
      "normalized": false,
      "special": true
    },
    {
      "id": 3,
      "content": "[SEP]",
      "single_word": false,
      "lstrip": false,
      "rstrip": false,
      "normalized": false,
      "special": true
    },
    {
      "id": 4,
      "content": "[MASK]",
      "single_word": false,
      "lstrip": false,
      "rstrip": false,
      "normalized": false,
      "special": true
    },
    {
      "id": 5,
      "content": "[BOS]",
      "single_word": false,
      "lstrip": false,
      "rstrip": false,
      "normalized": false,
      "special": true
    },
    {
      "id": 6,
      "content": "[EOS]",
      "single_word": false,
      "lstrip": false,
      "rstrip": false,
      "normalized": false,
      "special": true
    }
  ],
  "normalizer": {
    "type": "Sequence",
    "normalizers": [
      {
        "type": "NFD"
      },
      {
        "type": "Lowercase"
      }
    ]
  },
  "pre_tokenizer": {
    "type": "Whitespace"
  },
  "post_processor": null,
  "decoder": null,
  "model": {
    "type": "BPE",
    "dropout": null,
    "unk_token": null,
    "continuing_subword_prefix": null,
    "end_of_word_suffix": null,
    "fuse_unk": false,
    "byte_fallback": false,
    "ignore_merges": false,
    "vocab": {
      "[PAD]": 0,
      "[UNK]": 1,
      "[CLS]": 2,
      "[SEP]": 3,
      "[MASK]": 4,
      "[BOS]": 5,
      "[EOS]": 6,
      "!": 7,
      "\"": 8,
      "#": 9,
      "$": 10,
      "%": 11,
      "&": 12,
      "'": 13,
      "(": 14,
      ")": 15,
      "*": 16,
      "+": 17,
      ",": 18,
      "-": 19,
      ".": 20,
      "/": 21,
      "0": 22,
      "1": 23,
      "2": 24,
      "3": 25,
      "4": 26,
      "5": 27,
      "6": 28,
      "7": 29,
      "8": 30,
      "9": 31,
      ":": 32,
      ";": 33,
      "<": 34,
      "=": 35,
      ">": 36,
      "?": 37,
      "@": 38,
      "[": 39,
      "\\": 40,
      "]": 41,
      "^": 42,
      "_": 43,
      "`": 44,
      "a": 45,
      "b": 46,
      "c": 47,
      "d": 48,
      "e": 49,
      "f": 50,
      "g": 51,
      "h": 52,
      "i": 53,
      "j": 54,
      "k": 55,
      "l": 56,
      "m": 57,
      "n": 58,
      "o": 59,
      "p": 60,
      "q": 61,
      "r": 62,
      "s": 63,
      "t": 64,
      "u": 65,
      "v": 66,
      "w": 67,
      "x": 68,
      "y": 69,
      "z": 70,
      "{": 71,
      "|": 72,
      "}": 73,
      "~": 74,
      "¡": 75,
      "¢": 76,
      "£": 77,
      "¥": 78,
      "§": 79,
      "¬": 80,
      "­": 81,
      "°": 82,
      "±": 83,
      "²": 84,
      "³": 85,
      "µ": 86,
      "·": 87,
      "¼": 88,
      "½": 89,
      "¿": 90,
      "×": 91,
      "ß": 92,
      "à": 93,
      "á": 94,
      "â": 95,
      "ã": 96,
      "æ": 97,
      "è": 98,
      "é": 99,
      "ê": 100,
      "ì": 101,
      "í": 102,
      "ð": 103,
      "ò": 104,
      "ó": 105,
      "ô": 106,
      "õ": 107,
      "ø": 108,
      "ù": 109,
      "ú": 110,
      "ý": 111,
      "þ": 112,
      "ă": 113,
      "đ": 114,
      "ħ": 115,
      "ĩ": 116,
      "ı": 117,
      "ł": 118,
      "ŋ": 119,
      "œ": 120,
      "ũ": 121,
      "ſ": 122,
      "ƀ": 123,
      "ơ": 124,
      "ư": 125,
      "ɑ": 126,
      "ɒ": 127,
      "ə": 128,
      "ɛ": 129,
      "ɜ": 130,
      "ɡ": 131,
      "ɣ": 132,
      "ɤ": 133,
      "ɦ": 134,
      "ɨ": 135,
      "ɪ": 136,
      "ɫ": 137,
      "ɬ": 138,
      "ɯ": 139,
      "ɰ": 140,
      "ɲ": 141,
      "ɴ": 142,
      "ɸ": 143,
      "ɹ": 144,
      "ɻ": 145,
      "ɾ": 146,
      "ʁ": 147,
      "ʂ": 148,
      "ʃ": 149,
      "ʄ": 150,
      "ʈ": 151,
      "ʊ": 152,
      "ʎ": 153,
      "ʒ": 154,
      "ʔ": 155,
      "ʣ": 156,
      "ʦ": 157,
      "ʧ": 158,
      "ʰ": 159,
      "ʲ": 160,
      "ʷ": 161,
      "ʻ": 162,
      "ʼ": 163,
      "ʾ": 164,
      "ʿ": 165,
      "ˀ": 166,
      "ˈ": 167,
      "ˌ": 168,
      "ː": 169,
      "ˑ": 170,
      "ˠ": 171,
      "ˤ": 172,
      "˦": 173,
      "˧": 174,
      "̀": 175,
      "́": 176,
      "̂": 177,
      "̃": 178,
      "̄": 179,
      "̆": 180,
      "̇": 181,
      "̈": 182,
      "̉": 183,
      "̊": 184,
      "̋": 185,
      "̌": 186,
      "̍": 187,
      "̓": 188,
      "̔": 189,
      "̚": 190,
      "̛": 191,
      "̟": 192,
      "̣": 193,
      "̥": 194,
      "̦": 195,
      "̧": 196,
      "̨": 197,
      "̩": 198,
      "̪": 199,
      "̮": 200,
      "̯": 201,
      "̱": 202,
      "̸": 203,
      "͂": 204,
      "͈": 205,
      "͡": 206,
      "α": 207,
      "β": 208,
      "γ": 209,
      "δ": 210,
      "ε": 211,
      "ζ": 212,
      "η": 213,
      "θ": 214,
      "ι": 215,
      "κ": 216,
      "λ": 217,
      "μ": 218,
      "ν": 219,
      "ξ": 220,
      "ο": 221,
      "π": 222,
      "ρ": 223,
      "ς": 224,
      "σ": 225,
      "τ": 226,
      "υ": 227,
      "φ": 228,
      "χ": 229,
      "ψ": 230,
      "ω": 231,
      "а": 232,
      "б": 233,
      "в": 234,
      "г": 235,
      "д": 236,
      "е": 237,
      "з": 238,
      "и": 239,
      "к": 240,
      "л": 241,
      "м": 242,
      "н": 243,
      "о": 244,
      "п": 245,
      "р": 246,
      "с": 247,
      "т": 248,
      "у": 249,
      "х": 250,
      "ы": 251,
      "ь": 252,
      "ј": 253,
      "া": 254,
      "ে": 255,
      "ᄀ": 256,
      "ᄂ": 257,
      "ᄃ": 258,
      "ᄅ": 259,
      "ᄆ": 260,
      "ᄇ": 261,
      "ᄉ": 262,
      "ᄋ": 263,
      "ᄌ": 264,
      "ᄎ": 265,
      "ᄏ": 266,
      "ᄐ": 267,
      "ᄒ": 268,
      "ᅡ": 269,
      "ᅢ": 270,
      "ᅣ": 271,
      "ᅥ": 272,
      "ᅧ": 273,
      "ᅨ": 274,
      "ᅩ": 275,
      "ᅪ": 276,
      "ᅮ": 277,
      "ᅲ": 278,
      "ᅳ": 279,
      "ᅴ": 280,
      "ᅵ": 281,
      "ᆨ": 282,
      "ᆫ": 283,
      "ᆯ": 284,
      "ᆷ": 285,
      "ᆸ": 286,
      "ᆼ": 287,
      "ᇀ": 288,
      "ạ": 289,
      "ả": 290,
      "ấ": 291,
      "ầ": 292,
      "ẩ": 293,
      "ẫ": 294,
      "ậ": 295,
      "ắ": 296,
      "ằ": 297,
      "ẳ": 298,
      "ẵ": 299,
      "ặ": 300,
      "ẹ": 301,
      "ẻ": 302,
      "ẽ": 303,
      "ế": 304,
      "ề": 305,
      "ể": 306,
      "ễ": 307,
      "ệ": 308,
      "ỉ": 309,
      "ị": 310,
      "ọ": 311,
      "ỏ": 312,
      "ố": 313,
      "ồ": 314,
      "ổ": 315,
      "ỗ": 316,
      "ộ": 317,
      "ớ": 318,
      "ờ": 319,
      "ở": 320,
      "ỡ": 321,
      "ợ": 322,
      "ụ": 323,
      "ủ": 324,
      "ứ": 325,
      "ừ": 326,
      "ử": 327,
      "ữ": 328,
      "ự": 329,
      "ỳ": 330,
      "ỵ": 331,
      "ỷ": 332,
      "ỹ": 333,
      "῾": 334,
      "​": 335,
      "‌": 336,
      "‍": 337,
      "‐": 338,
      "‑": 339,
      "‒": 340,
      "–": 341,
      "—": 342,
      "―": 343,
      "‘": 344,
      "’": 345,
      "“": 346,
      "”": 347,
      "„": 348,
      "†": 349,
      "‡": 350,
      "•": 351,
      "…": 352,
      "‰": 353,
      "‱": 354,
      "′": 355,
      "″": 356,
      "※": 357,
      "⁄": 358,
      "⁰": 359,
      "⁹": 360,
      "⁻": 361,
      "₂": 362,
      "₣": 363,
      "₤": 364,
      "€": 365,
      "ℓ": 366,
      "⅔": 367,
      "←": 368,
      "→": 369,
      "↔": 370,
      "∀": 371,
      "∅": 372,
      "∈": 373,
      "∑": 374,
      "−": 375,
      "√": 376,
      "∞": 377,
      "∧": 378,
      "∨": 379,
      "∩": 380,
      "∪": 381,
      "≈": 382,
      "≡": 383,
      "≤": 384,
      "≥": 385,
      "⊆": 386,
      "⊤": 387,
      "⊥": 388,
      "⋅": 389,
      "☆": 390,
      "♀": 391,
      "♂": 392,
      "⟨": 393,
      "⟩": 394,
      "、": 395,
      "。": 396,
      "〈": 397,
      "〉": 398,
      "「": 399,
      "」": 400,
      "く": 401,
      "こ": 402,
      "さ": 403,
      "し": 404,
      "す": 405,
      "た": 406,
      "ち": 407,
      "つ": 408,
      "と": 409,
      "は": 410,
      "ひ": 411,
      "ふ": 412,
      "ほ": 413,
      "゙": 414,
      "゚": 415,
      "キ": 416,
      "ク": 417,
      "ケ": 418,
      "シ": 419,
      "ス": 420,
      "セ": 421,
      "タ": 422,
      "ツ": 423,
      "テ": 424,
      "ト": 425,
      "ハ": 426,
      "ヒ": 427,
      "フ": 428,
      "ホ": 429,
      "％": 430,
      "（": 431,
      "）": 432,
      "，": 433,
      "－": 434,
      "：": 435,
      "；": 436,
      "＼": 437,
      "～": 438,
      "ng": 439,
      "ư": 440,
      "ê": 441,
      "nh": 442,
      "ơ": 443,
      "à": 444,
      "̣̂": 445,
      "ô": 446,
      "th": 447,
      "â": 448,
      "á": 449,
      "ch": 450,
      "tr": 451,
      "iê": 452,
      "ươ": 453,
      "ạ": 454,
      "ệ": 455,
      "ộ": 456,
      "ph": 457,
      "ă": 458,
      "cu": 459,
      "kh": 460,
      "và": 461,
      "ả": 462,
      "ó": 463,
      "̣c": 464,
      "qu": 465,
      "iệ": 466,
      "́c": 467,
      "́t": 468,
      "gi": 469,
      "ác": 470,
      "̀n": 471,
      "̀ng": 472,
      "́n": 473,
      "ông": 474,
      "tro": 475,
      "̉a": 476,
      "là": 477,
      "ị": 478,
      "của": 479,
      "ậ": 480,
      "́i": 481,
      "các": 482,
      "̀u": 483,
      "trong": 484,
      "̀i": 485,
      "sư": 486,
      "ho": 487,
      "ữ": 488,
      "yê": 489,
      "í": 490,
      "ân": 491,
      "đê": 492,
      "́ng": 493,
      "ã": 494,
      "ại": 495,
      "an": 496,
      "ột": 497,
      "ì": 498,
      "một": 499,
      "có": 500,
      "đươ": 501,
      "ới": 502,
      "tư": 503,
      "ất": 504,
      "̣ng": 505,
      "thê": 506,
      "được": 507,
      "iều": 508,
      "ổ": 509,
      "nă": 510,
      "việ": 511,
      "sự": 512,
      "ở": 513,
      "ày": 514,
      "uyê": 515,
      "inh": 516,
      "iên": 517,
      "ành": 518,
      "ngươ": 519,
      "ình": 520,
      "người": 521,
      "cho": 522,
      "iể": 523,
      "đã": 524,
      "́p": 525,
      "ững": 526,
      "ngh": 527,
      "thu": 528,
      "những": 529,
      "co": 530,
      "ần": 531,
      "ương": 532,
      "du": 533,
      "ực": 534,
      "ính": 535,
      "iện": 536,
      "phá": 537,
      "với": 538,
      "không": 539,
      "độ": 540,
      "năm": 541,
      "iến": 542,
      "am": 543,
      "ốc": 544,
      "ên": 545,
      "ai": 546,
      "này": 547,
      "chu": 548,
      "ra": 549,
      "thể": 550,
      "ặ": 551,
      "anh": 552,
      "đô": 553,
      "nhiều": 554,
      "ỉ": 555,
      "ao": 556,
      "việc": 557,
      "ản": 558,
      "̃n": 559,
      "ống": 560,
      "ường": 561,
      "ố": 562,
      "ế": 563,
      "đến": 564,
      "ải": 565,
      "thành": 566,
      "ước": 567,
      "ật": 568,
      "ức": 569,
      "tiê": 570,
      "đâ": 571,
      "quốc": 572,
      "ăn": 573,
      "ách": 574,
      "́u": 575,
      "từ": 576,
      "ời": 577,
      "quan": 578,
      "như": 579,
      "vào": 580,
      "ề": 581,
      "ý": 582,
      "tru": 583,
      "ang": 584,
      "chính": 585,
      "ài": 586,
      "lo": 587,
      "ay": 588,
      "au": 589,
      "để": 590,
      "ộc": 591,
      "ận": 592,
      "đị": 593,
      "hơ": 594,
      "công": 595,
      "vu": 596,
      "ập": 597,
      "ội": 598,
      "mà": 599,
      "chỉ": 600,
      "̉ng": 601,
      "ạo": 602,
      "câ": 603,
      "về": 604,
      "phu": 605,
      "đó": 606,
      "̃ng": 607,
      "còn": 608,
      "bă": 609,
      "nhà": 610,
      "iển": 611,
      "gia": 612,
      "học": 613,
      "àng": 614,
      "thá": 615,
      "sử": 616,
      "ky": 617,
      "dân": 618,
      "tu": 619,
      "nam": 620,
      "phát": 621,
      "tâ": 622,
      "giá": 623,
      "ĩ": 624,
      "do": 625,
      "ổi": 626,
      "in": 627,
      "̀m": 628,
      "àn": 629,
      "ịch": 630,
      "to": 631,
      "văn": 632,
      "khi": 633,
      "lơ": 634,
      "óa": 635,
      "quân": 636,
      "hiện": 637,
      "đại": 638,
      "nguyê": 639,
      "quyê": 640,
      "cũng": 641,
      "âu": 642,
      "iệu": 643,
      "thời": 644,
      "hóa": 645,
      "hội": 646,
      "lu": 647,
      "ánh": 648,
      "động": 649,
      "tô": 650,
      "nước": 651,
      "cư": 652,
      "trung": 653,
      "thế": 654,
      "thường": 655,
      "ượng": 656,
      "cả": 657,
      "ặc": 658,
      "iết": 659,
      "tại": 660,
      "trọng": 661,
      "lại": 662,
      "ảo": 663,
      "số": 664,
      "đầu": 665,
      "trị": 666,
      "mô": 667,
      "triển": 668,
      "việt": 669,
      "ưởng": 670,
      "un": 671,
      "xu": 672,
      "khác": 673,
      "ích": 674,
      "kho": 675,
      "tế": 676,
      "định": 677,
      "̣i": 678,
      "án": 679,
      "ết": 680,
      "lý": 681,
      "̣p": 682,
      "tạo": 683,
      "sau": 684,
      "làm": 685,
      "er": 686,
      "nhân": 687,
      "20": 688,
      "eo": 689,
      "hu": 690,
      "ẩ": 691,
      "ẫn": 692,
      "nhất": 693,
      "giữ": 694,
      "hơn": 695,
      "ấ": 696,
      "chiến": 697,
      "19": 698,
      "ngo": 699,
      "bị": 700,
      "cách": 701,
      "ối": 702,
      "ảng": 703,
      "dụng": 704,
      "ạt": 705,
      "ạn": 706,
      "cơ": 707,
      "điều": 708,
      "hệ": 709,
      "unk": 710,
      "kinh": 711,
      "thực": 712,
      "thư": 713,
      "cuộc": 714,
      "trên": 715,
      "̀a": 716,
      "lớn": 717,
      "ar": 718,
      "tổ": 719,
      "en": 720,
      "ạng": 721,
      "iệt": 722,
      "iểu": 723,
      "đồng": 724,
      "úp": 725,
      "pháp": 726,
      "ấy": 727,
      "mu": 728,
      "ộng": 729,
      "họ": 730,
      "theo": 731,
      "lịch": 732,
      "giúp": 733,
      "hô": 734,
      "thống": 735,
      "khu": 736,
      "ngày": 737,
      "dư": 738,
      "pho": 739,
      "phần": 740,
      "hình": 741,
      "al": 742,
      "ăng": 743,
      "ro": 744,
      "sinh": 745,
      "quyền": 746,
      "́m": 747,
      "bộ": 748,
      "ặt": 749,
      "tự": 750,
      "thức": 751,
      "hợp": 752,
      "nó": 753,
      "con": 754,
      "giáo": 755,
      "vực": 756,
      "se": 757,
      "cao": 758,
      "bản": 759,
      "kỳ": 760,
      "iệp": 761,
      "ấn": 762,
      "trình": 763,
      "vị": 764,
      "tháng": 765,
      "ắc": 766,
      "ngô": 767,
      "hành": 768,
      "xã": 769,
      "đo": 770,
      "lập": 771,
      "iểm": 772,
      "lê": 773,
      "giữa": 774,
      "ái": 775,
      "ia": 776,
      "kết": 777,
      "phải": 778,
      "năng": 779,
      "ảnh": 780,
      "lực": 781,
      "giới": 782,
      "sản": 783,
      "ào": 784,
      "ứng": 785,
      "so": 786,
      "trường": 787,
      "ây": 788,
      "ạc": 789,
      "su": 790,
      "bảo": 791,
      "thông": 792,
      "minh": 793,
      "nguyễn": 794,
      "uyền": 795,
      "hai": 796,
      "tính": 797,
      "lượng": 798,
      "áng": 799,
      "nguyên": 800,
      "ơi": 801,
      "át": 802,
      "âm": 803,
      "tiếng": 804,
      "ọi": 805,
      "ạnh": 806,
      "iệm": 807,
      "00": 808,
      "liên": 809,
      "chủ": 810,
      "sống": 811,
      "chức": 812,
      "][": 813,
      "qua": 814,
      "đất": 815,
      "đối": 816,
      "địa": 817,
      "trở": 818,
      "nhau": 819,
      "ằng": 820,
      "),": 821,
      "hàng": 822,
      "ngu": 823,
      "ền": 824,
      "vật": 825,
      "em": 826,
      "thái": 827,
      "châu": 828,
      "phương": 829,
      "ta": 830,
      "chúng": 831,
      "phong": 832,
      "tác": 833,
      "mới": 834,
      "xuất": 835,
      "đổi": 836,
      "yệ": 837,
      "ẩm": 838,
      "tranh": 839,
      "bằng": 840,
      "hưởng": 841,
      "bo": 842,
      "nhưng": 843,
      "ờ": 844,
      "giải": 845,
      "ơn": 846,
      "tây": 847,
      "thủ": 848,
      "cùng": 849,
      "le": 850,
      "rằng": 851,
      "nghĩ": 852,
      "nghệ": 853,
      "vua": 854,
      "truyền": 855,
      "tiếp": 856,
      "̃i": 857,
      "nhận": 858,
      "di": 859,
      "loại": 860,
      "thị": 861,
      "nhiên": 862,
      "toàn": 863,
      "bắc": 864,
      "cầu": 865,
      "̉n": 866,
      "nghiệp": 867,
      "nên": 868,
      "gô": 869,
      "trước": 870,
      "triều": 871,
      "hiệu": 872,
      "đánh": 873,
      ").": 874,
      "đu": 875,
      "hoàng": 876,
      "chiê": 877,
      "nghĩa": 878,
      "cứu": 879,
      "tin": 880,
      "đông": 881,
      "ti": 882,
      "rất": 883,
      "ngữ": 884,
      "hoặc": 885,
      "thứ": 886,
      "sách": 887,
      "chuyê": 888,
      "thuật": 889,
      "ưa": 890,
      "me": 891,
      "nổi": 892,
      "ngoài": 893,
      "bu": 894,
      "ướng": 895,
      "dẫn": 896,
      "nền": 897,
      "đạo": 898,
      "cộng": 899,
      "tiên": 900,
      "gồm": 901,
      "lư": 902,
      "thay": 903,
      "ba": 904,
      "thiết": 905,
      "biến": 906,
      "yện": 907,
      "ởi": 908,
      "vi": 909,
      "giả": 910,
      "phân": 911,
      "nghiên": 912,
      "đặc": 913,
      "re": 914,
      "sẽ": 915,
      "áo": 916,
      "la": 917,
      "ne": 918,
      "mang": 919,
      "giao": 920,
      "nơi": 921,
      "ĩnh": 922,
      "tập": 923,
      "tài": 924,
      "điểm": 925,
      "vì": 926,
      "mặt": 927,
      "hoạt": 928,
      "mình": 929,
      "bình": 930,
      "bao": 931,
      "chế": 932,
      "cần": 933,
      "ậu": 934,
      "tâm": 935,
      "iễn": 936,
      "cấp": 937,
      "má": 938,
      "ợ": 939,
      "biệt": 940,
      "vo": 941,
      "vụ": 942,
      "phủ": 943,
      "quyết": 944,
      "thuộc": 945,
      "gian": 946,
      "vương": 947,
      "tăng": 948,
      "óng": 949,
      "thấy": 950,
      "đề": 951,
      "viên": 952,
      "đội": 953,
      "lên": 954,
      "đường": 955,
      "kỷ": 956,
      "lã": 957,
      "gọi": 958,
      "im": 959,
      "thì": 960,
      "đây": 961,
      "phố": 962,
      "yếu": 963,
      "đế": 964,
      "chất": 965,
      "đình": 966,
      "phí": 967,
      "tham": 968,
      "đi": 969,
      "vùng": 970,
      "quả": 971,
      "́a": 972,
      "kiến": 973,
      "phẩm": 974,
      "hoa": 975,
      "is": 976,
      "cổ": 977,
      "thần": 978,
      "khí": 979,
      "ỉnh": 980,
      "tương": 981,
      "liệu": 982,
      "dịch": 983,
      "tiến": 984,
      "máy": 985,
      "đều": 986,
      "mạnh": 987,
      "tích": 988,
      "tông": 989,
      "tử": 990,
      "ấp": 991,
      "kiện": 992,
      "tiêu": 993,
      "lươ": 994,
      "vẫn": 995,
      "ốn": 996,
      "gó": 997,
      "ty": 998,
      "tình": 999,
      "đóng": 1000,
      "̉i": 1001,
      "ạch": 1002,
      "iền": 1003,
      "bắt": 1004,
      "dự": 1005,
      "18": 1006,
      "nay": 1007,
      "on": 1008,
      "ầu": 1009,
      "đa": 1010,
      "ngôn": 1011,
      "quy": 1012,
      "de": 1013,
      "trò": 1014,
      "sắc": 1015,
      "hay": 1016,
      "phản": 1017,
      "dạng": 1018,
      "thă": 1019,
      "ke": 1020,
      "trần": 1021,
      "thiên": 1022,
      "ồn": 1023,
      "áp": 1024,
      "tuyê": 1025,
      "hậu": 1026,
      "đời": 1027,
      "hà": 1028,
      "10": 1029,
      "lãnh": 1030,
      "tên": 1031,
      "ệnh": 1032,
      "trí": 1033,
      "ban": 1034,
      "lan": 1035,
      "quá": 1036,
      "đức": 1037,
      "duy": 1038,
      "hi": 1039,
      "dùng": 1040,
      "mỗi": 1041,
      "lợi": 1042,
      "thương": 1043,
      "diễn": 1044,
      "cung": 1045,
      "ma": 1046,
      "hòa": 1047,
      "tộc": 1048,
      "tôn": 1049,
      "bởi": 1050,
      "lĩnh": 1051,
      "dựng": 1052,
      "góp": 1053,
      "dươ": 1054,
      "̣n": 1055,
      "..": 1056,
      "xây": 1057,
      "te": 1058,
      "ri": 1059,
      "cải": 1060,
      "tho": 1061,
      "tổng": 1062,
      "chuyển": 1063,
      "ôn": 1064,
      "tượng": 1065,
      "thanh": 1066,
      "phía": 1067,
      "tuy": 1068,
      "ép": 1069,
      "kê": 1070,
      "ưng": 1071,
      "nhật": 1072,
      "khoảng": 1073,
      "tỉnh": 1074,
      "phục": 1075,
      "vệ": 1076,
      "nội": 1077,
      "khả": 1078,
      "ậy": 1079,
      "biểu": 1080,
      "mở": 1081,
      "vai": 1082,
      "trận": 1083,
      "độc": 1084,
      "ru": 1085,
      "mã": 1086,
      "li": 1087,
      "khoa": 1088,
      "đang": 1089,
      "nguồn": 1090,
      "mo": 1091,
      "be": 1092,
      "cảnh": 1093,
      "lưu": 1094,
      "cuối": 1095,
      "ẩn": 1096,
      "ìm": 1097,
      "lần": 1098,
      "sơn": 1099,
      "dương": 1100,
      "200": 1101,
      "̣t": 1102,
      "xe": 1103,
      "sức": 1104,
      "tới": 1105,
      "tinh": 1106,
      "uyết": 1107,
      "my": 1108,
      "ạm": 1109,
      "hiểu": 1110,
      "nho": 1111,
      "điện": 1112,
      "cảm": 1113,
      "biết": 1114,
      "12": 1115,
      "tìm": 1116,
      "17": 1117,
      "rộng": 1118,
      "or": 1119,
      "sở": 1120,
      "phú": 1121,
      "ấu": 1122,
      "vấn": 1123,
      "bên": 1124,
      "iếu": 1125,
      "na": 1126,
      "đấu": 1127,
      "kế": 1128,
      "triệu": 1129,
      "tôi": 1130,
      "ạp": 1131,
      "rõ": 1132,
      "̉y": 1133,
      "sĩ": 1134,
      "thích": 1135,
      "tiền": 1136,
      "vũ": 1137,
      "nữ": 1138,
      "mỹ": 1139,
      "lễ": 1140,
      "chia": 1141,
      "sáng": 1142,
      "nhiệm": 1143,
      "quản": 1144,
      "bất": 1145,
      "nu": 1146,
      "tục": 1147,
      "dài": 1148,
      "nhă": 1149,
      "nói": 1150,
      "nông": 1151,
      "diện": 1152,
      "phi": 1153,
      "es": 1154,
      "đảo": 1155,
      "trợ": 1156,
      "cá": 1157,
      "tướng": 1158,
      "biển": 1159,
      "iêng": 1160,
      "kỹ": 1161,
      "danh": 1162,
      "chữ": 1163,
      "mó": 1164,
      "trịnh": 1165,
      "tố": 1166,
      "thi": 1167,
      "15": 1168,
      "thuyết": 1169,
      "ca": 1170,
      "sông": 1171,
      "dục": 1172,
      "hải": 1173,
      "giảm": 1174,
      "si": 1175,
      "ẻ": 1176,
      "nhằm": 1177,
      "thân": 1178,
      "ắt": 1179,
      "môi": 1180,
      "chi": 1181,
      "iêm": 1182,
      "phụ": 1183,
      "dưới": 1184,
      "trì": 1185,
      "chương": 1186,
      "16": 1187,
      "từng": 1188,
      "mục": 1189,
      "loài": 1190,
      "mạng": 1191,
      "yêu": 1192,
      "hồ": 1193,
      "hoàn": 1194,
      "bỏ": 1195,
      "mùa": 1196,
      "chiếm": 1197,
      "đơn": 1198,
      "mọi": 1199,
      "món": 1200,
      "óm": 1201,
      "tồn": 1202,
      "sang": 1203,
      "âng": 1204,
      "tưởng": 1205,
      "ôi": 1206,
      "thắng": 1207,
      "hán": 1208,
      "gây": 1209,
      "cử": 1210,
      "đá": 1211,
      "xác": 1212,
      "14": 1213,
      "nhạc": 1214,
      "thiện": 1215,
      "ngôi": 1216,
      "ngoại": 1217,
      "miền": 1218,
      "chúa": 1219,
      "long": 1220,
      "gần": 1221,
      "luật": 1222,
      "đặt": 1223,
      "hạn": 1224,
      "đua": 1225,
      "xem": 1226,
      "quý": 1227,
      "trúc": 1228,
      "sai": 1229,
      "riêng": 1230,
      "bài": 1231,
      "\".": 1232,
      "vậy": 1233,
      "da": 1234,
      "dù": 1235,
      "sâu": 1236,
      "ạy": 1237,
      "nhập": 1238,
      "nhóm": 1239,
      "lược": 1240,
      "câu": 1241,
      "đoạn": 1242,
      "trang": 1243,
      "khách": 1244,
      "viện": 1245,
      "đạt": 1246,
      "ắn": 1247,
      "đồ": 1248,
      "ghi": 1249,
      "viết": 1250,
      "uyên": 1251,
      "nào": 1252,
      "ãi": 1253,
      "lệ": 1254,
      "kể": 1255,
      "̀y": 1256,
      "phổ": 1257,
      "khó": 1258,
      "nhỏ": 1259,
      "thêm": 1260,
      "sa": 1261,
      "đưa": 1262,
      "kiểm": 1263,
      "13": 1264,
      "thổ": 1265,
      "ảy": 1266,
      "([": 1267,
      "ngành": 1268,
      "sát": 1269,
      "bóng": 1270,
      "chống": 1271,
      "ẳng": 1272,
      "thúc": 1273,
      "luận": 1274,
      "hướng": 1275,
      "000": 1276,
      "ỗ": 1277,
      "chí": 1278,
      "trưởng": 1279,
      "giai": 1280,
      "nhu": 1281,
      "chung": 1282,
      "phép": 1283,
      "thuận": 1284,
      "ồng": 1285,
      "ảm": 1286,
      "go": 1287,
      "tay": 1288,
      "and": 1289,
      "nghiệm": 1290,
      "hút": 1291,
      "binh": 1292,
      "nằm": 1293,
      "chuẩn": 1294,
      "khai": 1295,
      "ce": 1296,
      "khiến": 1297,
      "́o": 1298,
      "mất": 1299,
      "dụ": 1300,
      "11": 1301,
      "mối": 1302,
      "tiết": 1303,
      "nâng": 1304,
      "đáng": 1305,
      "ữu": 1306,
      "ter": 1307,
      "xư": 1308,
      "ký": 1309,
      "báo": 1310,
      "cạnh": 1311,
      "hữu": 1312,
      "tốt": 1313,
      "ặp": 1314,
      "he": 1315,
      "nghi": 1316,
      "ốt": 1317,
      "hạ": 1318,
      "po": 1319,
      "tuổi": 1320,
      "tất": 1321,
      "xung": 1322,
      "cố": 1323,
      "mạc": 1324,
      "chọn": 1325,
      "huyện": 1326,
      "đe": 1327,
      "mi": 1328,
      "mặc": 1329,
      "hỗ": 1330,
      "bố": 1331,
      "niên": 1332,
      "vận": 1333,
      "nế": 1334,
      "ừng": 1335,
      "phòng": 1336,
      "toán": 1337,
      "lạc": 1338,
      "kim": 1339,
      "dấu": 1340,
      "cụ": 1341,
      "nếu": 1342,
      "hết": 1343,
      "as": 1344,
      "chứng": 1345,
      "iêu": 1346,
      "quảng": 1347,
      "cái": 1348,
      "gu": 1349,
      "đảng": 1350,
      "hầu": 1351,
      "giành": 1352,
      "huy": 1353,
      "hộ": 1354,
      "thủy": 1355,
      "lấy": 1356,
      "cực": 1357,
      "bàn": 1358,
      "ặng": 1359,
      "bán": 1360,
      "bệnh": 1361,
      "thất": 1362,
      "nối": 1363,
      "quang": 1364,
      "man": 1365,
      "̣a": 1366,
      "thượng": 1367,
      "thập": 1368,
      "ám": 1369,
      "coi": 1370,
      "iếm": 1371,
      "lúc": 1372,
      "cây": 1373,
      "vô": 1374,
      "vững": 1375,
      "tỷ": 1376,
      "ly": 1377,
      "lục": 1378,
      "đảm": 1379,
      "giờ": 1380,
      "bật": 1381,
      "nga": 1382,
      "thiếu": 1383,
      "ninh": 1384,
      "trải": 1385,
      "hồi": 1386,
      "ồi": 1387,
      "thụ": 1388,
      "mại": 1389,
      "xuyên": 1390,
      "vươ": 1391,
      "đoàn": 1392,
      "doanh": 1393,
      "niệm": 1394,
      "cấu": 1395,
      "thao": 1396,
      "199": 1397,
      "phạm": 1398,
      "biên": 1399,
      "sơ": 1400,
      "lòng": 1401,
      "ưu": 1402,
      "nha": 1403,
      "hương": 1404,
      "chú": 1405,
      "phúc": 1406,
      "tan": 1407,
      "ắp": 1408,
      "̃u": 1409,
      "dựa": 1410,
      "ễ": 1411,
      "trực": 1412,
      "chết": 1413,
      "tạp": 1414,
      "dữ": 1415,
      "chị": 1416,
      "bại": 1417,
      "trạng": 1418,
      "chư": 1419,
      "lâu": 1420,
      "ít": 1421,
      "che": 1422,
      "...": 1423,
      "cường": 1424,
      "trái": 1425,
      "trẻ": 1426,
      "nghị": 1427,
      "nhi": 1428,
      "bạn": 1429,
      "mức": 1430,
      "mẽ": 1431,
      "nhanh": 1432,
      "ăm": 1433,
      "suy": 1434,
      "ki": 1435,
      "tấn": 1436,
      "khăn": 1437,
      "àu": 1438,
      "ve": 1439,
      "đào": 1440,
      "lai": 1441,
      "chân": 1442,
      "ví": 1443,
      "chưa": 1444,
      "tức": 1445,
      "us": 1446,
      "pa": 1447,
      "ổn": 1448,
      "hiệp": 1449,
      "bước": 1450,
      "̉e": 1451,
      "khỏe": 1452,
      "bối": 1453,
      "hy": 1454,
      "tuyên": 1455,
      "nhờ": 1456,
      "núi": 1457,
      "càng": 1458,
      "ni": 1459,
      "sứ": 1460,
      "đẩy": 1461,
      "hiến": 1462,
      "pe": 1463,
      "nhiệt": 1464,
      "ầm": 1465,
      "gốc": 1466,
      "gặp": 1467,
      "chơi": 1468,
      "lệnh": 1469,
      "thánh": 1470,
      "yên": 1471,
      "tri": 1472,
      "ha": 1473,
      "chịu": 1474,
      "thách": 1475,
      "hỏi": 1476,
      "cập": 1477,
      "khởi": 1478,
      "chạy": 1479,
      "va": 1480,
      "\",": 1481,
      "ber": 1482,
      "sao": 1483,
      "dễ": 1484,
      "sân": 1485,
      "môn": 1486,
      "phức": 1487,
      "bang": 1488,
      "đột": 1489,
      "xử": 1490,
      "hồng": 1491,
      "bào": 1492,
      "dung": 1493,
      "bầu": 1494,
      "tuyến": 1495,
      "lao": 1496,
      "khắc": 1497,
      "bay": 1498,
      "bà": 1499,
      "tam": 1500,
      "nghe": 1501,
      "giang": 1502,
      "trời": 1503,
      "đà": 1504,
      "ẫu": 1505,
      "gen": 1506,
      "ắng": 1507,
      "soát": 1508,
      "chuyên": 1509,
      "tín": 1510,
      "lương": 1511,
      "trưng": 1512,
      "pi": 1513,
      "el": 1514,
      "nhìn": 1515,
      "rồi": 1516,
      "bền": 1517,
      "muốn": 1518,
      "ếp": 1519,
      "vượt": 1520,
      "tối": 1521,
      "khỏi": 1522,
      "đài": 1523,
      "phim": 1524,
      "trách": 1525,
      "tân": 1526,
      "cận": 1527,
      "liệt": 1528,
      "the": 1529,
      "yệt": 1530,
      "tống": 1531,
      "phù": 1532,
      "xi": 1533,
      "ấm": 1534,
      "đẹp": 1535,
      "land": 1536,
      "đứng": 1537,
      "thơ": 1538,
      "cửa": 1539,
      "ẩu": 1540,
      "đem": 1541,
      "quanh": 1542,
      "giống": 1543,
      "kiếm": 1544,
      "phật": 1545,
      "cô": 1546,
      "tả": 1547,
      "tra": 1548,
      "cai": 1549,
      "ớ": 1550,
      "linh": 1551,
      "cha": 1552,
      "197": 1553,
      "hưng": 1554,
      "thừa": 1555,
      "quận": 1556,
      "địch": 1557,
      "dòng": 1558,
      "no": 1559,
      "khẩu": 1560,
      "ậm": 1561,
      "kéo": 1562,
      "mar": 1563,
      "quần": 1564,
      "pu": 1565,
      "lớp": 1566,
      "̃m": 1567,
      "tầng": 1568,
      "ỡ": 1569,
      "ãn": 1570,
      "194": 1571,
      "nghiêm": 1572,
      "chấp": 1573,
      "30": 1574,
      "đủ": 1575,
      "giết": 1576,
      "giác": 1577,
      "50": 1578,
      "vòng": 1579,
      "lời": 1580,
      "ci": 1581,
      "suất": 1582,
      "kính": 1583,
      "xâm": 1584,
      "trào": 1585,
      "nhớ": 1586,
      "xa": 1587,
      "hạt": 1588,
      "tion": 1589,
      "can": 1590,
      "bánh": 1591,
      "trấn": 1592,
      "bi": 1593,
      "of": 1594,
      "áu": 1595,
      "nữa": 1596,
      "hấp": 1597,
      "198": 1598,
      "ịp": 1599,
      "luôn": 1600,
      "triết": 1601,
      "kháng": 1602,
      "bổ": 1603,
      "điển": 1604,
      "tàu": 1605,
      "thấp": 1606,
      "lâm": 1607,
      "trương": 1608,
      "ga": 1609,
      "ii": 1610,
      "xảy": 1611,
      "tầm": 1612,
      "hoạch": 1613,
      "nhiê": 1614,
      "trụ": 1615,
      "xét": 1616,
      "xếp": 1617,
      "car": 1618,
      "we": 1619,
      "xuống": 1620,
      "mông": 1621,
      "màu": 1622,
      "tiểu": 1623,
      "chóng": 1624,
      "nỗ": 1625,
      "song": 1626,
      "ngay": 1627,
      "vọng": 1628,
      "thờ": 1629,
      "thuế": 1630,
      "fi": 1631,
      "par": 1632,
      "phái": 1633,
      "đích": 1634,
      "thảo": 1635,
      "new": 1636,
      "ão": 1637,
      "cũ": 1638,
      "tịch": 1639,
      "suốt": 1640,
      "thiểu": 1641,
      "đôi": 1642,
      "trai": 1643,
      "giám": 1644,
      "đổ": 1645,
      "gh": 1646,
      "chứa": 1647,
      "buổi": 1648,
      "cam": 1649,
      "ka": 1650,
      "ồ": 1651,
      "mẫu": 1652,
      "biện": 1653,
      "óc": 1654,
      "kích": 1655,
      "vàng": 1656,
      "dần": 1657,
      "hạng": 1658,
      "thưởng": 1659,
      "luyện": 1660,
      "km": 1661,
      "202": 1662,
      "chuyện": 1663,
      "mẹ": 1664,
      "thú": 1665,
      "khám": 1666,
      "phó": 1667,
      "chăm": 1668,
      "196": 1669,
      "ine": 1670,
      "chỉnh": 1671,
      "quyển": 1672,
      "ngư": 1673,
      "ỗi": 1674,
      "chẳng": 1675,
      "gì": 1676,
      "phối": 1677,
      "bảng": 1678,
      "đầy": 1679,
      "thẳng": 1680,
      "ngân": 1681,
      "phiên": 1682,
      "fa": 1683,
      "st": 1684,
      "cáo": 1685,
      "tắc": 1686,
      "cươ": 1687,
      "bức": 1688,
      "đinh": 1689,
      "hại": 1690,
      "mề": 1691,
      "mật": 1692,
      "mềm": 1693,
      "tái": 1694,
      "ton": 1695,
      "xuân": 1696,
      "tốc": 1697,
      "̣u": 1698,
      "tiện": 1699,
      "đúng": 1700,
      "truy": 1701,
      "gắn": 1702,
      "vốn": 1703,
      "ja": 1704,
      "quán": 1705,
      "wi": 1706,
      "vạn": 1707,
      "huệ": 1708,
      "đáo": 1709,
      "ck": 1710,
      "cn": 1711,
      "cứ": 1712,
      "loạn": 1713,
      "ran": 1714,
      "trao": 1715,
      "làng": 1716,
      "đọc": 1717,
      "jo": 1718,
      "giản": 1719,
      "đốc": 1720,
      "ge": 1721,
      "vài": 1722,
      "xương": 1723,
      "xúc": 1724,
      "khái": 1725,
      "buộc": 1726,
      "thụy": 1727,
      "tảng": 1728,
      "trồng": 1729,
      "lộ": 1730,
      "hàn": 1731,
      "mưa": 1732,
      "ặn": 1733,
      "thuần": 1734,
      "ver": 1735,
      "iềm": 1736,
      "])": 1737,
      "chiếc": 1738,
      "ủy": 1739,
      "thăng": 1740,
      "khắp": 1741,
      "khánh": 1742,
      "cân": 1743,
      "trả": 1744,
      "uyến": 1745,
      "khảo": 1746,
      "rút": 1747,
      "lin": 1748,
      "nhiễm": 1749,
      "dưỡng": 1750,
      "tội": 1751,
      "ali": 1752,
      "ko": 1753,
      "trữ": 1754,
      "dàng": 1755,
      "rừng": 1756,
      "for": 1757,
      "cát": 1758,
      "truyện": 1759,
      "tuyển": 1760,
      "hàm": 1761,
      "sy": 1762,
      "25": 1763,
      "khuyến": 1764,
      "ngũ": 1765,
      "net": 1766,
      "sh": 1767,
      "bồ": 1768,
      "trư": 1769,
      "đương": 1770,
      "yo": 1771,
      "thuyền": 1772,
      "bờ": 1773,
      "khổ": 1774,
      "tứ": 1775,
      "kiểu": 1776,
      "pro": 1777,
      "lựa": 1778,
      "nặng": 1779,
      "bá": 1780,
      "đăng": 1781,
      "xô": 1782,
      "by": 1783,
      "khích": 1784,
      "bạch": 1785,
      "chép": 1786,
      "chiếu": 1787,
      "dậy": 1788,
      "trùng": 1789,
      "hùng": 1790,
      "thịnh": 1791,
      "chiêu": 1792,
      "web": 1793,
      "tòa": 1794,
      "chiều": 1795,
      "nắm": 1796,
      "bốn": 1797,
      "sớm": 1798,
      "đền": 1799,
      "ur": 1800,
      "đàn": 1801,
      "at": 1802,
      "mạch": 1803,
      "dành": 1804,
      "lạp": 1805,
      "̀o": 1806,
      "vư": 1807,
      "ủng": 1808,
      "mua": 1809,
      "ll": 1810,
      "võ": 1811,
      "dinh": 1812,
      "]),": 1813,
      "tuyệt": 1814,
      "ràng": 1815,
      "195": 1816,
      "chiêm": 1817,
      "họa": 1818,
      "xin": 1819,
      "xưng": 1820,
      "ươi": 1821,
      "liền": 1822,
      "100": 1823,
      "mer": 1824,
      "khối": 1825,
      "loan": 1826,
      "ngăn": 1827,
      "bạc": 1828,
      "pp": 1829,
      "ữa": 1830,
      "diệt": 1831,
      "thử": 1832,
      "phận": 1833,
      "gio": 1834,
      "tùy": 1835,
      "sẻ": 1836,
      "căng": 1837,
      "dã": 1838,
      "40": 1839,
      "phê": 1840,
      "bữa": 1841,
      "tcn": 1842,
      "đoán": 1843,
      "vĩnh": 1844,
      "ngược": 1845,
      "phóng": 1846,
      "uy": 1847,
      "ắm": 1848,
      "kiên": 1849,
      "ngọc": 1850,
      "tải": 1851,
      "60": 1852,
      "́y": 1853,
      "cấm": 1854,
      "bậ": 1855,
      "mộ": 1856,
      "bậc": 1857,
      "đáp": 1858,
      "vợ": 1859,
      "thịt": 1860,
      "eu": 1861,
      "nghề": 1862,
      "thoại": 1863,
      "sắt": 1864,
      "lưỡng": 1865,
      "hã": 1866,
      "dịp": 1867,
      "niềm": 1868,
      "vui": 1869,
      "thác": 1870,
      "hoá": 1871,
      "tuần": 1872,
      "cầm": 1873,
      "22": 1874,
      "bar": 1875,
      "cờ": 1876,
      "tần": 1877,
      "cánh": 1878,
      "thiệu": 1879,
      "phạt": 1880,
      "hiểm": 1881,
      "lẫn": 1882,
      "bãi": 1883,
      "ld": 1884,
      "ven": 1885,
      "lửa": 1886,
      "wor": 1887,
      "tránh": 1888,
      "nguy": 1889,
      "ts": 1890,
      "cuốn": 1891,
      "dạy": 1892,
      "mãn": 1893,
      "hát": 1894,
      "paris": 1895,
      "24": 1896,
      "miễn": 1897,
      "son": 1898,
      "băng": 1899,
      "chinh": 1900,
      "vid": 1901,
      "nuôi": 1902,
      "củng": 1903,
      "les": 1904,
      "gái": 1905,
      "não": 1906,
      "mắt": 1907,
      "ry": 1908,
      "siêu": 1909,
      "tận": 1910,
      "tệ": 1911,
      "27": 1912,
      "23": 1913,
      "tước": 1914,
      "tàn": 1915,
      "họp": 1916,
      "uni": 1917,
      "trừ": 1918,
      "sóng": 1919,
      "nạn": 1920,
      "lăng": 1921,
      "ron": 1922,
      "bấy": 1923,
      "chuyến": 1924,
      "căn": 1925,
      "đòi": 1926,
      "uống": 1927,
      "cảng": 1928,
      "inter": 1929,
      "iệc": 1930,
      "ngon": 1931,
      "ửa": 1932,
      "vĩ": 1933,
      "cục": 1934,
      "giáp": 1935,
      "men": 1936,
      "tai": 1937,
      "kẻ": 1938,
      "khóa": 1939,
      "mong": 1940,
      "thôn": 1941,
      "bí": 1942,
      "lính": 1943,
      "ngủ": 1944,
      "21": 1945,
      "thật": 1946,
      "thai": 1947,
      "đỗ": 1948,
      "tiệc": 1949,
      "hôn": 1950,
      "bra": 1951,
      "sia": 1952,
      "phán": 1953,
      "xo": 1954,
      "sửa": 1955,
      "chặt": 1956,
      "80": 1957,
      "khiển": 1958,
      "khá": 1959,
      "indo": 1960,
      "rid": 1961,
      "ire": 1962,
      "2010": 1963,
      "ộn": 1964,
      "xứ": 1965,
      "chùa": 1966,
      "thoát": 1967,
      "vừa": 1968,
      "đư": 1969,
      "máu": 1970,
      "bèn": 1971,
      "cháu": 1972,
      "per": 1973,
      "san": 1974,
      "thuốc": 1975,
      "nô": 1976,
      "cãi": 1977,
      "thua": 1978,
      "mươ": 1979,
      "̣y": 1980,
      "ợi": 1981,
      "mai": 1982,
      "bác": 1983,
      "bia": 1984,
      "ngắn": 1985,
      "quay": 1986,
      "huế": 1987,
      "cal": 1988,
      "giảng": 1989,
      "úc": 1990,
      "tùng": 1991,
      "khủng": 1992,
      "ard": 1993,
      "il": 1994,
      "rãi": 1995,
      "chắc": 1996,
      "dầu": 1997,
      "lượt": 1998,
      "cro": 1999,
      "lang": 2000,
      "ham": 2001,
      "thọ": 2002,
      "tươi": 2003,
      "lon": 2004,
      "pha": 2005,
      "gỗ": 2006,
      "vinh": 2007,
      "mệnh": 2008,
      "rai": 2009,
      "chặn": 2010,
      "28": 2011,
      "70": 2012,
      "26": 2013,
      "bề": 2014,
      "cương": 2015,
      "ói": 2016,
      "cướp": 2017,
      "thạch": 2018,
      "res": 2019,
      "ireland": 2020,
      "tách": 2021,
      "khẳng": 2022,
      "chấm": 2023,
      "chủng": 2024,
      "lam": 2025,
      "gió": 2026,
      "khán": 2027,
      "nhắc": 2028,
      "nhị": 2029,
      "giấy": 2030,
      "vẻ": 2031,
      "xưa": 2032,
      "mal": 2033,
      "xanh": 2034,
      "khoản": 2035,
      "29": 2036,
      "ruộng": 2037,
      "canh": 2038,
      "lạnh": 2039,
      "buôn": 2040,
      "nửa": 2041,
      "loạt": 2042,
      "đỏ": 2043,
      "mưu": 2044,
      "ẵn": 2045,
      "bày": 2046,
      "ana": 2047,
      "tỉ": 2048,
      "mad": 2049,
      "tán": 2050,
      "rươ": 2051,
      "dõi": 2052,
      "ed": 2053,
      "tĩnh": 2054,
      "lá": 2055,
      "bè": 2056,
      "com": 2057,
      "tor": 2058,
      "phan": 2059,
      "huống": 2060,
      "huấn": 2061,
      "hư": 2062,
      "sẵn": 2063,
      "dp": 2064,
      "del": 2065,
      "đẳng": 2066,
      "hỏa": 2067,
      "hào": 2068,
      "may": 2069,
      "sta": 2070,
      "90": 2071,
      "ox": 2072,
      "tường": 2073,
      "hứng": 2074,
      "gr": 2075,
      "wa": 2076,
      "chỗ": 2077,
      "trăm": 2078,
      "rau": 2079,
      "ft": 2080,
      "tuệ": 2081,
      "cắt": 2082,
      "gìn": 2083,
      "đuổi": 2084,
      "khôi": 2085,
      "tỏ": 2086,
      "],": 2087,
      "thù": 2088,
      "ku": 2089,
      "ze": 2090,
      "kịch": 2091,
      "trăng": 2092,
      "cống": 2093,
      "xiêm": 2094,
      "lưới": 2095,
      "rus": 2096,
      "rời": 2097,
      "vân": 2098,
      "lẽ": 2099,
      "bạo": 2100,
      "khúc": 2101,
      "sung": 2102,
      "mon": 2103,
      "sco": 2104,
      "rượu": 2105,
      "fran": 2106,
      "đệ": 2107,
      "soạn": 2108,
      "đai": 2109,
      "quen": 2110,
      "kèm": 2111,
      "ger": 2112,
      "os": 2113,
      "lũ": 2114,
      "193": 2115,
      "kém": 2116,
      "hiếu": 2117,
      "lối": 2118,
      "đen": 2119,
      "bách": 2120,
      "thước": 2121,
      "sóc": 2122,
      "nhĩ": 2123,
      "nhấn": 2124,
      "ệt": 2125,
      "gue": 2126,
      "viễn": 2127,
      "kênh": 2128,
      "ander": 2129,
      "2006": 2130,
      "ngờ": 2131,
      "gư": 2132,
      "2011": 2133,
      "gửi": 2134,
      "quê": 2135,
      "đỉnh": 2136,
      "nghìn": 2137,
      "ngừng": 2138,
      "khổng": 2139,
      "hoảng": 2140,
      "trắng": 2141,
      "thiệp": 2142,
      "nghỉ": 2143,
      "2013": 2144,
      "nhánh": 2145,
      "lea": 2146,
      "istan": 2147,
      "dâng": 2148,
      "sợ": 2149,
      "lec": 2150,
      "world": 2151,
      "thiệt": 2152,
      "giàu": 2153,
      "trích": 2154,
      "hài": 2155,
      "gạo": 2156,
      "tàng": 2157,
      "dẹp": 2158,
      "et": 2159,
      "logi": 2160,
      "nóng": 2161,
      "thẩm": 2162,
      "hè": 2163,
      "khư": 2164,
      "2016": 2165,
      "bê": 2166,
      "gắng": 2167,
      "sen": 2168,
      "ser": 2169,
      "ầy": 2170,
      "đới": 2171,
      "cứng": 2172,
      "nhe": 2173,
      "thoa": 2174,
      "phường": 2175,
      "chẽ": 2176,
      "chảy": 2177,
      "2008": 2178,
      ".\"": 2179,
      "lộc": 2180,
      "ms": 2181,
      "ngại": 2182,
      "cup": 2183,
      "khô": 2184,
      "mach": 2185,
      "nổ": 2186,
      "đêm": 2187,
      "2007": 2188,
      "sáu": 2189,
      "usd": 2190,
      "đàm": 2191,
      "lành": 2192,
      "nghèo": 2193,
      "og": 2194,
      "kar": 2195,
      "vong": 2196,
      "euro": 2197,
      "internet": 2198,
      "điền": 2199,
      "thậm": 2200,
      "hủy": 2201,
      "đàng": 2202,
      "nẵng": 2203,
      "tein": 2204,
      "bon": 2205,
      "tiễn": 2206,
      "uk": 2207,
      "ớt": 2208,
      "tuân": 2209,
      "sắp": 2210,
      "ót": 2211,
      "khe": 2212,
      "mỏ": 2213,
      "kì": 2214,
      "rập": 2215,
      "vây": 2216,
      "]).": 2217,
      "lui": 2218,
      "sụp": 2219,
      "1945": 2220,
      "hiếm": 2221,
      "za": 2222,
      "2012": 2223,
      "hãn": 2224,
      "ngoặt": 2225,
      "gam": 2226,
      "que": 2227,
      "lúa": 2228,
      "real": 2229,
      "188": 2230,
      "trú": 2231,
      "súng": 2232,
      "178": 2233,
      "tờ": 2234,
      "den": 2235,
      "giê": 2236,
      "miếu": 2237,
      "lỗi": 2238,
      "cà": 2239,
      "ano": 2240,
      "ju": 2241,
      "madrid": 2242,
      "chợ": 2243,
      "đốt": 2244,
      "ronal": 2245,
      "scot": 2246,
      "thỏa": 2247,
      "2000": 2248,
      "kông": 2249,
      "ấc": 2250,
      "tiềm": 2251,
      "mát": 2252,
      "xico": 2253,
      "nấu": 2254,
      "ngự": 2255,
      "2014": 2256,
      "cửu": 2257,
      "bel": 2258,
      "mê": 2259,
      "iếp": 2260,
      "van": 2261,
      "2015": 2262,
      "tic": 2263,
      "tết": 2264,
      "pan": 2265,
      "dãy": 2266,
      "hoang": 2267,
      "luân": 2268,
      "min": 2269,
      "thí": 2270,
      "thăm": 2271,
      "2009": 2272,
      "mes": 2273,
      "dây": 2274,
      "mậu": 2275,
      "giấc": 2276,
      "tổn": 2277,
      "yor": 2278,
      "phe": 2279,
      "2018": 2280,
      "áy": 2281,
      "hiển": 2282,
      "2017": 2283,
      "thuẫn": 2284,
      "league": 2285,
      "bát": 2286,
      "duyệt": 2287,
      "tạm": 2288,
      "35": 2289,
      "hn": 2290,
      "tụ": 2291,
      "xạ": 2292,
      "chồng": 2293,
      "vỏ": 2294,
      "gdp": 2295,
      "kia": 2296,
      "180": 2297,
      "ogle": 2298,
      "york": 2299,
      "2019": 2300,
      "cú": 2301,
      "dọc": 2302,
      "google": 2303,
      "nhẹ": 2304,
      "sáp": 2305,
      "màn": 2306,
      "ronaldo": 2307,
      "der": 2308,
      "nesia": 2309,
      "oxy": 2310,
      "lis": 2311,
      "dừng": 2312,
      "micro": 2313,
      "2020": 2314,
      "trốn": 2315,
      "celo": 2316,
      "500": 2317,
      "quỹ": 2318,
      "ngưỡng": 2319,
      "hơi": 2320,
      "dal": 2321,
      "kiệm": 2322,
      "cham": 2323,
      "mười": 2324,
      "tắt": 2325,
      "phiếu": 2326,
      "31": 2327,
      "rơi": 2328,
      "ôm": 2329,
      "tre": 2330,
      "đồn": 2331,
      "bắn": 2332,
      "tật": 2333,
      "dứt": 2334,
      "190": 2335,
      "vượng": 2336,
      "trà": 2337,
      "fer": 2338,
      "đúc": 2339,
      "thải": 2340,
      "video": 2341,
      "ada": 2342,
      "duệ": 2343,
      "bal": 2344,
      "tháp": 2345,
      "khứ": 2346,
      "trống": 2347,
      "hoà": 2348,
      "ya": 2349,
      "ok": 2350,
      "đỡ": 2351,
      "cốt": 2352,
      "khải": 2353,
      "op": 2354,
      "2005": 2355,
      "lân": 2356,
      "chạm": 2357,
      "cựu": 2358,
      "75": 2359,
      "lầm": 2360,
      "ngầm": 2361,
      "tha": 2362,
      "ler": 2363,
      "nộ": 2364,
      "des": 2365,
      "tù": 2366,
      "45": 2367,
      "sánh": 2368,
      "khía": 2369,
      "scotland": 2370,
      "gar": 2371,
      "tes": 2372,
      "nét": 2373,
      "mộc": 2374,
      "rối": 2375,
      ",...": 2376,
      "nhơn": 2377,
      "lắng": 2378,
      "thục": 2379,
      "giãn": 2380,
      "ngụy": 2381,
      "bỉ": 2382,
      "đậu": 2383,
      "than": 2384,
      "dị": 2385,
      "lô": 2386,
      "mực": 2387,
      "tròn": 2388,
      "mâu": 2389,
      "tám": 2390,
      "thal": 2391,
      "chim": 2392,
      "cúng": 2393,
      "đói": 2394,
      "ina": 2395,
      "chấn": 2396,
      "ol": 2397,
      "1990": 2398,
      "ngang": 2399,
      "tron": 2400,
      "ama": 2401,
      "dọa": 2402,
      "dũng": 2403,
      "mái": 2404,
      "kyo": 2405,
      "nguyện": 2406,
      "pal": 2407,
      "ten": 2408,
      "36": 2409,
      "lạm": 2410,
      "campu": 2411,
      "ukrai": 2412,
      "id": 2413,
      "bò": 2414,
      "barcelo": 2415,
      "campuchia": 2416,
      "barcelona": 2417,
      "đón": 2418,
      "logic": 2419,
      "khoáng": 2420,
      "mét": 2421,
      "ria": 2422,
      "chặng": 2423,
      "je": 2424,
      "wal": 2425,
      "ngàn": 2426,
      "tina": 2427,
      "góc": 2428,
      "top": 2429,
      "đựng": 2430,
      "):": 2431,
      "giặc": 2432,
      "soft": 2433,
      "bọn": 2434,
      "phút": 2435,
      "neander": 2436,
      "ue": 2437,
      "thói": 2438,
      "shi": 2439,
      "virus": 2440,
      "bảy": 2441,
      "don": 2442,
      "ex": 2443,
      "ws": 2444,
      "har": 2445,
      "ris": 2446,
      "hung": 2447,
      "voi": 2448,
      "ad": 2449,
      "cen": 2450,
      "98": 2451,
      "khâm": 2452,
      "chứ": 2453,
      "fe": 2454,
      "hạnh": 2455,
      "95": 2456,
      "chối": 2457,
      "mas": 2458,
      "neanderthal": 2459,
      "cl": 2460,
      "đan": 2461,
      "hòn": 2462,
      "john": 2463,
      "por": 2464,
      "las": 2465,
      "bội": 2466,
      "gas": 2467,
      "bom": 2468,
      "bot": 2469,
      "kiệt": 2470,
      "ốm": 2471,
      "38": 2472,
      "hãng": 2473,
      "ren": 2474,
      "trục": 2475,
      "argen": 2476,
      "bó": 2477,
      "bột": 2478,
      "đậm": 2479,
      "elec": 2480,
      "khiêm": 2481,
      "vịnh": 2482,
      "ht": 2483,
      "túc": 2484,
      "đau": 2485,
      "tim": 2486,
      "1970": 2487,
      "37": 2488,
      "chậm": 2489,
      "trại": 2490,
      "indonesia": 2491,
      "lli": 2492,
      "%.": 2493,
      "dày": 2494,
      "lũy": 2495,
      "hâm": 2496,
      "protein": 2497,
      "kịp": 2498,
      "bur": 2499,
      "huyết": 2500,
      "len": 2501,
      "tráng": 2502,
      "latinh": 2503,
      "dan": 2504,
      "ct": 2505,
      "hổ": 2506,
      "đặng": 2507,
      "ted": 2508,
      "48": 2509,
      "gấp": 2510,
      "vườn": 2511,
      "1980": 2512,
      "33": 2513,
      "77": 2514,
      "pt": 2515,
      "sk": 2516,
      "ung": 2517,
      "quát": 2518,
      "argentina": 2519,
      "điệp": 2520,
      "ji": 2521,
      "lỗ": 2522,
      "huyền": 2523,
      "tal": 2524,
      "trật": 2525,
      "khẩn": 2526,
      "khéo": 2527,
      "khuẩn": 2528,
      "cy": 2529,
      "cản": 2530,
      "fo": 2531,
      "65": 2532,
      "cặp": 2533,
      "kiều": 2534,
      "lão": 2535,
      "44": 2536,
      "nhôm": 2537,
      "aland": 2538,
      "mãi": 2539,
      "ot": 2540,
      "aul": 2541,
      "nộp": 2542,
      "lọc": 2543,
      "microsoft": 2544,
      "điệu": 2545,
      "iệng": 2546,
      "nadal": 2547,
      "hang": 2548,
      "xá": 2549,
      "ĩa": 2550,
      "kêu": 2551,
      "nhuận": 2552,
      "cột": 2553,
      "2004": 2554,
      "cự": 2555,
      "haw": 2556,
      "canada": 2557,
      "97": 2558,
      "miêu": 2559,
      "trứng": 2560,
      "đôn": 2561,
      "khung": 2562,
      "tựu": 2563,
      "tạng": 2564,
      "miệng": 2565,
      "vỡ": 2566,
      "ukraina": 2567,
      "khmer": 2568,
      "ans": 2569,
      "pháo": 2570,
      "muối": 2571,
      "mexico": 2572,
      "eri": 2573,
      "you": 2574,
      "zealand": 2575,
      "py": 2576,
      "ể": 2577,
      "phế": 2578,
      "fifa": 2579,
      "32": 2580,
      "99": 2581,
      "lẻ": 2582,
      "côn": 2583,
      "tặng": 2584,
      "thảm": 2585,
      "king": 2586,
      "bul": 2587,
      "dời": 2588,
      "gỡ": 2589,
      "lái": 2590,
      "um": 2591,
      "thận": 2592,
      "đợi": 2593,
      "hôm": 2594,
      "ngựa": 2595,
      "đĩa": 2596,
      "̃a": 2597,
      "sót": 2598,
      "java": 2599,
      "gà": 2600,
      "34": 2601,
      "mơ": 2602,
      "68": 2603,
      "ngọt": 2604,
      "sil": 2605,
      "geo": 2606,
      "cháy": 2607,
      "ac": 2608,
      "dao": 2609,
      "hỗn": 2610,
      "càn": 2611,
      "lào": 2612,
      "schu": 2613,
      "giọng": 2614,
      "hồn": 2615,
      "bão": 2616,
      "carbon": 2617,
      "mì": 2618,
      "non": 2619,
      "ari": 2620,
      "kitô": 2621,
      "92": 2622,
      "lé": 2623,
      "léo": 2624,
      "hãy": 2625,
      "electron": 2626,
      "láng": 2627,
      "nề": 2628,
      "cúp": 2629,
      "khang": 2630,
      "chuỗi": 2631,
      "thoái": 2632,
      "chín": 2633,
      "bớt": 2634,
      "dna": 2635,
      "điêu": 2636,
      "chuộng": 2637,
      "1960": 2638,
      "̉m": 2639,
      "toyo": 2640,
      "pore": 2641,
      "lật": 2642,
      "ens": 2643,
      "ons": 2644,
      "trừng": 2645,
      "đồi": 2646,
      "màng": 2647,
      "42": 2648,
      "tấm": 2649,
      "robot": 2650,
      "rủi": 2651,
      ");": 2652,
      "singa": 2653,
      "singapore": 2654,
      "sôi": 2655,
      "chờ": 2656,
      "giềng": 2657,
      "xích": 2658,
      "gián": 2659,
      "ary": 2660,
      "gy": 2661,
      "tá": 2662,
      "baby": 2663,
      "ranh": 2664,
      "tube": 2665,
      "pin": 2666,
      "phili": 2667,
      "trầm": 2668,
      "47": 2669,
      "lường": 2670,
      "khuyết": 2671,
      "tokyo": 2672,
      "messi": 2673,
      "lạng": 2674,
      "bùi": 2675,
      "diệu": 2676,
      "hoài": 2677,
      "dio": 2678,
      "isra": 2679,
      "ste": 2680,
      "thôi": 2681,
      "char": 2682,
      "tine": 2683,
      "youtube": 2684,
      "liêu": 2685,
      "windo": 2686,
      "ux": 2687,
      "syria": 2688,
      "babylon": 2689,
      "67": 2690,
      "leo": 2691,
      "mời": 2692,
      "đoạt": 2693,
      "pas": 2694,
      "sài": 2695,
      "xvi": 2696,
      "300": 2697,
      "chắn": 2698,
      "bùng": 2699,
      "israel": 2700,
      "nhượng": 2701,
      "khoảnh": 2702,
      "ira": 2703,
      "fli": 2704,
      "ss": 2705,
      "lệch": 2706,
      "mao": 2707,
      "nhũng": 2708,
      "gốm": 2709,
      "cor": 2710,
      "macher": 2711,
      "windows": 2712,
      "mắc": 2713,
      "xấu": 2714,
      "cỏ": 2715,
      "schumacher": 2716,
      "bính": 2717,
      "giam": 2718,
      "ford": 2719,
      "mấy": 2720,
      "var": 2721,
      "phụng": 2722,
      "ima": 2723,
      "58": 2724,
      "way": 2725,
      "bert": 2726,
      "cậy": 2727,
      "sàng": 2728,
      "giày": 2729,
      "sùng": 2730,
      "ring": 2731,
      "gũi": 2732,
      "champi": 2733,
      "az": 2734,
      "bỉnh": 2735,
      "pres": 2736,
      "ines": 2737,
      "vẽ": 2738,
      "vời": 2739,
      "săn": 2740,
      "cán": 2741,
      "trinh": 2742,
      "dia": 2743,
      "thơm": 2744,
      "diên": 2745,
      "lle": 2746,
      "sam": 2747,
      "chữa": 2748,
      "2021": 2749,
      "uefa": 2750,
      "vuông": 2751,
      "toyota": 2752,
      "ặm": 2753,
      "phỏng": 2754,
      "lap": 2755,
      "đám": 2756,
      "gan": 2757,
      "kan": 2758,
      "phấn": 2759,
      "aya": 2760,
      "isto": 2761,
      "mẻ": 2762,
      "140": 2763,
      "berg": 2764,
      "linux": 2765,
      "cia": 2766,
      "lãng": 2767,
      "ib": 2768,
      "tỏa": 2769,
      "af": 2770,
      "ben": 2771,
      "sạch": 2772,
      "lỏng": 2773,
      "bé": 2774,
      "xóa": 2775,
      "trông": 2776,
      "flix": 2777,
      "71": 2778,
      "cri": 2779,
      "lữ": 2780,
      "ruột": 2781,
      "rã": 2782,
      "ngập": 2783,
      "khuôn": 2784,
      "lou": 2785,
      "đoan": 2786,
      "ester": 2787,
      "nạp": 2788,
      "tang": 2789,
      "tter": 2790,
      "thầy": 2791,
      "trạm": 2792,
      "cơn": 2793,
      "her": 2794,
      "chốt": 2795,
      "55": 2796,
      "̀nh": 2797,
      "1950": 2798,
      "ném": 2799,
      "netflix": 2800,
      "ner": 2801,
      "pr": 2802,
      "tt": 2803,
      "93": 2804,
      "lợn": 2805,
      "2003": 2806,
      "dra": 2807,
      "fre": 2808,
      "hối": 2809,
      "quế": 2810,
      "cơm": 2811,
      "hiền": 2812,
      "kỉ": 2813,
      "gre": 2814,
      "stan": 2815,
      "tamin": 2816,
      "78": 2817,
      "lụt": 2818,
      "gene": 2819,
      "nôm": 2820,
      "bai": 2821,
      "ls": 2822,
      "ram": 2823,
      "champions": 2824,
      "ei": 2825,
      "hạm": 2826,
      "răng": 2827,
      "thoải": 2828,
      "sâm": 2829,
      "tào": 2830,
      "già": 2831,
      "nghiệt": 2832,
      "berlin": 2833,
      "2022": 2834,
      "hảo": 2835,
      "lặp": 2836,
      "pri": 2837,
      "úy": 2838,
      "offi": 2839,
      "nhảy": 2840,
      "hă": 2841,
      "đẻ": 2842,
      "geor": 2843,
      "vitamin": 2844,
      "2001": 2845,
      "46": 2846,
      "nỗi": 2847,
      "val": 2848,
      "trộn": 2849,
      "jan": 2850,
      "khoan": 2851,
      "móc": 2852,
      "dar": 2853,
      "dặm": 2854,
      "gra": 2855,
      "1997": 2856,
      "41": 2857,
      "lũng": 2858,
      "hụt": 2859,
      "ngồi": 2860,
      "2024": 2861,
      "vải": 2862,
      "150": 2863,
      "laptop": 2864,
      "chiết": 2865,
      "brasil": 2866,
      "nợ": 2867,
      "vết": 2868,
      "xưởng": 2869,
      "nhường": 2870,
      "book": 2871,
      "vang": 2872,
      "củ": 2873,
      "sỹ": 2874,
      "cốc": 2875,
      "nê": 2876,
      "tz": 2877,
      "đâu": 2878,
      "iii": 2879,
      "rich": 2880,
      "dạ": 2881,
      "trãi": 2882,
      "pic": 2883,
      "tia": 2884,
      "hoạn": 2885,
      "cẩn": 2886,
      "tuấn": 2887,
      "mắm": 2888,
      "ut": 2889,
      "hộp": 2890,
      "kiêm": 2891,
      "đắp": 2892,
      "phùng": 2893,
      "bến": 2894,
      "43": 2895,
      "xx": 2896,
      "thuê": 2897,
      "1975": 2898,
      "ab": 2899,
      "cáp": 2900,
      "ros": 2901,
      "gói": 2902,
      "office": 2903,
      "thang": 2904,
      "thiền": 2905,
      "khát": 2906,
      "rom": 2907,
      "tional": 2908,
      "dám": 2909,
      "tus": 2910,
      "lym": 2911,
      "giỏi": 2912,
      "%,": 2913,
      "cpu": 2914,
      "lông": 2915,
      "thâm": 2916,
      "tel": 2917,
      "guine": 2918,
      "hamil": 2919,
      "62": 2920,
      "72": 2921,
      "chăn": 2922,
      "lõi": 2923,
      "39": 2924,
      "dệt": 2925,
      "choms": 2926,
      "hẳn": 2927,
      "hamilton": 2928,
      "chomsky": 2929,
      "fu": 2930,
      "sun": 2931,
      "khốc": 2932,
      "76": 2933,
      "dro": 2934,
      "thám": 2935,
      "philipp": 2936,
      "dâm": 2937,
      "chuột": 2938,
      "dược": 2939,
      "hứa": 2940,
      "400": 2941,
      "ìa": 2942,
      "nobel": 2943,
      "nia": 2944,
      "táng": 2945,
      "chánh": 2946,
      "bồi": 2947,
      "ic": 2948,
      "hoằng": 2949,
      "vic": 2950,
      "\")": 2951,
      "tị": 2952,
      "toản": 2953,
      "hằng": 2954,
      "thợ": 2955,
      "ẫm": 2956,
      "grand": 2957,
      "iso": 2958,
      "rô": 2959,
      "trân": 2960,
      "];": 2961,
      "cất": 2962,
      "war": 2963,
      "thung": 2964,
      "ble": 2965,
      "ec": 2966,
      "chở": 2967,
      "khuyên": 2968,
      "hẹp": 2969,
      "philippines": 2970,
      "66": 2971,
      "dường": 2972,
      "mốc": 2973,
      "vin": 2974,
      "dy": 2975,
      "nhạy": 2976,
      "gòn": 2977,
      "nan": 2978,
      "nor": 2979,
      "rồng": 2980,
      "mượn": 2981,
      "wo": 2982,
      "vay": 2983,
      "1999": 2984,
      "73": 2985,
      "pl": 2986,
      "kạn": 2987,
      "liêm": 2988,
      "sữa": 2989,
      "mây": 2990,
      "chester": 2991,
      "làn": 2992,
      "mảnh": 2993,
      "nướng": 2994,
      "(\"": 2995,
      "49": 2996,
      "85": 2997,
      "ngặt": 2998,
      "quách": 2999,
      "2002": 3000,
      "bri": 3001,
      "ps": 3002,
      "tạ": 3003,
      "giáng": 3004,
      "back": 3005,
      "ghép": 3006,
      "univer": 3007,
      "trạch": 3008,
      "chua": 3009,
      "tốn": 3010,
      "ting": 3011,
      "hề": 3012,
      "sal": 3013,
      "press": 3014,
      "ken": 3015,
      "pla": 3016,
      "đắc": 3017,
      "cổng": 3018,
      "xong": 3019,
      "guinea": 3020,
      "88": 3021,
      "móng": 3022,
      "pen": 3023,
      "los": 3024,
      "sút": 3025,
      "xide": 3026,
      "hor": 3027,
      "ff": 3028,
      "gạch": 3029,
      "đằng": 3030,
      "ênh": 3031,
      "ngọn": 3032,
      "ley": 3033,
      "é": 3034,
      "lây": 3035,
      "đãi": 3036,
      "ngừa": 3037,
      "han": 3038,
      "mảng": 3039,
      "1992": 3040,
      "nhẫn": 3041,
      "lò": 3042,
      "rèn": 3043,
      "tuyết": 3044,
      "kistan": 3045,
      "​​": 3046,
      "1998": 3047,
      "malay": 3048,
      "bc": 3049,
      "zan": 3050,
      "thon": 3051,
      "quên": 3052,
      "hen": 3053,
      "ks": 3054,
      "ins": 3055,
      "nặc": 3056,
      "đạn": 3057,
      "ngạn": 3058,
      "nhịp": 3059,
      "kha": 3060,
      "hoan": 3061,
      "nắng": 3062,
      "%),": 3063,
      "zo": 3064,
      "phước": 3065,
      "rou": 3066,
      "manchester": 3067,
      "51": 3068,
      "600": 3069,
      "gal": 3070,
      "lạ": 3071,
      "ml": 3072,
      "rệt": 3073,
      "trans": 3074,
      "74": 3075,
      "rắn": 3076,
      "charles": 3077,
      "ther": 3078,
      "bor": 3079,
      "mor": 3080,
      "cụm": 3081,
      "sợi": 3082,
      "59": 3083,
      "khấu": 3084,
      "lụy": 3085,
      "esco": 3086,
      "willi": 3087,
      "machine": 3088,
      "tv": 3089,
      "mừng": 3090,
      "franc": 3091,
      "dam": 3092,
      "tề": 3093,
      "xỉ": 3094,
      "khôn": 3095,
      "tâu": 3096,
      "ino": 3097,
      "gọn": 3098,
      "tions": 3099,
      "ppen": 3100,
      "69": 3101,
      "chục": 3102,
      "ral": 3103,
      "rea": 3104,
      "thép": 3105,
      "sưu": 3106,
      "william": 3107,
      "61": 3108,
      "cm": 3109,
      "lồ": 3110,
      "ớp": 3111,
      "giận": 3112,
      "tur": 3113,
      "neu": 3114,
      "site": 3115,
      "91": 3116,
      "cs": 3117,
      "mạo": 3118,
      "xứng": 3119,
      "united": 3120,
      "spe": 3121,
      "thẻ": 3122,
      "air": 3123,
      "mé": 3124,
      "lấn": 3125,
      "đam": 3126,
      "khê": 3127,
      "mũi": 3128,
      "nguyệt": 3129,
      "xít": 3130,
      "hon": 3131,
      "unesco": 3132,
      "cưới": 3133,
      "54": 3134,
      "bành": 3135,
      "sto": 3136,
      "zi": 3137,
      "đợ": 3138,
      "ngợi": 3139,
      "iễu": 3140,
      "das": 3141,
      "lãm": 3142,
      "đứa": 3143,
      "đợt": 3144,
      "cối": 3145,
      "ghe": 3146,
      "1930": 3147,
      "pascal": 3148,
      "53": 3149,
      "ster": 3150,
      "zu": 3151,
      "thả": 3152,
      "múa": 3153,
      "64": 3154,
      "nt": 3155,
      "tung": 3156,
      "gram": 3157,
      "iraq": 3158,
      "brid": 3159,
      "vở": 3160,
      "đĩnh": 3161,
      "2023": 3162,
      "dực": 3163,
      "ngẫu": 3164,
      "louis": 3165,
      "sổ": 3166,
      "đấy": 3167,
      "malaysia": 3168,
      "br": 3169,
      "od": 3170,
      "hoành": 3171,
      "dò": 3172,
      "napo": 3173,
      "1991": 3174,
      "oc": 3175,
      "tar": 3176,
      "iv": 3177,
      "phẳng": 3178,
      "khơi": 3179,
      "loa": 3180,
      "stem": 3181,
      "zil": 3182,
      "aus": 3183,
      "assyria": 3184,
      "cậu": 3185,
      "vành": 3186,
      "dor": 3187,
      "dừa": 3188,
      "liga": 3189,
      "52": 3190,
      "nd": 3191,
      "then": 3192,
      "hẹn": 3193,
      "arsen": 3194,
      "hốt": 3195,
      "mac": 3196,
      "vợt": 3197,
      "karta": 3198,
      "lắp": 3199,
      "giây": 3200,
      "sity": 3201,
      "1996": 3202,
      "xix": 3203,
      "burg": 3204,
      "bro": 3205,
      "nhậm": 3206,
      "2025": 3207,
      "dáng": 3208,
      "ez": 3209,
      "lf": 3210,
      "bọc": 3211,
      "adi": 3212,
      "ethi": 3213,
      "lla": 3214,
      "lôi": 3215,
      "nấm": 3216,
      "nano": 3217,
      "rào": 3218,
      "triệt": 3219,
      "cỡ": 3220,
      "muộn": 3221,
      "rẽ": 3222,
      "94": 3223,
      "mân": 3224,
      "tụng": 3225,
      "đèn": 3226,
      "vựng": 3227,
      "bồn": 3228,
      "paul": 3229,
      "phiến": 3230,
      "homo": 3231,
      "emi": 3232,
      "otto": 3233,
      "arsenal": 3234,
      "800": 3235,
      "trướng": 3236,
      "quật": 3237,
      "vẹn": 3238,
      "nêu": 3239,
      "win": 3240,
      "turing": 3241,
      "hei": 3242,
      "1000": 3243,
      "ak": 3244,
      "duyên": 3245,
      "nhãn": 3246,
      "chẩn": 3247,
      "phẫu": 3248,
      "liby": 3249,
      "mòn": 3250,
      "frank": 3251,
      "games": 3252,
      "app": 3253,
      "jam": 3254,
      "tể": 3255,
      "tive": 3256,
      "hin": 3257,
      "jer": 3258,
      "mỡ": 3259,
      "ngột": 3260,
      "chôn": 3261,
      "logy": 3262,
      "mada": 3263,
      "libya": 3264,
      "hạo": 3265,
      "tơ": 3266,
      "ón": 3267,
      "ini": 3268,
      "1949": 3269,
      "1954": 3270,
      "ds": 3271,
      "ong": 3272,
      "trội": 3273,
      "tràn": 3274,
      "ray": 3275,
      "national": 3276,
      "ag": 3277,
      "bái": 3278,
      "rạp": 3279,
      "thiếp": 3280,
      "dắt": 3281,
      "olym": 3282,
      "xảo": 3283,
      "ướt": 3284,
      "opia": 3285,
      "george": 3286,
      "dĩ": 3287,
      "lạt": 3288,
      "nhươ": 3289,
      "quyện": 3290,
      "hit": 3291,
      "57": 3292,
      "bs": 3293,
      "gợi": 3294,
      "mm": 3295,
      "sha": 3296,
      "̉u": 3297,
      "dai": 3298,
      "cẩm": 3299,
      "red": 3300,
      "cồ": 3301,
      "jose": 3302,
      "ethiopia": 3303,
      "miên": 3304,
      "zon": 3305,
      "varman": 3306,
      "báu": 3307,
      "ngà": 3308,
      "bah": 3309,
      "béo": 3310,
      "chém": 3311,
      "bóc": 3312,
      "xướng": 3313,
      "tọa": 3314,
      "súc": 3315,
      "bù": 3316,
      "1995": 3317,
      "python": 3318,
      "wayback": 3319,
      "university": 3320,
      "96": 3321,
      "nis": 3322,
      "đắn": 3323,
      "ộm": 3324,
      "gascar": 3325,
      "madagascar": 3326,
      "79": 3327,
      "yu": 3328,
      "jakarta": 3329,
      "ase": 3330,
      "chúc": 3331,
      "khoát": 3332,
      "quỳnh": 3333,
      "est": 3334,
      "nếp": 3335,
      "nes": 3336,
      "city": 3337,
      "\"),": 3338,
      "cke": 3339,
      "pc": 3340,
      "đập": 3341,
      "thô": 3342,
      "hungary": 3343,
      "',": 3344,
      "56": 3345,
      "túy": 3346,
      "quyến": 3347,
      "cảo": 3348,
      "cas": 3349,
      "hydro": 3350,
      "versta": 3351,
      "brazil": 3352,
      "verstappen": 3353,
      "120": 3354,
      "hmông": 3355,
      "ker": 3356,
      "ghế": 3357,
      "system": 3358,
      "eng": 3359,
      "nhiêu": 3360,
      "chó": 3361,
      "khen": 3362,
      "ngơi": 3363,
      "hỏng": 3364,
      "ía": 3365,
      "khoán": 3366,
      "bàng": 3367,
      "dấy": 3368,
      "covid": 3369,
      "mùi": 3370,
      "86": 3371,
      "rác": 3372,
      "nhầm": 3373,
      "ent": 3374,
      "david": 3375,
      "chè": 3376,
      "gp": 3377,
      "manh": 3378,
      "mộng": 3379,
      "khuất": 3380,
      "suối": 3381,
      "nhiếp": 3382,
      "trừu": 3383,
      "iran": 3384,
      "rỡ": 3385,
      "lụa": 3386,
      "poli": 3387,
      "bit": 3388,
      "istanbul": 3389,
      "bốc": 3390,
      "bây": 3391,
      "bồng": 3392,
      "cali": 3393,
      "wer": 3394,
      "niger": 3395,
      "\").": 3396,
      "khớp": 3397,
      "hawai": 3398,
      "mường": 3399,
      "mau": 3400,
      "tràng": 3401,
      "trâu": 3402,
      "gil": 3403,
      "toà": 3404,
      "sọ": 3405,
      "gor": 3406,
      "jaya": 3407,
      "mầm": 3408,
      "mặn": 3409,
      "sch": 3410,
      "đạp": 3411,
      "tú": 3412,
      "bún": 3413,
      "chèo": 3414,
      "website": 3415,
      "ottoman": 3416,
      "histo": 3417,
      "nồng": 3418,
      "út": 3419,
      "tháo": 3420,
      "bas": 3421,
      ".,": 3422,
      "ces": 3423,
      "oa": 3424,
      "sci": 3425,
      "sắm": 3426,
      "nhì": 3427,
      "phượng": 3428,
      "ếch": 3429,
      "ngoan": 3430,
      "bour": 3431,
      "ibm": 3432,
      "gánh": 3433,
      "hưu": 3434,
      "mạn": 3435,
      "vú": 3436,
      "ence": 3437,
      "nở": 3438,
      "táo": 3439,
      "hawking": 3440,
      "87": 3441,
      "bông": 3442,
      "df": 3443,
      "diệm": 3444,
      "mươi": 3445,
      "one": 3446,
      "130": 3447,
      "cel": 3448,
      "nhược": 3449,
      "63": 3450,
      "qui": 3451,
      "truất": 3452,
      "nhiễu": 3453,
      "delhi": 3454,
      "maya": 3455,
      "hầm": 3456,
      "liễu": 3457,
      "tóc": 3458,
      "hoãn": 3459,
      "chút": 3460,
      "mid": 3461,
      "quà": 3462,
      "ding": 3463,
      "hố": 3464,
      "ngộ": 3465,
      "phy": 3466,
      "und": 3467,
      "cid": 3468,
      "fri": 3469,
      "treo": 3470,
      "1946": 3471,
      "cle": 3472,
      "rước": 3473,
      "wel": 3474,
      "mone": 3475,
      "poly": 3476,
      "open": 3477,
      "adidas": 3478,
      "nai": 3479,
      "ward": 3480,
      "all": 3481,
      "buồn": 3482,
      "mann": 3483,
      "f1": 3484,
      "it": 3485,
      "ing": 3486,
      "lar": 3487,
      "sim": 3488,
      "wan": 3489,
      "chênh": 3490,
      "cõi": 3491,
      "1920": 3492,
      "pakistan": 3493,
      "califor": 3494,
      "ori": 3495,
      "rực": 3496,
      "ale": 3497,
      "gai": 3498,
      "chừng": 3499,
      "sét": 3500,
      "dật": 3501,
      "pre": 3502,
      "twi": 3503,
      "̃y": 3504,
      "ngã": 3505,
      "ngạc": 3506,
      "chuyền": 3507,
      "đầm": 3508,
      "ture": 3509,
      "cớ": 3510,
      "sic": 3511,
      "1940": 3512,
      "game": 3513,
      "asean": 3514,
      "california": 3515,
      "tạc": 3516,
      "alex": 3517,
      "1802": 3518,
      "méxico": 3519,
      "dải": 3520,
      "sốt": 3521,
      "ẫy": 3522,
      "mũ": 3523,
      "khuê": 3524,
      "set": 3525,
      "ling": 3526,
      "ghan": 3527,
      "sey": 3528,
      "1976": 3529,
      "tsu": 3530,
      "chay": 3531,
      "iếng": 3532,
      "thùy": 3533,
      "andre": 3534,
      "nic": 3535,
      "ment": 3536,
      "jean": 3537,
      "hái": 3538,
      "hạch": 3539,
      "sàn": 3540,
      "khoai": 3541,
      "html": 3542,
      "léon": 3543,
      "%)": 3544,
      "line": 3545,
      "nảy": 3546,
      "viêm": 3547,
      "bút": 3548,
      "nhắn": 3549,
      "1989": 3550,
      "cd": 3551,
      "lau": 3552,
      "rna": 3553,
      "ua": 3554,
      "thỉnh": 3555,
      "trươ": 3556,
      "chụp": 3557,
      "play": 3558,
      "'.": 3559,
      "llo": 3560,
      "ple": 3561,
      "trù": 3562,
      "tôm": 3563,
      "dưa": 3564,
      "tựa": 3565,
      "mani": 3566,
      "twitter": 3567,
      "mali": 3568,
      "nhan": 3569,
      "trôi": 3570,
      "sumer": 3571,
      "bos": 3572,
      "buy": 3573,
      "bụi": 3574,
      "160": 3575,
      "ction": 3576,
      "gương": 3577,
      "rem": 3578,
      "trắc": 3579,
      "1994": 3580,
      "cạn": 3581,
      "cua": 3582,
      "doi": 3583,
      "die": 3584,
      "von": 3585,
      "1986": 3586,
      "cript": 3587,
      "trượt": 3588,
      "blo": 3589,
      "gon": 3590,
      "nal": 3591,
      "ul": 3592,
      "xen": 3593,
      "chầu": 3594,
      "bus": 3595,
      "pales": 3596,
      "doãn": 3597,
      "db": 3598,
      "miến": 3599,
      "vôi": 3600,
      "cher": 3601,
      "hol": 3602,
      "rang": 3603,
      "lor": 3604,
      "dis": 3605,
      "kín": 3606,
      "james": 3607,
      "81": 3608,
      "82": 3609,
      "dốc": 3610,
      "code": 3611,
      "lọt": 3612,
      "saint": 3613,
      "hara": 3614,
      "apple": 3615,
      "acid": 3616,
      "gay": 3617,
      "gắt": 3618,
      "xấp": 3619,
      "chìa": 3620,
      "ir": 3621,
      "sis": 3622,
      "ney": 3623,
      "rio": 3624,
      "mc": 3625,
      "xí": 3626,
      "đán": 3627,
      "ngạch": 3628,
      "napoléon": 3629,
      "nghịch": 3630,
      "ruz": 3631,
      "hel": 3632,
      "1993": 3633,
      "pelé": 3634,
      "].": 3635,
      "ie": 3636,
      "neo": 3637,
      "sar": 3638,
      "uẩn": 3639,
      "đực": 3640,
      "phò": 3641,
      "robert": 3642,
      "ngụ": 3643,
      "ght": 3644,
      "palestine": 3645,
      "ion": 3646,
      "jor": 3647,
      "liễn": 3648,
      "châm": 3649,
      "tiêm": 3650,
      "mỏng": 3651,
      "1955": 3652,
      "olympic": 3653,
      "cài": 3654,
      "dạo": 3655,
      "thiêng": 3656,
      "trúng": 3657,
      "huân": 3658,
      "xoay": 3659,
      "bridge": 3660,
      "heidel": 3661,
      "eli": 3662,
      "gán": 3663,
      "chai": 3664,
      "170": 3665,
      "andro": 3666,
      "mẫn": 3667,
      "sho": 3668,
      "tóm": 3669,
      "xôi": 3670,
      "ngai": 3671,
      "ngài": 3672,
      "ngãi": 3673,
      "thóc": 3674,
      "kỵ": 3675,
      "tủy": 3676,
      "khuếch": 3677,
      "tec": 3678,
      "compu": 3679,
      "bulgar": 3680,
      "hormone": 3681,
      "hawaii": 3682,
      "dâu": 3683,
      "hiếp": 3684,
      "int": 3685,
      "luồng": 3686,
      "khoái": 3687,
      "đáy": 3688,
      "ashi": 3689,
      "papu": 3690,
      "ning": 3691,
      "1971": 3692,
      "cười": 3693,
      "ghét": 3694,
      "700": 3695,
      "cer": 3696,
      "dàn": 3697,
      "giêng": 3698,
      "phồn": 3699,
      "copa": 3700,
      "tex": 3701,
      "nasa": 3702,
      "mit": 3703,
      "deniso": 3704,
      "dioxide": 3705,
      "89": 3706,
      "hãi": 3707,
      "china": 3708,
      "ami": 3709,
      "tiếc": 3710,
      "lom": 3711,
      "tis": 3712,
      "afghan": 3713,
      "ns": 3714,
      "nàng": 3715,
      "via": 3716,
      "ứt": 3717,
      "nhai": 3718,
      "chen": 3719,
      "khanh": 3720,
      "khố": 3721,
      "1973": 3722,
      "cưỡng": 3723,
      "denisova": 3724,
      "gả": 3725,
      "sion": 3726,
      "para": 3727,
      "1978": 3728,
      "hãm": 3729,
      "clar": 3730,
      "honda": 3731,
      "bulgaria": 3732,
      "cỗ": 3733,
      "kon": 3734,
      "lùi": 3735,
      "sou": 3736,
      "micha": 3737,
      "beria": 3738,
      "bio": 3739,
      "gilgames": 3740,
      "gs": 3741,
      "chưởng": 3742,
      "cos": 3743,
      "vect": 3744,
      "hat": 3745,
      "1982": 3746,
      "tics": 3747,
      "afghanistan": 3748,
      "michael": 3749,
      "vectơ": 3750,
      "bre": 3751,
      "phả": 3752,
      "phôi": 3753,
      "trọt": 3754,
      "lus": 3755,
      "đuôi": 3756,
      "mãnh": 3757,
      "wales": 3758,
      "gilgamesh": 3759,
      "cồn": 3760,
      "nhã": 3761,
      "khan": 3762,
      "ange": 3763,
      "mosk": 3764,
      "bể": 3765,
      "papua": 3766,
      "moskva": 3767,
      "83": 3768,
      "lí": 3769,
      "tp": 3770,
      "chào": 3771,
      "đếm": 3772,
      "ameri": 3773,
      "xuôi": 3774,
      "musk": 3775,
      "byzan": 3776,
      "++": 3777,
      "bích": 3778,
      "stu": 3779,
      "xon": 3780,
      "bắp": 3781,
      "lưng": 3782,
      "lav": 3783,
      "bes": 3784,
      "vé": 3785,
      "bin": 3786,
      "phở": 3787,
      "quấy": 3788,
      "inch": 3789,
      "1988": 3790,
      "port": 3791,
      "84": 3792,
      "bơ": 3793,
      "pau": 3794,
      "đạc": 3795,
      "dos": 3796,
      "mù": 3797,
      "kép": 3798,
      "ferra": 3799,
      "dbms": 3800,
      "bếp": 3801,
      "cra": 3802,
      "lắm": 3803,
      "lles": 3804,
      "mắn": 3805,
      "nại": 3806,
      "ván": 3807,
      "xóm": 3808,
      "nùng": 3809,
      "ghana": 3810,
      ".;": 3811,
      "bơi": 3812,
      "kg": 3813,
      "she": 3814,
      "tươ": 3815,
      "ãng": 3816,
      "augu": 3817,
      "bụng": 3818,
      "1968": 3819,
      "london": 3820,
      "rể": 3821,
      "tral": 3822,
      "nhục": 3823,
      "heo": 3824,
      "ny": 3825,
      "ww": 3826,
      "xăng": 3827,
      "đính": 3828,
      "cù": 3829,
      "cuba": 3830,
      "hoại": 3831,
      "đống": 3832,
      "1979": 3833,
      "%).": 3834,
      "kiềm": 3835,
      "sạn": 3836,
      "phiệt": 3837,
      "beng": 3838,
      "1974": 3839,
      "marx": 3840,
      "master": 3841,
      "mp": 3842,
      "mệt": 3843,
      "mía": 3844,
      "sky": 3845,
      "1900": 3846,
      "khuy": 3847,
      "bén": 3848,
      "chile": 3849,
      "1959": 3850,
      "cày": 3851,
      "yết": 3852,
      "sel": 3853,
      "max": 3854,
      "htv": 3855,
      "uel": 3856,
      "ves": 3857,
      "đày": 3858,
      "̉o": 3859,
      "chiên": 3860,
      "cus": 3861,
      "pera": 3862,
      "lenin": 3863,
      "xviii": 3864,
      "112": 3865,
      "dồi": 3866,
      "lánh": 3867,
      "pra": 3868,
      "giỗ": 3869,
      "ngục": 3870,
      "cambridge": 3871,
      "wil": 3872,
      "đứt": 3873,
      "rain": 3874,
      "gro": 3875,
      "his": 3876,
      "soci": 3877,
      "myan": 3878,
      "nút": 3879,
      "giòn": 3880,
      "hựu": 3881,
      "oxford": 3882,
      "tịnh": 3883,
      "ferrari": 3884,
      "tưới": 3885,
      "clu": 3886,
      "cli": 3887,
      "ges": 3888,
      "ob": 3889,
      "wn": 3890,
      "đắt": 3891,
      "peter": 3892,
      "1981": 3893,
      "1964": 3894,
      "bận": 3895,
      "bbc": 3896,
      "tle": 3897,
      "nhữ": 3898,
      "phì": 3899,
      "dou": 3900,
      "armen": 3901,
      "sul": 3902,
      "super": 3903,
      "mara": 3904,
      "lỵ": 3905,
      "1987": 3906,
      "cau": 3907,
      "nhâm": 3908,
      "co2": 3909,
      "thắt": 3910,
      "kilô": 3911,
      "1972": 3912,
      "1965": 3913,
      "mini": 3914,
      "armenia": 3915,
      "rửa": 3916,
      "nato": 3917,
      "1985": 3918,
      "uỷ": 3919,
      "?\"": 3920,
      "dd": 3921,
      "rễ": 3922,
      "tày": 3923,
      "vần": 3924,
      "vla": 3925,
      "chris": 3926,
      "uyển": 3927,
      "ngòi": 3928,
      "rẻ": 3929,
      "nén": 3930,
      "hiro": 3931,
      "mat": 3932,
      "thomas": 3933,
      "shima": 3934,
      "buýt": 3935,
      "android": 3936,
      "byzantine": 3937,
      "cắm": 3938,
      "dội": 3939,
      "kai": 3940,
      "lấp": 3941,
      "nát": 3942,
      "sri": 3943,
      "thổi": 3944,
      "trộm": 3945,
      "vịt": 3946,
      "vol": 3947,
      "mag": 3948,
      "mọc": 3949,
      "mỏi": 3950,
      "guay": 3951,
      "lem": 3952,
      "nem": 3953,
      "rổ": 3954,
      "vắng": 3955,
      "trọn": 3956,
      "thự": 3957,
      "lãi": 3958,
      "ish": 3959,
      "lic": 3960,
      "nhúng": 3961,
      "gò": 3962,
      "main": 3963,
      "đệm": 3964,
      "myanmar": 3965,
      "250": 3966,
      "bla": 3967,
      "lia": 3968,
      "nương": 3969,
      "sươ": 3970,
      "chán": 3971,
      "ville": 3972,
      "1983": 3973,
      "park": 3974,
      "tệp": 3975,
      "premi": 3976,
      "history": 3977,
      "seo": 3978,
      "vd": 3979,
      "xào": 3980,
      "colom": 3981,
      "khoá": 3982,
      "nung": 3983,
      "huỳnh": 3984,
      "cc": 3985,
      "gruz": 3986,
      "mờ": 3987,
      "ngưng": 3988,
      "chuối": 3989,
      "lỡ": 3990,
      "bol": 3991,
      "time": 3992,
      "pub": 3993,
      "1984": 3994,
      "1962": 3995,
      "gruzia": 3996,
      "shu": 3997,
      "são": 3998,
      "thính": 3999,
      "cong": 4000,
      "lit": 4001,
      "gui": 4002,
      "1947": 4003,
      "face": 4004,
      "international": 4005,
      "nigeria": 4006,
      "fried": 4007,
      "bưu": 4008,
      "hận": 4009,
      "ye": 4010,
      "̣m": 4011,
      "nham": 4012,
      "khiết": 4013,
      "giấu": 4014,
      "thuy": 4015,
      "soái": 4016,
      "lie": 4017,
      "1966": 4018,
      "1956": 4019,
      "francis": 4020,
      "wai": 4021,
      "nghiêng": 4022,
      "ration": 4023,
      "hợi": 4024,
      "roman": 4025,
      "nhắm": 4026,
      "chéo": 4027,
      "xit": 4028,
      "1941": 4029,
      "1948": 4030,
      "bổng": 4031,
      "1789": 4032,
      "xói": 4033,
      "1912": 4034,
      "are": 4035,
      "arch": 4036,
      "1961": 4037,
      "grdp": 4038,
      "bươ": 4039,
      "dào": 4040,
      "qat": 4041,
      "vas": 4042,
      "chìm": 4043,
      "phen": 4044,
      "latin": 4045,
      "quỷ": 4046,
      "mos": 4047,
      "kö": 4048,
      "heidelberg": 4049,
      "ara": 4050,
      "bru": 4051,
      "flo": 4052,
      "io": 4053,
      "zy": 4054,
      "tấu": 4055,
      "mồi": 4056,
      "1917": 4057,
      "alan": 4058,
      "sus": 4059,
      "ller": 4060,
      "quét": 4061,
      "ball": 4062,
      "lốp": 4063,
      "azer": 4064,
      "richard": 4065,
      "kề": 4066,
      "kĩ": 4067,
      "măng": 4068,
      "xê": 4069,
      "²,": 4070,
      "chả": 4071,
      "col": 4072,
      "tō": 4073,
      "séc": 4074,
      "sikh": 4075,
      "baijan": 4076,
      "azerbaijan": 4077,
      "bô": 4078,
      "thấm": 4079,
      "khương": 4080,
      "quái": 4081,
      "nhàng": 4082,
      "mum": 4083,
      "ema": 4084,
      "timor": 4085,
      ".)": 4086,
      "bun": 4087,
      "sương": 4088,
      "sin": 4089,
      "tiệp": 4090,
      "cấy": 4091,
      "mồng": 4092,
      "ngọ": 4093,
      "tian": 4094,
      "dẻo": 4095,
      "chel": 4096,
      "prix": 4097,
      "wood": 4098,
      "brun": 4099,
      "manila": 4100,
      "bengal": 4101,
      "kin": 4102,
      "ráp": 4103,
      "tê": 4104,
      "ras": 4105,
      "túi": 4106,
      "phím": 4107,
      "ism": 4108,
      "sapi": 4109,
      "xavi": 4110,
      "unix": 4111,
      "ault": 4112,
      "khuynh": 4113,
      "110": 4114,
      "kiêu": 4115,
      "mạt": 4116,
      "slo": 4117,
      "vội": 4118,
      "xơ": 4119,
      "trễ": 4120,
      "tos": 4121,
      "enos": 4122,
      "rome": 4123,
      "bull": 4124,
      "desh": 4125,
      "rie": 4126,
      "đổng": 4127,
      "bạt": 4128,
      "gpt": 4129,
      "hắc": 4130,
      "om": 4131,
      "rạch": 4132,
      "tản": 4133,
      "tảo": 4134,
      "thạnh": 4135,
      "trẫm": 4136,
      "dọn": 4137,
      "volu": 4138,
      "victor": 4139,
      "bầy": 4140,
      "pdf": 4141,
      "tí": 4142,
      "uất": 4143,
      "uru": 4144,
      "ằn": 4145,
      "intel": 4146,
      "lừa": 4147,
      "polis": 4148,
      "xiv": 4149,
      "carbo": 4150,
      "fon": 4151,
      "lậu": 4152,
      "tắm": 4153,
      "đành": 4154,
      "trác": 4155,
      "hoán": 4156,
      "lum": 4157,
      "thoảng": 4158,
      "akka": 4159,
      "glo": 4160,
      "gne": 4161,
      "gran": 4162,
      "chưng": 4163,
      "ani": 4164,
      "aires": 4165,
      "art": 4166,
      "muham": 4167,
      "ala": 4168,
      "đục": 4169,
      "buenos": 4170,
      "lưỡi": 4171,
      "bangla": 4172,
      "france": 4173,
      "fc": 4174,
      "lộng": 4175,
      "ện": 4176,
      "gieo": 4177,
      "tum": 4178,
      "ist": 4179,
      "saki": 4180,
      "pé": 4181,
      "1969": 4182,
      "wiki": 4183,
      "1939": 4184,
      "aztec": 4185,
      "hindu": 4186,
      "well": 4187,
      "]」": 4188,
      "bư": 4189,
      "cp": 4190,
      "clo": 4191,
      "cởi": 4192,
      "fla": 4193,
      "ip": 4194,
      "lt": 4195,
      "spa": 4196,
      "sầm": 4197,
      "chước": 4198,
      "phà": 4199,
      "nhựa": 4200,
      "arus": 4201,
      "vươn": 4202,
      "1958": 4203,
      "xvii": 4204,
      "premier": 4205,
      "dậu": 4206,
      "dri": 4207,
      "west": 4208,
      "ngâm": 4209,
      "trệ": 4210,
      "anti": 4211,
      "rad": 4212,
      "phun": 4213,
      "search": 4214,
      "sing": 4215,
      "chat": 4216,
      "roup": 4217,
      "ath": 4218,
      "ç": 4219,
      "din": 4220,
      "from": 4221,
      "plan": 4222,
      "cừu": 4223,
      "ero": 4224,
      "nỏ": 4225,
      "kov": 4226,
      "serbia": 4227,
      "qatar": 4228,
      "ape": 4229,
      "wat": 4230,
      "đeo": 4231,
      "「[": 4232,
      "giường": 4233,
      "đốn": 4234,
      "aristo": 4235,
      "some": 4236,
      "sum": 4237,
      "liver": 4238,
      "giếng": 4239,
      "amazon": 4240,
      "computer": 4241,
      "sapiens": 4242,
      "nâu": 4243,
      "sào": 4244,
      "tte": 4245,
      "gie": 4246,
      "húc": 4247,
      "eder": 4248,
      "german": 4249,
      "henry": 4250,
      "claren": 4251,
      "113": 4252,
      "fin": 4253,
      "kas": 4254,
      "vạch": 4255,
      "̈r": 4256,
      "khống": 4257,
      "auto": 4258,
      "túng": 4259,
      "húy": 4260,
      "1914": 4261,
      "lee": 4262,
      "istor": 4263,
      "1936": 4264,
      "karl": 4265,
      "bourg": 4266,
      "lặng": 4267,
      "mclaren": 4268,
      "nơ": 4269,
      "smi": 4270,
      "đun": 4271,
      "ern": 4272,
      "đèo": 4273,
      "jour": 4274,
      "llar": 4275,
      "ndt": 4276,
      "ian": 4277,
      "ngón": 4278,
      "thở": 4279,
      "thấu": 4280,
      "trầu": 4281,
      "lượm": 4282,
      "1967": 4283,
      "xoáy": 4284,
      "transistor": 4285,
      "speci": 4286,
      "muhammad": 4287,
      "\"[": 4288,
      "ado": 4289,
      "ngton": 4290,
      "khâu": 4291,
      "hou": 4292,
      "logo": 4293,
      "tour": 4294,
      "tồi": 4295,
      "constan": 4296,
      "tas": 4297,
      "basic": 4298,
      "vie": 4299,
      "ess": 4300,
      "khóc": 4301,
      "ast": 4302,
      "off": 4303,
      "trứ": 4304,
      "khử": 4305,
      "juli": 4306,
      "darwin": 4307,
      "jersey": 4308,
      "dính": 4309,
      "ix": 4310,
      "ql": 4311,
      "̄n": 4312,
      "đười": 4313,
      "aimar": 4314,
      "tuất": 4315,
      "ẩy": 4316,
      "alen": 4317,
      "mol": 4318,
      "point": 4319,
      "ush": 4320,
      "pedia": 4321,
      "1963": 4322,
      "belarus": 4323,
      "mến": 4324,
      "dem": 4325,
      "gau": 4326,
      "ou": 4327,
      "plas": 4328,
      "rộn": 4329,
      "².": 4330,
      "ngẫm": 4331,
      "thạo": 4332,
      "thốn": 4333,
      "khinh": 4334,
      "quỳ": 4335,
      "cac": 4336,
      "nou": 4337,
      "peru": 4338,
      "1788": 4339,
      "lerc": 4340,
      "joseph": 4341,
      "bangladesh": 4342,
      "ek": 4343,
      "lặn": 4344,
      "oai": 4345,
      "spor": 4346,
      "slav": 4347,
      "đòn": 4348,
      "deu": 4349,
      "1957": 4350,
      "leclerc": 4351,
      "science": 4352,
      "paulo": 4353,
      "volution": 4354,
      "cay": 4355,
      "djo": 4356,
      "ig": 4357,
      "opera": 4358,
      "pti": 4359,
      "sấm": 4360,
      "chì": 4361,
      "sừng": 4362,
      "ãy": 4363,
      "sửu": 4364,
      "ngủi": 4365,
      "bou": 4366,
      "manga": 4367,
      "1400": 4368,
      "...\"": 4369,
      "pit": 4370,
      "camp": 4371,
      "cr": 4372,
      "group": 4373,
      "kur": 4374,
      "tý": 4375,
      "wis": 4376,
      "zim": 4377,
      "ques": 4378,
      "ail": 4379,
      "inc": 4380,
      "khoang": 4381,
      "ngõ": 4382,
      "sur": 4383,
      "motor": 4384,
      "1792": 4385,
      "data": 4386,
      "pier": 4387,
      "martin": 4388,
      "bahrain": 4389,
      "smith": 4390,
      "900": 4391,
      "tuyền": 4392,
      "iễm": 4393,
      "dong": 4394,
      "mồ": 4395,
      "sea": 4396,
      "sụt": 4397,
      "rez": 4398,
      "khói": 4399,
      "star": 4400,
      "mumbai": 4401,
      "360": 4402,
      "dê": 4403,
      "fan": 4404,
      "gang": 4405,
      "sp": 4406,
      "nhở": 4407,
      "chàng": 4408,
      "chuông": 4409,
      "indra": 4410,
      "luxem": 4411,
      "viet": 4412,
      "bank": 4413,
      "1944": 4414,
      "word": 4415,
      "mala": 4416,
      "1787": 4417,
      "deuts": 4418,
      "bệ": 4419,
      "far": 4420,
      "lội": 4421,
      "chạp": 4422,
      "khỉ": 4423,
      "name": 4424,
      "muôn": 4425,
      "vik": 4426,
      "mart": 4427,
      "1942": 4428,
      "news": 4429,
      "work": 4430,
      "xoắn": 4431,
      "1885": 4432,
      "cent": 4433,
      "gregor": 4434,
      "hiroshima": 4435,
      "sườn": 4436,
      "bẩm": 4437,
      "diêu": 4438,
      "lim": 4439,
      "lẫy": 4440,
      "oán": 4441,
      "washi": 4442,
      "xv": 4443,
      "thạc": 4444,
      "congo": 4445,
      "rey": 4446,
      "thìn": 4447,
      "usb": 4448,
      "byte": 4449,
      "\"...": 4450,
      "feder": 4451,
      "gối": 4452,
      "gali": 4453,
      "kí": 4454,
      "lột": 4455,
      "pmid": 4456,
      "đâm": 4457,
      "tẩm": 4458,
      "erec": 4459,
      "ric": 4460,
      "chip": 4461,
      "km2": 4462,
      "lộn": 4463,
      "kovic": 4464,
      "johnson": 4465,
      "club": 4466,
      "colombia": 4467,
      "bộc": 4468,
      "dvd": 4469,
      "mb": 4470,
      "mổ": 4471,
      "nar": 4472,
      "xách": 4473,
      "ngưu": 4474,
      "chan": 4475,
      "ses": 4476,
      "đụng": 4477,
      "naga": 4478,
      "philo": 4479,
      "cape": 4480,
      "lyon": 4481,
      "program": 4482,
      "prin": 4483,
      "cket": 4484,
      "jordan": 4485,
      "djokovic": 4486,
      "federer": 4487,
      "ằm": 4488,
      "khiếp": 4489,
      "vũng": 4490,
      "1911": 4491,
      "huynh": 4492,
      "nie": 4493,
      "javas": 4494,
      "merce": 4495,
      "angeles": 4496,
      "erectus": 4497,
      "javascript": 4498,
      "cre": 4499,
      "dập": 4500,
      "huyên": 4501,
      "str": 4502,
      "vn": 4503,
      "gianh": 4504,
      "yến": 4505,
      "rat": 4506,
      "tuồng": 4507,
      "bab": 4508,
      "golf": 4509,
      "1977": 4510,
      "comm": 4511,
      "ensis": 4512,
      "ware": 4513,
      "kor": 4514,
      "sấu": 4515,
      "̈n": 4516,
      "trỏ": 4517,
      "roma": 4518,
      "sailles": 4519,
      "dad": 4520,
      "pool": 4521,
      "sớ": 4522,
      "tripoli": 4523,
      "file": 4524,
      "versailles": 4525,
      "1884": 4526,
      "kilômét": 4527,
      "washington": 4528,
      "apo": 4529,
      "mỉ": 4530,
      "oan": 4531,
      "xông": 4532,
      "”,": 4533,
      "nhạt": 4534,
      "php": 4535,
      "inte": 4536,
      "mus": 4537,
      "email": 4538,
      "vis": 4539,
      "1592": 4540,
      "hein": 4541,
      "1953": 4542,
      "1938": 4543,
      "ject": 4544,
      "austral": 4545,
      "socie": 4546,
      "friedrich": 4547,
      "akkad": 4548,
      "gregory": 4549,
      "hao": 4550,
      "oxide": 4551,
      "tộ": 4552,
      "vy": 4553,
      "roger": 4554,
      "vijaya": 4555,
      "rica": 4556,
      "nas": 4557,
      "sahara": 4558,
      "nhung": 4559,
      "mir": 4560,
      "nico": 4561,
      "trick": 4562,
      "mona": 4563,
      "foot": 4564,
      "free": 4565,
      "hitler": 4566,
      "luxembourg": 4567,
      "\";": 4568,
      "bế": 4569,
      "fia": 4570,
      "gãy": 4571,
      "lát": 4572,
      "lầy": 4573,
      "mem": 4574,
      "ole": 4575,
      "pon": 4576,
      "rd": 4577,
      "rải": 4578,
      "uông": 4579,
      "vãn": 4580,
      "yan": 4581,
      "tẩy": 4582,
      "alem": 4583,
      "vir": 4584,
      "tech": 4585,
      "mão": 4586,
      "heli": 4587,
      "ming": 4588,
      "mark": 4589,
      "wide": 4590,
      "langua": 4591,
      "1786": 4592,
      "rôma": 4593,
      "alexander": 4594,
      "journal": 4595,
      "language": 4596,
      "ae": 4597,
      "hẻ": 4598,
      "kị": 4599,
      "kình": 4600,
      "kam": 4601,
      "pia": 4602,
      "tton": 4603,
      "ươm": 4604,
      "gin": 4605,
      "ers": 4606,
      "sub": 4607,
      "viii": 4608,
      "cation": 4609,
      "guar": 4610,
      "berber": 4611,
      "eld": 4612,
      "cnn": 4613,
      "atia": 4614,
      "1888": 4615,
      "franç": 4616,
      "mercedes": 4617,
      "3000": 4618,
      "bran": 4619,
      "hươ": 4620,
      "kiếp": 4621,
      "say": 4622,
      "ub": 4623,
      "đặn": 4624,
      "khiêu": 4625,
      "hò": 4626,
      "mur": 4627,
      "đoái": 4628,
      "sor": 4629,
      "base": 4630,
      "vii": 4631,
      "milan": 4632,
      "wait": 4633,
      "ep": 4634,
      "gel": 4635,
      "gaul": 4636,
      "hạc": 4637,
      "lặc": 4638,
      "mác": 4639,
      "oanh": 4640,
      "rama": 4641,
      "tran": 4642,
      "trượng": 4643,
      "chuộc": 4644,
      "alban": 4645,
      "emen": 4646,
      "manuel": 4647,
      "croatia": 4648,
      "philoso": 4649,
      "hươu": 4650,
      "ah": 4651,
      "bì": 4652,
      "gác": 4653,
      "gnu": 4654,
      "has": 4655,
      "lay": 4656,
      "lồng": 4657,
      "plo": 4658,
      "răn": 4659,
      "íp": 4660,
      "tỏi": 4661,
      "luộc": 4662,
      "dian": 4663,
      "mèo": 4664,
      "bara": 4665,
      "1800": 4666,
      "key": 4667,
      "1777": 4668,
      "gua": 4669,
      "vet": 4670,
      "nica": 4671,
      "johan": 4672,
      "1951": 4673,
      "venez": 4674,
      "kuwait": 4675,
      "ecd": 4676,
      "liverpool": 4677,
      "dặn": 4678,
      "ice": 4679,
      "oecd": 4680,
      "viếng": 4681,
      "̀ve": 4682,
      "ngươi": 4683,
      "nghiện": 4684,
      "colum": 4685,
      "times": 4686,
      "med": 4687,
      "asia": 4688,
      "vec": 4689,
      "now": 4690,
      "stal": 4691,
      "renault": 4692,
      "rãnh": 4693,
      "space": 4694,
      "bis": 4695,
      "fal": 4696,
      "hr": 4697,
      "qh": 4698,
      "thiều": 4699,
      "thiểm": 4700,
      "trỗi": 4701,
      "phiêu": 4702,
      "chọc": 4703,
      "thuở": 4704,
      "lue": 4705,
      "mula": 4706,
      "led": 4707,
      "buồng": 4708,
      "1527": 4709,
      "mont": 4710,
      "1407": 4711,
      "monaco": 4712,
      "api": 4713,
      "cht": 4714,
      "trán": 4715,
      "cúc": 4716,
      "trùm": 4717,
      "tou": 4718,
      "1918": 4719,
      "tino": 4720,
      "bush": 4721,
      "lừng": 4722,
      "vich": 4723,
      "té": 4724,
      "1428": 4725,
      "nixon": 4726,
      "habi": 4727,
      "bayern": 4728,
      "syl": 4729,
      "panama": 4730,
      "borneo": 4731,
      "brunei": 4732,
      "aristotle": 4733,
      "dr": 4734,
      "mis": 4735,
      "vard": 4736,
      "đừng": 4737,
      "quãng": 4738,
      "dus": 4739,
      "phone": 4740,
      "ement": 4741,
      "nex": 4742,
      "high": 4743,
      "....": 4744,
      "mobi": 4745,
      "1775": 4746,
      "usalem": 4747,
      "xiii": 4748,
      "1943": 4749,
      "220": 4750,
      "him": 4751,
      "kal": 4752,
      "lạy": 4753,
      "mị": 4754,
      "ois": 4755,
      "rh": 4756,
      "sc": 4757,
      "sche": 4758,
      "vóc": 4759,
      "ngắm": 4760,
      "phổi": 4761,
      "phiền": 4762,
      "thềm": 4763,
      "log": 4764,
      "quyên": 4765,
      "lung": 4766,
      "hủ": 4767,
      "mùng": 4768,
      "ngung": 4769,
      "post": 4770,
      "vượn": 4771,
      "1952": 4772,
      "american": 4773,
      "facebook": 4774,
      "tím": 4775,
      "115": 4776,
      "ev": 4777,
      "fur": 4778,
      "glas": 4779,
      "kìm": 4780,
      "lầu": 4781,
      "mứt": 4782,
      "rho": 4783,
      "scho": 4784,
      "slam": 4785,
      "xay": 4786,
      "thiêm": 4787,
      "thề": 4788,
      "tòng": 4789,
      "unda": 4790,
      "enzy": 4791,
      "lứa": 4792,
      "isa": 4793,
      "1890": 4794,
      "gé": 4795,
      "jerusalem": 4796,
      "flash": 4797,
      "nagasaki": 4798,
      "117": 4799,
      "cris": 4800,
      "sán": 4801,
      "đái": 4802,
      "ngói": 4803,
      "cuộn": 4804,
      "1922": 4805,
      "mura": 4806,
      "sủng": 4807,
      "haiti": 4808,
      "1895": 4809,
      "rung": 4810,
      "sili": 4811,
      "nhuộm": 4812,
      "...)": 4813,
      "carlos": 4814,
      "kara": 4815,
      "kata": 4816,
      "forbes": 4817,
      "shin": 4818,
      "sony": 4819,
      "genève": 4820,
      "gấu": 4821,
      "kiệu": 4822,
      "mam": 4823,
      "pes": 4824,
      "tặc": 4825,
      "đắm": 4826,
      "đấng": 4827,
      "tunis": 4828,
      "ald": 4829,
      "alpha": 4830,
      "sudan": 4831,
      "bùn": 4832,
      "tuỳ": 4833,
      "rùa": 4834,
      "shan": 4835,
      "champa": 4836,
      "balkan": 4837,
      "williams": 4838,
      "thuỵ": 4839,
      "pierre": 4840,
      "cằn": 4841,
      "day": 4842,
      "ea": 4843,
      "fra": 4844,
      "kau": 4845,
      "nộn": 4846,
      "sộ": 4847,
      "eon": 4848,
      "1916": 4849,
      "sian": 4850,
      "marke": 4851,
      "kong": 4852,
      "seri": 4853,
      "axit": 4854,
      "dẫu": 4855,
      "hân": 4856,
      "kem": 4857,
      "mâm": 4858,
      "pus": 4859,
      "xà": 4860,
      "thệ": 4861,
      "thuyên": 4862,
      "khiếm": 4863,
      "cọc": 4864,
      "dova": 4865,
      "1910": 4866,
      "metro": 4867,
      "meta": 4868,
      "iss": 4869,
      "nhuệ": 4870,
      "1883": 4871,
      "clay": 4872,
      "moldova": 4873,
      "apollo": 4874,
      "vettel": 4875,
      "dối": 4876,
      "mĩ": 4877,
      "nốt": 4878,
      "oi": 4879,
      "tánh": 4880,
      "ngắt": 4881,
      "chà": 4882,
      "chao": 4883,
      "phác": 4884,
      "hoạ": 4885,
      "1923": 4886,
      "thaya": 4887,
      "bat": 4888,
      "nik": 4889,
      "noãn": 4890,
      "edward": 4891,
      "1901": 4892,
      "bơm": 4893,
      "bp": 4894,
      "oli": 4895,
      "sql": 4896,
      "thy": 4897,
      "phạn": 4898,
      "cúm": 4899,
      "ayut": 4900,
      "1870": 4901,
      "online": 4902,
      "kẽ": 4903,
      "sat": 4904,
      "cing": 4905,
      "cari": 4906,
      "cưỡi": 4907,
      "harvard": 4908,
      "instein": 4909,
      "polynesia": 4910,
      "helm": 4911,
      "masters": 4912,
      "plasma": 4913,
      "ayutthaya": 4914,
      "%;": 4915,
      "bau": 4916,
      "tát": 4917,
      "tem": 4918,
      "ngực": 4919,
      "chày": 4920,
      "phra": 4921,
      "giu": 4922,
      "dom": 4923,
      "media": 4924,
      "hiv": 4925,
      "bell": 4926,
      "xii": 4927,
      "1937": 4928,
      "1905": 4929,
      "kyoto": 4930,
      "valen": 4931,
      "manhat": 4932,
      "litva": 4933,
      ".\".": 4934,
      "einstein": 4935,
      "ital": 4936,
      "lách": 4937,
      "lót": 4938,
      "miếng": 4939,
      "sse": 4940,
      "xả": 4941,
      "xáo": 4942,
      "”.": 4943,
      "nghiêu": 4944,
      "dura": 4945,
      "1919": 4946,
      "1913": 4947,
      "suôn": 4948,
      "let": 4949,
      "tical": 4950,
      "lac": 4951,
      "nepal": 4952,
      "1860": 4953,
      "rug": 4954,
      "125": 4955,
      "ping": 4956,
      "lines": 4957,
      "calci": 4958,
      "logical": 4959,
      "dịu": 4960,
      "leon": 4961,
      "kant": 4962,
      "mauri": 4963,
      "uruguay": 4964,
      "manhattan": 4965,
      "ace": 4966,
      "bám": 4967,
      "cành": 4968,
      "clas": 4969,
      "ctive": 4970,
      "edi": 4971,
      "fram": 4972,
      "niêm": 4973,
      "ora": 4974,
      "xám": 4975,
      "chanh": 4976,
      "phao": 4977,
      "khốn": 4978,
      "gic": 4979,
      "hua": 4980,
      "múi": 4981,
      "albu": 4982,
      "tation": 4983,
      "vòm": 4984,
      "kei": 4985,
      "ribo": 4986,
      "thoi": 4987,
      "rụng": 4988,
      "esar": 4989,
      "dae": 4990,
      "power": 4991,
      "lywood": 4992,
      "hybrid": 4993,
      "santos": 4994,
      "bón": 4995,
      "picnic": 4996,
      "wikipedia": 4997,
      "julius": 4998,
      "albania": 4999,
      "tunisia": 5000,
      "450": 5001,
      "ap": 5002,
      "hl": 5003,
      "hau": 5004,
      "nst": 5005,
      "tà": 5006,
      "zen": 5007,
      "́k": 5008,
      "chal": 5009,
      "enki": 5010,
      "tit": 5011,
      "titu": 5012,
      "kẽm": 5013,
      "made": 5014,
      "chica": 5015,
      "gỏi": 5016,
      "jac": 5017,
      "cker": 5018,
      "1933": 5019,
      "juven": 5020,
      "ukraine": 5021,
      "http": 5022,
      "corpo": 5023,
      "benz": 5024,
      "cricket": 5025,
      "species": 5026,
      "dre": 5027,
      "gpu": 5028,
      "ico": 5029,
      "kra": 5030,
      "kiêng": 5031,
      "oman": 5032,
      "sãi": 5033,
      "stre": 5034,
      "síp": 5035,
      "whi": 5036,
      "zam": 5037,
      "ngả": 5038,
      "ồm": 5039,
      "ắk": 5040,
      "khép": 5041,
      "cọ": 5042,
      "cour": 5043,
      "amster": 5044,
      "tiếm": 5045,
      "hur": 5046,
      "roy": 5047,
      "suma": 5048,
      "bona": 5049,
      "nel": 5050,
      "vò": 5051,
      "lanka": 5052,
      "best": 5053,
      "nhọn": 5054,
      "1778": 5055,
      "sig": 5056,
      "1644": 5057,
      "nō": 5058,
      "atle": 5059,
      "australia": 5060,
      "stalin": 5061,
      "amsterdam": 5062,
      "116": 5063,
      "alon": 5064,
      "bhu": 5065,
      "bha": 5066,
      "dồn": 5067,
      "evolution": 5068,
      "osa": 5069,
      "rạc": 5070,
      "vách": 5071,
      "̄ng": 5072,
      "thâu": 5073,
      "cuống": 5074,
      "giã": 5075,
      "radio": 5076,
      "tủ": 5077,
      "đùa": 5078,
      "vọt": 5079,
      "1820": 5080,
      "beta": 5081,
      "nhụy": 5082,
      "taylor": 5083,
      "pole": 5084,
      "guru": 5085,
      "kir": 5086,
      "pad": 5087,
      "tric": 5088,
      "santa": 5089,
      "1931": 5090,
      "1889": 5091,
      "1782": 5092,
      "indravarman": 5093,
      "chicago": 5094,
      "eth": 5095,
      "kro": 5096,
      "liều": 5097,
      "mận": 5098,
      "uz": 5099,
      "vả": 5100,
      "wto": 5101,
      "đơ": 5102,
      "đao": 5103,
      "chê": 5104,
      "phẫn": 5105,
      "giặt": 5106,
      "uyễn": 5107,
      "nghiễm": 5108,
      "1927": 5109,
      "rock": 5110,
      "seau": 5111,
      "sell": 5112,
      "boa": 5113,
      "bogo": 5114,
      "tỳ": 5115,
      "1600": 5116,
      "gõ": 5117,
      "mic": 5118,
      "kilo": 5119,
      "with": 5120,
      "tain": 5121,
      "1932": 5122,
      "juan": 5123,
      "fernan": 5124,
      "wall": 5125,
      "donald": 5126,
      "green": 5127,
      "penn": 5128,
      "francisco": 5129,
      "zimbab": 5130,
      "juventus": 5131,
      "zimbabwe": 5132,
      "(?": 5133,
      "02": 5134,
      "04": 5135,
      "05": 5136,
      "diêm": 5137,
      "gun": 5138,
      "hs": 5139,
      "mand": 5140,
      "np": 5141,
      "rê": 5142,
      "trưa": 5143,
      "quặng": 5144,
      "chùm": 5145,
      "đẫm": 5146,
      "tụt": 5147,
      "toa": 5148,
      "toan": 5149,
      "1929": 5150,
      "hệt": 5151,
      "mul": 5152,
      "sol": 5153,
      "suri": 5154,
      "lewis": 5155,
      ")...": 5156,
      "villa": 5157,
      "1850": 5158,
      "macro": 5159,
      "lian": 5160,
      "cata": 5161,
      "posi": 5162,
      "europa": 5163,
      "donia": 5164,
      "philip": 5165,
      "lshe": 5166,
      "norman": 5167,
      "www": 5168,
      "htv7": 5169,
      "black": 5170,
      "pérez": 5171,
      "cacbon": 5172,
      "deutsche": 5173,
      "society": 5174,
      "]\"": 5175,
      "cắp": 5176,
      "fris": 5177,
      "mt": 5178,
      "spin": 5179,
      "zz": 5180,
      "cul": 5181,
      "lùng": 5182,
      "socra": 5183,
      "tiano": 5184,
      "1791": 5185,
      "pop": 5186,
      "vacc": 5187,
      "mari": 5188,
      "maroc": 5189,
      "cial": 5190,
      "atp": 5191,
      "south": 5192,
      "htv9": 5193,
      "vladi": 5194,
      "bưởi": 5195,
      "ça": 5196,
      "caribe": 5197,
      "enkidu": 5198,
      "vaccine": 5199,
      "diệp": 5200,
      "gươm": 5201,
      "iberia": 5202,
      "nản": 5203,
      "nện": 5204,
      "ore": 5205,
      "rốt": 5206,
      "ỷ": 5207,
      "̣o": 5208,
      "phơi": 5209,
      "anto": 5210,
      "thùng": 5211,
      "dun": 5212,
      "mút": 5213,
      "algé": 5214,
      "melan": 5215,
      "mãng": 5216,
      "1776": 5217,
      "cep": 5218,
      "111": 5219,
      "pie": 5220,
      "pandura": 5221,
      "ghé": 5222,
      "octan": 5223,
      "openai": 5224,
      "wilhelm": 5225,
      "series": 5226,
      "corporation": 5227,
      "algérie": 5228,
      "01": 5229,
      "06": 5230,
      "agi": 5231,
      "fun": 5232,
      "háo": 5233,
      "lanh": 5234,
      "nới": 5235,
      "rìa": 5236,
      "uri": 5237,
      "vặt": 5238,
      "thia": 5239,
      "khao": 5240,
      "ais": 5241,
      "cừ": 5242,
      "1925": 5243,
      "thưa": 5244,
      "meso": 5245,
      "buồm": 5246,
      "podo": 5247,
      "hydra": 5248,
      "lands": 5249,
      "newton": 5250,
      "tonia": 5251,
      "water": 5252,
      "anderen": 5253,
      "ners": 5254,
      "airlines": 5255,
      "bỗng": 5256,
      "chatgpt": 5257,
      "mịn": 5258,
      "rugby": 5259,
      "350": 5260,
      "cội": 5261,
      "hal": 5262,
      "ose": 5263,
      "ola": 5264,
      "rậm": 5265,
      "tao": 5266,
      "wana": 5267,
      "{{": 5268,
      "}:": 5269,
      "}}:": 5270,
      "iếc": 5271,
      "phiện": 5272,
      "racing": 5273,
      "aux": 5274,
      "ngọa": 5275,
      "alfre": 5276,
      "bolshe": 5277,
      "tier": 5278,
      "kel": 5279,
      "mace": 5280,
      "beth": 5281,
      "1774": 5282,
      "sius": 5283,
      "1368": 5284,
      "nile": 5285,
      "berna": 5286,
      "thớt": 5287,
      "not": 5288,
      "field": 5289,
      "formula": 5290,
      "1801": 5291,
      "1908": 5292,
      "gasy": 5293,
      "great": 5294,
      "rỗng": 5295,
      "wanda": 5296,
      "vlaanderen": 5297,
      "romania": 5298,
      "bogotá": 5299,
      "panduranga": 5300,
      "biếm": 5301,
      "côi": 5302,
      "gầm": 5303,
      "nứt": 5304,
      "pto": 5305,
      "vỗ": 5306,
      "yi": 5307,
      "ngao": 5308,
      "ướp": 5309,
      "duật": 5310,
      "1928": 5311,
      "súy": 5312,
      "rét": 5313,
      "sas": 5314,
      "fir": 5315,
      "giò": 5316,
      "giọt": 5317,
      "malia": 5318,
      "europe": 5319,
      "uela": 5320,
      "eiro": 5321,
      "album": 5322,
      "118": 5323,
      "abu": 5324,
      "hanh": 5325,
      "nin": 5326,
      "chướng": 5327,
      "khiếu": 5328,
      "quây": 5329,
      "ant": 5330,
      "nghênh": 5331,
      "phách": 5332,
      "chur": 5333,
      "infor": 5334,
      "theory": 5335,
      "albert": 5336,
      "seine": 5337,
      "mel": 5338,
      "research": 5339,
      "more": 5340,
      "1793": 5341,
      "espan": 5342,
      "estonia": 5343,
      "sid": 5344,
      "jack": 5345,
      "shar": 5346,
      "barba": 5347,
      "zakh": 5348,
      "stephen": 5349,
      "ibn": 5350,
      "lski": 5351,
      "bsd": 5352,
      "hollywood": 5353,
      "malagasy": 5354,
      "venezuela": 5355,
      "suriname": 5356,
      "bernabe": 5357,
      "09": 5358,
      "?\".": 5359,
      "]、": 5360,
      "ef": 5361,
      "jus": 5362,
      "lận": 5363,
      "nang": 5364,
      "oh": 5365,
      "out": 5366,
      "sốc": 5367,
      "tta": 5368,
      "ộp": 5369,
      "gióng": 5370,
      "nghiền": 5371,
      "thur": 5372,
      "archi": 5373,
      "hôi": 5374,
      "tius": 5375,
      "bury": 5376,
      "bac": 5377,
      "lation": 5378,
      "1880": 5379,
      "hil": 5380,
      "1740": 5381,
      "bil": 5382,
      "kaz": 5383,
      "kol": 5384,
      "1886": 5385,
      "1887": 5386,
      "cleo": 5387,
      "janeiro": 5388,
      "eliza": 5389,
      "mobile": 5390,
      "ribosome": 5391,
      "sumatra": 5392,
      "alonso": 5393,
      "frisia": 5394,
      "bolshevik": 5395,
      "barbados": 5396,
      "]、[": 5397,
      "\":": 5398,
      "hun": 5399,
      "lở": 5400,
      "och": 5401,
      "rwanda": 5402,
      "tch": 5403,
      "twe": 5404,
      "vắc": 5405,
      "điềm": 5406,
      "nhặt": 5407,
      "chăng": 5408,
      "kham": 5409,
      "quạt": 5410,
      "1926": 5411,
      "nón": 5412,
      "tifi": 5413,
      "võng": 5414,
      "imi": 5415,
      "lướt": 5416,
      "1815": 5417,
      "1840": 5418,
      "kẹp": 5419,
      "model": 5420,
      "sie": 5421,
      "gom": 5422,
      "huỷ": 5423,
      "vel": 5424,
      "page": 5425,
      "pur": 5426,
      "stand": 5427,
      "monte": 5428,
      "oscar": 5429,
      "1902": 5430,
      "engine": 5431,
      "scien": 5432,
      "!\"": 5433,
      "03": 5434,
      "07": 5435,
      "3d": 5436,
      "econ": 5437,
      "gộp": 5438,
      "ios": 5439,
      "lề": 5440,
      "run": 5441,
      "sá": 5442,
      "sáo": 5443,
      "who": 5444,
      "yang": 5445,
      "̀re": 5446,
      "nhộn": 5447,
      "thiêu": 5448,
      "trơn": 5449,
      "giật": 5450,
      "kyu": 5451,
      "1924": 5452,
      "1831": 5453,
      "dép": 5454,
      "hill": 5455,
      "thoả": 5456,
      "mori": 5457,
      "sara": 5458,
      "gö": 5459,
      "pol": 5460,
      "gawa": 5461,
      "zation": 5462,
      "gambia": 5463,
      "1904": 5464,
      "phàm": 5465,
      "podolski": 5466,
      "alu": 5467,
      "apar": 5468,
      "hức": 5469,
      "jin": 5470,
      "jen": 5471,
      "sảm": 5472,
      "stra": 5473,
      "đúp": 5474,
      "ngó": 5475,
      "chảo": 5476,
      "try": 5477,
      "phàn": 5478,
      "cur": 5479,
      "thêu": 5480,
      "cou": 5481,
      "dol": 5482,
      "indi": 5483,
      "khoách": 5484,
      "sò": 5485,
      "solo": 5486,
      "table": 5487,
      "né": 5488,
      "tửu": 5489,
      "kẹt": 5490,
      "105": 5491,
      "moto": 5492,
      "1258": 5493,
      "gol": 5494,
      "had": 5495,
      "mars": 5496,
      "gate": 5497,
      "server": 5498,
      "baltic": 5499,
      "football": 5500,
      "fernando": 5501,
      "socrates": 5502,
      "macedonia": 5503,
      "elon": 5504,
      "hall": 5505,
      "kush": 5506,
      "xy": 5507,
      "đản": 5508,
      "ngạo": 5509,
      "hoo": 5510,
      "coo": 5511,
      "khoác": 5512,
      "sỏi": 5513,
      "mè": 5514,
      "lab": 5515,
      "sack": 5516,
      "hỷ": 5517,
      "nova": 5518,
      "url": 5519,
      "phara": 5520,
      "giêsu": 5521,
      "jung": 5522,
      "clau": 5523,
      "cyclo": 5524,
      "lẻo": 5525,
      "general": 5526,
      "plato": 5527,
      "henri": 5528,
      "text": 5529,
      "texas": 5530,
      "techno": 5531,
      "marketing": 5532,
      "valencia": 5533,
      "//": 5534,
      "abo": 5535,
      "dỡ": 5536,
      "ee": 5537,
      "hắn": 5538,
      "if": 5539,
      "ide": 5540,
      "js": 5541,
      "nàn": 5542,
      "rắc": 5543,
      "rỗi": 5544,
      "rhein": 5545,
      "sti": 5546,
      "vờ": 5547,
      "wol": 5548,
      "phia": 5549,
      "hoả": 5550,
      "home": 5551,
      "amino": 5552,
      "rakh": 5553,
      "human": 5554,
      "photon": 5555,
      "ròng": 5556,
      "sebas": 5557,
      "đọng": 5558,
      "boy": 5559,
      "1898": 5560,
      "1873": 5561,
      "dec": 5562,
      "rum": 5563,
      "lity": 5564,
      "life": 5565,
      "org": 5566,
      "siberia": 5567,
      "asso": 5568,
      "theid": 5569,
      "kav": 5570,
      "get": 5571,
      "pper": 5572,
      "lôgic": 5573,
      "graphi": 5574,
      "diego": 5575,
      "paraguay": 5576,
      "house": 5577,
      "columbia": 5578,
      "uzbe": 5579,
      "apartheid": 5580,
      "968": 5581,
      "]。": 5582,
      "č": 5583,
      "căm": 5584,
      "eva": 5585,
      "kana": 5586,
      "liêng": 5587,
      "miện": 5588,
      "mài": 5589,
      "nm": 5590,
      "oe": 5591,
      "ō": 5592,
      "rin": 5593,
      "ud": 5594,
      "đạm": 5595,
      "chắt": 5596,
      "luy": 5597,
      "2030": 5598,
      "huyệt": 5599,
      "contro": 5600,
      "lei": 5601,
      "rei": 5602,
      "tele": 5603,
      "1500": 5604,
      "1533": 5605,
      "quýnh": 5606,
      "gogh": 5607,
      "lyn": 5608,
      "chèn": 5609,
      "pura": 5610,
      "907": 5611,
      "1935": 5612,
      "lisboa": 5613,
      "981": 5614,
      "feet": 5615,
      "massa": 5616,
      "josé": 5617,
      "gneau": 5618,
      "cristiano": 5619,
      "jacques": 5620,
      "elizabeth": 5621,
      "diễu": 5622,
      "ét": 5623,
      "era": 5624,
      "eus": 5625,
      "lb": 5626,
      "liềm": 5627,
      "spi": 5628,
      "tl": 5629,
      "trói": 5630,
      "phất": 5631,
      "tropy": 5632,
      "cook": 5633,
      "tures": 5634,
      "1915": 5635,
      "music": 5636,
      "sé": 5637,
      "eman": 5638,
      "type": 5639,
      "1899": 5640,
      "hip": 5641,
      "thoáng": 5642,
      "modu": 5643,
      "mora": 5644,
      "nhọc": 5645,
      "nui": 5646,
      "miami": 5647,
      "thera": 5648,
      "noi": 5649,
      "card": 5650,
      "kazakh": 5651,
      "1903": 5652,
      "tesla": 5653,
      "georges": 5654,
      "institu": 5655,
      "biology": 5656,
      "studi": 5657,
      "bừa": 5658,
      "apec": 5659,
      "italia": 5660,
      "hsbc": 5661,
      "230": 5662,
      "ata": 5663,
      "dại": 5664,
      "gạt": 5665,
      "hách": 5666,
      "hễ": 5667,
      "ica": 5668,
      "jr": 5669,
      "rỉ": 5670,
      "stein": 5671,
      "tì": 5672,
      "ủi": 5673,
      "wy": 5674,
      "trát": 5675,
      "phô": 5676,
      "trump": 5677,
      "hum": 5678,
      "ngoạn": 5679,
      "entropy": 5680,
      "sei": 5681,
      "somalia": 5682,
      "villar": 5683,
      "tỵ": 5684,
      "1897": 5685,
      "1832": 5686,
      "dé": 5687,
      "107": 5688,
      "bana": 5689,
      "tẻ": 5690,
      "lione": 5691,
      "xèo": 5692,
      "nucleo": 5693,
      "1427": 5694,
      "guy": 5695,
      "atl": 5696,
      "mall": 5697,
      "1934": 5698,
      "1804": 5699,
      "365": 5700,
      "ship": 5701,
      "mascher": 5702,
      "ciation": 5703,
      "slova": 5704,
      "carbohydra": 5705,
      "bửu": 5706,
      "constantino": 5707,
      "programming": 5708,
      "françois": 5709,
      "vladimir": 5710,
      "kavkaz": 5711,
      "villarreal": 5712,
      "mascherano": 5713,
      "constantinopolis": 5714,
      "08": 5715,
      "114": 5716,
      "5000": 5717,
      "bần": 5718,
      "cồng": 5719,
      "ey": 5720,
      "fes": 5721,
      "gb": 5722,
      "hem": 5723,
      "lm": 5724,
      "ov": 5725,
      "plu": 5726,
      "rạn": 5727,
      "súp": 5728,
      "sắn": 5729,
      "tằm": 5730,
      "khấn": 5731,
      "thuột": 5732,
      "nhàn": 5733,
      "arthur": 5734,
      "sos": 5735,
      "nguội": 5736,
      "digi": 5737,
      "mea": 5738,
      "lênin": 5739,
      "tera": 5740,
      "ruby": 5741,
      "bec": 5742,
      "1285": 5743,
      "sain": 5744,
      "michel": 5745,
      "nier": 5746,
      "pid": 5747,
      "network": 5748,
      "mail": 5749,
      "state": 5750,
      "dani": 5751,
      "fore": 5752,
      "maori": 5753,
      "samsung": 5754,
      "brand": 5755,
      "america": 5756,
      "view": 5757,
      "ledge": 5758,
      "uzbekistan": 5759,
      "750": 5760,
      "cắn": 5761,
      "fen": 5762,
      "lăn": 5763,
      "mh": 5764,
      "mán": 5765,
      "tla": 5766,
      "thầu": 5767,
      "cháo": 5768,
      "pher": 5769,
      "hong": 5770,
      "rapa": 5771,
      "laser": 5772,
      "islam": 5773,
      "ash": 5774,
      "tana": 5775,
      "peir": 5776,
      "carl": 5777,
      "caro": 5778,
      "carib": 5779,
      "wei": 5780,
      "thúy": 5781,
      "yoga": 5782,
      "vứt": 5783,
      "santia": 5784,
      "walmart": 5785,
      "lympho": 5786,
      "grandcle": 5787,
      "reaso": 5788,
      "neumann": 5789,
      "systems": 5790,
      "physi": 5791,
      "augus": 5792,
      "public": 5793,
      "sports": 5794,
      "standard": 5795,
      "rakhine": 5796,
      "peirce": 5797,
      "caribbe": 5798,
      "grandclém": 5799,
      "938": 5800,
      "bìa": 5801,
      "blue": 5802,
      "c1": 5803,
      "ceo": 5804,
      "dt": 5805,
      "dỗ": 5806,
      "ech": 5807,
      "glu": 5808,
      "oque": 5809,
      "stro": 5810,
      "up": 5811,
      "vtv": 5812,
      "wim": 5813,
      "xát": 5814,
      "thặng": 5815,
      "quệ": 5816,
      "đấm": 5817,
      "dona": 5818,
      "toại": 5819,
      "aly": 5820,
      "tish": 5821,
      "lah": 5822,
      "ness": 5823,
      "1848": 5824,
      "1867": 5825,
      "1871": 5826,
      "andy": 5827,
      "chử": 5828,
      "pepti": 5829,
      "maria": 5830,
      "bill": 5831,
      "will": 5832,
      "vania": 5833,
      "trea": 5834,
      "bóp": 5835,
      "burgh": 5836,
      "stone": 5837,
      "chelsea": 5838,
      "ricci": 5839,
      "habilis": 5840,
      "bonapar": 5841,
      "kolkata": 5842,
      "]。[": 5843,
      "bổn": 5844,
      "dĩnh": 5845,
      "fel": 5846,
      "hước": 5847,
      "hans": 5848,
      "kr": 5849,
      "ous": 5850,
      "pta": 5851,
      "rn": 5852,
      "rị": 5853,
      "stru": 5854,
      "chốn": 5855,
      "chine": 5856,
      "trá": 5857,
      "khắt": 5858,
      "colle": 5859,
      "ain": 5860,
      "erra": 5861,
      "mü": 5862,
      "als": 5863,
      "roi": 5864,
      "levan": 5865,
      "chiền": 5866,
      "bục": 5867,
      "1830": 5868,
      "1874": 5869,
      "liban": 5870,
      "bet": 5871,
      "ory": 5872,
      "1442": 5873,
      "1471": 5874,
      "sac": 5875,
      "pedro": 5876,
      "vati": 5877,
      "bayes": 5878,
      "mary": 5879,
      "putin": 5880,
      "prom": 5881,
      "xoài": 5882,
      "romeo": 5883,
      "salad": 5884,
      "neuron": 5885,
      "napoleon": 5886,
      "sultan": 5887,
      "global": 5888,
      "gaulle": 5889,
      "iceland": 5890,
      "vichy": 5891,
      "informa": 5892,
      "980": 5893,
      "cru": 5894,
      "dạn": 5895,
      "o2": 5896,
      "script": 5897,
      "wang": 5898,
      "won": 5899,
      "ʻi": 5900,
      "chin": 5901,
      "́né": 5902,
      "lop": 5903,
      "kyr": 5904,
      "nami": 5905,
      "into": 5906,
      "1921": 5907,
      "rò": 5908,
      "buông": 5909,
      "1847": 5910,
      "deep": 5911,
      "kẹo": 5912,
      "109": 5913,
      "math": 5914,
      "river": 5915,
      "128": 5916,
      "1662": 5917,
      "gos": 5918,
      "pot": 5919,
      "pablo": 5920,
      "berke": 5921,
      "sym": 5922,
      "proton": 5923,
      "rosberg": 5924,
      "north": 5925,
      "vector": 5926,
      "frame": 5927,
      "oracle": 5928,
      "dream": 5929,
      "osaka": 5930,
      "lionel": 5931,
      "slovakia": 5932,
      "grandcléme": 5933,
      "bonaparte": 5934,
      "rịa": 5935,
      "bạ": 5936,
      "biền": 5937,
      "dj": 5938,
      "edu": 5939,
      "fox": 5940,
      "ffer": 5941,
      "fol": 5942,
      "fair": 5943,
      "gặt": 5944,
      "gừng": 5945,
      "ivan": 5946,
      "itō": 5947,
      "kun": 5948,
      "kali": 5949,
      "mạ": 5950,
      "mễ": 5951,
      "nq": 5952,
      "sảng": 5953,
      "sảnh": 5954,
      "tăm": 5955,
      "ngần": 5956,
      "nhốt": 5957,
      "chôm": 5958,
      "quer": 5959,
      "ane": 5960,
      "coun": 5961,
      "tom": 5962,
      "xua": 5963,
      "2050": 5964,
      "phos": 5965,
      "alas": 5966,
      "roose": 5967,
      "bọ": 5968,
      "mega": 5969,
      "mou": 5970,
      "moore": 5971,
      "mỵ": 5972,
      "1771": 5973,
      "nature": 5974,
      "calo": 5975,
      "caesar": 5976,
      "sico": 5977,
      "vét": 5978,
      "nio": 5979,
      "niko": 5980,
      "cairo": 5981,
      "link": 5982,
      "syn": 5983,
      "sham": 5984,
      "barça": 5985,
      "feli": 5986,
      "salva": 5987,
      "rough": 5988,
      "srivijaya": 5989,
      "enzyme": 5990,
      "royal": 5991,
      "solomon": 5992,
      "santiago": 5993,
      "reasoning": 5994,
      "240": 5995,
      "550": 5996,
      "iji": 5997,
      "ium": 5998,
      "old": 5999,
      "swi": 6000,
      "tti": 6001,
      "xinh": 6002,
      "xâu": 6003,
      "xml": 6004,
      "đả": 6005,
      "âl": 6006,
      "chích": 6007,
      "phỉ": 6008,
      "dur": 6009,
      "low": 6010,
      "thán": 6011,
      "ena": 6012,
      "enne": 6013,
      "boli": 6014,
      "lén": 6015,
      "đuối": 6016,
      "1858": 6017,
      "1862": 6018,
      "macos": 6019,
      "rìu": 6020,
      "moai": 6021,
      "catal": 6022,
      "1627": 6023,
      "gori": 6024,
      "đéc": 6025,
      "...,": 6026,
      "kie": 6027,
      "velt": 6028,
      "chad": 6029,
      "marcelo": 6030,
      "carlo": 6031,
      "pala": 6032,
      "books": 6033,
      "kenne": 6034,
      "celt": 6035,
      "publis": 6036,
      "philosophy": 6037,
      "berkeley": 6038,
      "roosevelt": 6039,
      "salvador": 6040,
      "abra": 6041,
      "cca": 6042,
      "ear": 6043,
      "hịch": 6044,
      "muni": 6045,
      "qa": 6046,
      "rí": 6047,
      "thpt": 6048,
      "homin": 6049,
      "rac": 6050,
      "domini": 6051,
      "toba": 6052,
      "encyclo": 6053,
      "khuông": 6054,
      "ngỗi": 6055,
      "mexi": 6056,
      "bach": 6057,
      "ving": 6058,
      "1833": 6059,
      "1894": 6060,
      "102": 6061,
      "caf": 6062,
      "cap": 6063,
      "sabah": 6064,
      "mili": 6065,
      "...).": 6066,
      "...\".": 6067,
      "elam": 6068,
      "union": 6069,
      "ille": 6070,
      "msn": 6071,
      "1803": 6072,
      "lish": 6073,
      "hindi": 6074,
      "english": 6075,
      "adobe": 6076,
      "vietnam": 6077,
      "madeira": 6078,
      "atlét": 6079,
      "pharaon": 6080,
      "bốt": 6081,
      "cto": 6082,
      "hman": 6083,
      "náo": 6084,
      "nard": 6085,
      "rộ": 6086,
      "rán": 6087,
      "rạng": 6088,
      "vâng": 6089,
      "yama": 6090,
      "nger": 6091,
      "nhuyễn": 6092,
      "thầm": 6093,
      "chớp": 6094,
      "giằng": 6095,
      "ịnh": 6096,
      "analy": 6097,
      "thủng": 6098,
      "angkor": 6099,
      "tural": 6100,
      "toku": 6101,
      "end": 6102,
      "dium": 6103,
      "tide": 6104,
      "bụt": 6105,
      "button": 6106,
      "vision": 6107,
      "vòi": 6108,
      "1861": 6109,
      "106": 6110,
      "1010": 6111,
      "xé": 6112,
      "nations": 6113,
      "nubia": 6114,
      "cám": 6115,
      "thic": 6116,
      "hé": 6117,
      "mil": 6118,
      "habs": 6119,
      "gence": 6120,
      "pire": 6121,
      "noam": 6122,
      "1009": 6123,
      "logis": 6124,
      "1783": 6125,
      "1909": 6126,
      "clb": 6127,
      "ario": 6128,
      "jane": 6129,
      "nêm": 6130,
      "turbo": 6131,
      "andrew": 6132,
      "andré": 6133,
      "maradona": 6134,
      "communi": 6135,
      "tweet": 6136,
      "atlético": 6137,
      "bôi": 6138,
      "gấm": 6139,
      "hd": 6140,
      "hiên": 6141,
      "ik": 6142,
      "jar": 6143,
      "mun": 6144,
      "pun": 6145,
      "rợ": 6146,
      "sanh": 6147,
      "ùn": 6148,
      "wri": 6149,
      "nhện": 6150,
      "trini": 6151,
      "ame": 6152,
      "raku": 6153,
      "lun": 6154,
      "lùn": 6155,
      "alfa": 6156,
      "sòng": 6157,
      "bọt": 6158,
      "bots": 6159,
      "late": 6160,
      "team": 6161,
      "1620": 6162,
      "sad": 6163,
      "gupta": 6164,
      "nòng": 6165,
      "markov": 6166,
      "bib": 6167,
      "gad": 6168,
      "former": 6169,
      "stanford": 6170,
      "thern": 6171,
      "prince": 6172,
      "intelli": 6173,
      "peptide": 6174,
      "habsburg": 6175,
      "bali": 6176,
      "eco": 6177,
      "edo": 6178,
      "gao": 6179,
      "hót": 6180,
      "ici": 6181,
      "jun": 6182,
      "qi": 6183,
      "rảnh": 6184,
      "rand": 6185,
      "scha": 6186,
      "uốn": 6187,
      "zal": 6188,
      "điếm": 6189,
      "nhồi": 6190,
      "chlo": 6191,
      "cum": 6192,
      "holo": 6193,
      "yểm": 6194,
      "thuấn": 6195,
      "costa": 6196,
      "duẩn": 6197,
      "angola": 6198,
      "domain": 6199,
      "town": 6200,
      "luis": 6201,
      "mỗ": 6202,
      "khoẻ": 6203,
      "phoen": 6204,
      "sour": 6205,
      "tini": 6206,
      "lựu": 6207,
      "1842": 6208,
      "dea": 6209,
      "deve": 6210,
      "108": 6211,
      "rit": 6212,
      "1790": 6213,
      "nahu": 6214,
      "num": 6215,
      "sabi": 6216,
      "137": 6217,
      "1370": 6218,
      "gov": 6219,
      "gold": 6220,
      "hee": 6221,
      "chev": 6222,
      "pithe": 6223,
      "gael": 6224,
      "yol": 6225,
      "221": 6226,
      "perl": 6227,
      "edin": 6228,
      "comple": 6229,
      "mono": 6230,
      "franz": 6231,
      "scott": 6232,
      "mina": 6233,
      "inawa": 6234,
      "ttle": 6235,
      "bledon": 6236,
      "ksin": 6237,
      "reason": 6238,
      "zier": 6239,
      "victoria": 6240,
      "athle": 6241,
      "giéc": 6242,
      "hẻm": 6243,
      "scand": 6244,
      "rêu": 6245,
      "gödel": 6246,
      "kazakhstan": 6247,
      "wimbledon": 6248,
      "bolivia": 6249,
      "260": 6250,
      "650": 6251,
      "bân": 6252,
      "blan": 6253,
      "cky": 6254,
      "ever": 6255,
      "fano": 6256,
      "hăng": 6257,
      "jon": 6258,
      "kry": 6259,
      "mắng": 6260,
      "nịnh": 6261,
      "ráo": 6262,
      "sạc": 6263,
      "ski": 6264,
      "thảy": 6265,
      "chậu": 6266,
      "iềng": 6267,
      "giàn": 6268,
      "giầy": 6269,
      "lois": 6270,
      "loãng": 6271,
      "roland": 6272,
      "see": 6273,
      "lep": 6274,
      "diction": 6275,
      "imf": 6276,
      "1841": 6277,
      "1054": 6278,
      "lít": 6279,
      "mò": 6280,
      "1765": 6281,
      "orbi": 6282,
      "sir": 6283,
      "saxon": 6284,
      "gou": 6285,
      "hèn": 6286,
      "đẽ": 6287,
      "asse": 6288,
      "chén": 6289,
      "nian": 6290,
      "vara": 6291,
      "fire": 6292,
      "part": 6293,
      "koku": 6294,
      "baroque": 6295,
      "malaya": 6296,
      "minoan": 6297,
      "1907": 6298,
      "center": 6299,
      "kenya": 6300,
      "ffel": 6301,
      "brook": 6302,
      "apek": 6303,
      "motors": 6304,
      "sylvania": 6305,
      "pennsylvania": 6306,
      "alfred": 6307,
      "first": 6308,
      "bernabéu": 6309,
      "čapek": 6310,
      "institute": 6311,
      "digital": 6312,
      "daniel": 6313,
      "athletic": 6314,
      "3c": 6315,
      "cla": 6316,
      "eas": 6317,
      "fs": 6318,
      "gậy": 6319,
      "nen": 6320,
      "oce": 6321,
      "rơ": 6322,
      "zh": 6323,
      "điểu": 6324,
      "̂le": 6325,
      "chro": 6326,
      "củi": 6327,
      "hop": 6328,
      "ânia": 6329,
      "aids": 6330,
      "ragua": 6331,
      "mün": 6332,
      "seca": 6333,
      "boole": 6334,
      "vụn": 6335,
      "live": 6336,
      "davis": 6337,
      "đè": 6338,
      "nitơ": 6339,
      "big": 6340,
      "sten": 6341,
      "ality": 6342,
      "project": 6343,
      "anato": 6344,
      "russell": 6345,
      "nheim": 6346,
      "minsky": 6347,
      "founda": 6348,
      "gyz": 6349,
      "steven": 6350,
      "samoa": 6351,
      "abdu": 6352,
      "românia": 6353,
      "bénin": 6354,
      "christian": 6355,
      "bướm": 6356,
      "gièm": 6357,
      "adolf": 6358,
      "murray": 6359,
      "nicaragua": 6360,
      "rhine": 6361,
      "giục": 6362,
      "ssein": 6363,
      "european": 6364,
      "chinese": 6365,
      "kyrgyz": 6366,
      "mathema": 6367,
      "\"(": 6368,
      "(“": 6369,
      "))": 6370,
      ",\"": 6371,
      ":\"": 6372,
      "flu": 6373,
      "fdi": 6374,
      "ichi": 6375,
      "île": 6376,
      "kins": 6377,
      "know": 6378,
      "mler": 6379,
      "râu": 6380,
      "teo": 6381,
      "vác": 6382,
      "viền": 6383,
      "yam": 6384,
      "êm": 6385,
      "trĩ": 6386,
      "trino": 6387,
      "đãng": 6388,
      "trũng": 6389,
      "luther": 6390,
      "box": 6391,
      "latv": 6392,
      "1822": 6393,
      "1872": 6394,
      "mah": 6395,
      "test": 6396,
      "moder": 6397,
      "esta": 6398,
      "1545": 6399,
      "1558": 6400,
      "1677": 6401,
      "polo": 6402,
      "berners": 6403,
      "nom": 6404,
      "marco": 6405,
      "marie": 6406,
      "cartha": 6407,
      "kok": 6408,
      "raik": 6409,
      "1906": 6410,
      "corn": 6411,
      "1402": 6412,
      "plc": 6413,
      "yuan": 6414,
      "simon": 6415,
      "origi": 6416,
      "bosnia": 6417,
      "8970": 6418,
      "magna": 6419,
      "fonseca": 6420,
      "frazier": 6421,
      "econo": 6422,
      "guyana": 6423,
      "caribbean": 6424,
      "catalan": 6425,
      "edinburgh": 6426,
      "latvia": 6427,
      "214": 6428,
      "930": 6429,
      "aca": 6430,
      "bẫy": 6431,
      "dán": 6432,
      "gri": 6433,
      "hp": 6434,
      "kcn": 6435,
      "mw": 6436,
      "nôi": 6437,
      "pis": 6438,
      "pmc": 6439,
      "vre": 6440,
      "wu": 6441,
      "nge": 6442,
      "ngào": 6443,
      "thắc": 6444,
      "khước": 6445,
      "cóc": 6446,
      "cẩu": 6447,
      "206": 6448,
      "hussein": 6449,
      "enter": 6450,
      "rous": 6451,
      "sed": 6452,
      "seman": 6453,
      "iac": 6454,
      "ré": 6455,
      "1868": 6456,
      "1893": 6457,
      "kè": 6458,
      "101": 6459,
      "bẻ": 6460,
      "nhòm": 6461,
      "175": 6462,
      "179": 6463,
      "1799": 6464,
      "nass": 6465,
      "esa": 6466,
      "heim": 6467,
      "ass": 6468,
      "kit": 6469,
      "nghẽn": 6470,
      "jaco": 6471,
      "ryu": 6472,
      "ferdin": 6473,
      "shire": 6474,
      "express": 6475,
      "fé": 6476,
      "istocen": 6477,
      "britan": 6478,
      "instru": 6479,
      "neutrino": 6480,
      "hawaiʻi": 6481,
      "pleistocen": 6482,
      "chaigneau": 6483,
      "konen": 6484,
      "object": 6485,
      "kilôgam": 6486,
      "memory": 6487,
      "johann": 6488,
      "đớn": 6489,
      "sidwell": 6490,
      "levant": 6491,
      "raikkonen": 6492,
      "ferdinand": 6493,
      ")\".": 6494,
      "1200": 6495,
      "280": 6496,
      "bặc": 6497,
      "cữu": 6498,
      "dận": 6499,
      "dney": 6500,
      "gly": 6501,
      "hột": 6502,
      "hóc": 6503,
      "kis": 6504,
      "sồi": 6505,
      "small": 6506,
      "was": 6507,
      "xì": 6508,
      "điên": 6509,
      "đắk": 6510,
      "chài": 6511,
      "cuồng": 6512,
      "khal": 6513,
      "̀ne": 6514,
      "hoi": 6515,
      "yểu": 6516,
      "tiễu": 6517,
      "love": 6518,
      "dolf": 6519,
      "192": 6520,
      "muội": 6521,
      "contai": 6522,
      "budd": 6523,
      "visi": 6524,
      "viking": 6525,
      "law": 6526,
      "1834": 6527,
      "1896": 6528,
      "liber": 6529,
      "1773": 6530,
      "nat": 6531,
      "nus": 6532,
      "nuối": 6533,
      "cat": 6534,
      "sierra": 6535,
      "geno": 6536,
      "marsh": 6537,
      "netbook": 6538,
      "wagen": 6539,
      "franco": 6540,
      "germain": 6541,
      "lection": 6542,
      "zara": 6543,
      "yahoo": 6544,
      "tene": 6545,
      "tenoch": 6546,
      "diola": 6547,
      "samuel": 6548,
      "sunni": 6549,
      "transformer": 6550,
      "cs1": 6551,
      "daimler": 6552,
      "uruk": 6553,
      "slavơ": 6554,
      "kurd": 6555,
      "galicia": 6556,
      "guardiola": 6557,
      "qh15": 6558,
      "module": 6559,
      "information": 6560,
      "develop": 6561,
      "nahuatl": 6562,
      "giécmanh": 6563,
      "blen": 6564,
      "clá": 6565,
      "jima": 6566,
      "lp": 6567,
      "lốt": 6568,
      "pang": 6569,
      "psy": 6570,
      "wen": 6571,
      "w3c": 6572,
      "thốt": 6573,
      "quet": 6574,
      "yêm": 6575,
      "rā": 6576,
      "đẩu": 6577,
      "tua": 6578,
      "tok": 6579,
      "mômen": 6580,
      "xúi": 6581,
      "ars": 6582,
      "eniac": 6583,
      "alpes": 6584,
      "tahi": 6585,
      "tium": 6586,
      "bad": 6587,
      "imo": 6588,
      "isp": 6589,
      "cổn": 6590,
      "1875": 6591,
      "1876": 6592,
      "1891": 6593,
      "1853": 6594,
      "khảm": 6595,
      "rudolf": 6596,
      "beli": 6597,
      "esis": 6598,
      "cast": 6599,
      "sahel": 6600,
      "cé": 6601,
      "potam": 6602,
      "cốm": 6603,
      "mít": 6604,
      "tanzan": 6605,
      "bergen": 6606,
      "bir": 6607,
      "256": 6608,
      "proto": 6609,
      "venia": 6610,
      "270": 6611,
      "malta": 6612,
      "kart": 6613,
      "denis": 6614,
      "nộm": 6615,
      "adam": 6616,
      "central": 6617,
      "eric": 6618,
      "eritrea": 6619,
      "toyoda": 6620,
      "babylonia": 6621,
      "varia": 6622,
      "genera": 6623,
      "british": 6624,
      "franklin": 6625,
      "holland": 6626,
      "august": 6627,
      "slovenia": 6628,
      "titlan": 6629,
      "bhutan": 6630,
      "mesopotam": 6631,
      "technology": 6632,
      "gluco": 6633,
      "alaska": 6634,
      "münchen": 6635,
      "clásico": 6636,
      "tanzania": 6637,
      "210": 6638,
      "4000": 6639,
      "ahu": 6640,
      "aja": 6641,
      "bẩn": 6642,
      "cts": 6643,
      "gha": 6644,
      "hấu": 6645,
      "lồi": 6646,
      "nạ": 6647,
      "sand": 6648,
      "stri": 6649,
      "vất": 6650,
      "yemen": 6651,
      "điếu": 6652,
      "thiến": 6653,
      "triện": 6654,
      "phanh": 6655,
      "quai": 6656,
      "quẻ": 6657,
      "chòm": 6658,
      "amé": 6659,
      "anglo": 6660,
      "lot": 6661,
      "aure": 6662,
      "thát": 6663,
      "tuế": 6664,
      "ental": 6665,
      "rod": 6666,
      "row": 6667,
      "soc": 6668,
      "board": 6669,
      "đũa": 6670,
      "tial": 6671,
      "tivi": 6672,
      "baba": 6673,
      "isser": 6674,
      "lượn": 6675,
      "1835": 6676,
      "dex": 6677,
      "1075": 6678,
      "rian": 6679,
      "1795": 6680,
      "nucle": 6681,
      "1593": 6682,
      "1460": 6683,
      "cell": 6684,
      "kimi": 6685,
      "guat": 6686,
      "kita": 6687,
      "vẹt": 6688,
      "pat": 6689,
      "put": 6690,
      "bian": 6691,
      "gaz": 6692,
      "wig": 6693,
      "xốp": 6694,
      "uris": 6695,
      "compan": 6696,
      "montene": 6697,
      "1806": 6698,
      "software": 6699,
      "electro": 6700,
      "iness": 6701,
      "lley": 6702,
      "rôman": 6703,
      "platon": 6704,
      "macinto": 6705,
      "bahá": 6706,
      "mossack": 6707,
      "sporting": 6708,
      "stress": 6709,
      "novak": 6710,
      "sebastian": 6711,
      "studies": 6712,
      "college": 6713,
      "tokugawa": 6714,
      "kyrgyzstan": 6715,
      "knowledge": 6716,
      "mesopotamia": 6717,
      "montenegro": 6718,
      "macintosh": 6719,
      "320": 6720,
      "370": 6721,
      "618": 6722,
      "://": 6723,
      "asian": 6724,
      "cine": 6725,
      "dạt": 6726,
      "fuk": 6727,
      "góa": 6728,
      "ln": 6729,
      "nỡ": 6730,
      "ores": 6731,
      "spo": 6732,
      "tiệm": 6733,
      "ura": 6734,
      "châ": 6735,
      "tria": 6736,
      "phai": 6737,
      "quin": 6738,
      "hòng": 6739,
      "nắp": 6740,
      "duction": 6741,
      "rafa": 6742,
      "kyiv": 6743,
      "iner": 6744,
      "208": 6745,
      "arpan": 6746,
      "soán": 6747,
      "sukho": 6748,
      "sual": 6749,
      "lear": 6750,
      "dìu": 6751,
      "bata": 6752,
      "isi": 6753,
      "hing": 6754,
      "lingu": 6755,
      "lica": 6756,
      "litz": 6757,
      "light": 6758,
      "1225": 6759,
      "nap": 6760,
      "1516": 6761,
      "sach": 6762,
      "berto": 6763,
      "cartes": 6764,
      "fication": 6765,
      "cken": 6766,
      "jones": 6767,
      "sydney": 6768,
      "proces": 6769,
      "eucli": 6770,
      "barca": 6771,
      "works": 6772,
      "905": 6773,
      "garros": 6774,
      "wallo": 6775,
      "excel": 6776,
      "hari": 6777,
      "centu": 6778,
      "rent": 6779,
      "eing": 6780,
      "eiffel": 6781,
      "dings": 6782,
      "seoul": 6783,
      "guitar": 6784,
      "watt": 6785,
      "watson": 6786,
      "bytecode": 6787,
      "himal": 6788,
      "catalun": 6789,
      "philippe": 6790,
      "claude": 6791,
      "struc": 6792,
      "kennedy": 6793,
      "botswana": 6794,
      "anatolia": 6795,
      "rousseau": 6796,
      "tenochtitlan": 6797,
      "development": 6798,
      "glucose": 6799,
      "arpanet": 6800,
      "960": 6801,
      "abi": 6802,
      "cz": 6803,
      "cta": 6804,
      "crea": 6805,
      "east": 6806,
      "hano": 6807,
      "ite": 6808,
      "ick": 6809,
      "iphone": 6810,
      "mg": 6811,
      "nồi": 6812,
      "oun": 6813,
      "ocen": 6814,
      "rẫy": 6815,
      "sỉ": 6816,
      "vấp": 6817,
      "vnex": 6818,
      "xxi": 6819,
      "yin": 6820,
      "zar": 6821,
      "ngải": 6822,
      "thro": 6823,
      "chớ": 6824,
      "chót": 6825,
      "change": 6826,
      "khăng": 6827,
      "howard": 6828,
      "andes": 6829,
      "ngham": 6830,
      "cog": 6831,
      "look": 6832,
      "ink": 6833,
      "taji": 6834,
      "bỏng": 6835,
      "đùi": 6836,
      "til": 6837,
      "tico": 6838,
      "ties": 6839,
      "bagh": 6840,
      "visual": 6841,
      "neck": 6842,
      "1877": 6843,
      "1865": 6844,
      "1892": 6845,
      "1878": 6846,
      "tét": 6847,
      "liu": 6848,
      "libra": 6849,
      "mozam": 6850,
      "1279": 6851,
      "1377": 6852,
      "gục": 6853,
      "ved": 6854,
      "paper": 6855,
      "vac": 6856,
      "fic": 6857,
      "camero": 6858,
      "joe": 6859,
      "lina": 6860,
      "prolog": 6861,
      "atlas": 6862,
      "ments": 6863,
      "xoa": 6864,
      "rưỡi": 6865,
      "mond": 6866,
      "mind": 6867,
      "desk": 6868,
      "harry": 6869,
      "sté": 6870,
      "freder": 6871,
      "heidelbergen": 6872,
      "social": 6873,
      "obama": 6874,
      "cauca": 6875,
      "köppen": 6876,
      "ushima": 6877,
      "ubnd": 6878,
      "silicon": 6879,
      "issn": 6880,
      "classi": 6881,
      "white": 6882,
      "association": 6883,
      "control": 6884,
      "nucleotide": 6885,
      "augustus": 6886,
      "abraham": 6887,
      "dominica": 6888,
      "dictionary": 6889,
      "ocean": 6890,
      "marshall": 6891,
      "euclid": 6892,
      "himalaya": 6893,
      "vnexpress": 6894,
      "neckar": 6895,
      "mozambi": 6896,
      "cameroon": 6897,
      "heidelbergensis": 6898,
      "!\".": 6899,
      "950": 6900,
      "bẩy": 6901,
      "cộ": 6902,
      "dc": 6903,
      "dn": 6904,
      "fm": 6905,
      "ffe": 6906,
      "jim": 6907,
      "keo": 6908,
      "lima": 6909,
      "nành": 6910,
      "nán": 6911,
      "oto": 6912,
      "pai": 6913,
      "pay": 6914,
      "vv": 6915,
      "vế": 6916,
      "xp": 6917,
      "xót": 6918,
      "nhô": 6919,
      "nhổ": 6920,
      "thiếc": 6921,
      "chrome": 6922,
      "phồng": 6923,
      "chọi": 6924,
      "duras": 6925,
      "aica": 6926,
      "truman": 6927,
      "kythera": 6928,
      "dollar": 6929,
      "insta": 6930,
      "tò": 6931,
      "tory": 6932,
      "lợp": 6933,
      "under": 6934,
      "saudi": 6935,
      "eone": 6936,
      "hú": 6937,
      "ngoái": 6938,
      "enburg": 6939,
      "rong": 6940,
      "robin": 6941,
      "đò": 6942,
      "emala": 6943,
      "boeing": 6944,
      "lẻn": 6945,
      "leban": 6946,
      "đút": 6947,
      "tinian": 6948,
      "tite": 6949,
      "methan": 6950,
      "regi": 6951,
      "rela": 6952,
      "lace": 6953,
      "1869": 6954,
      "maha": 6955,
      "rico": 6956,
      "123": 6957,
      "esia": 6958,
      "siri": 6959,
      "pear": 6960,
      "berry": 6961,
      "ell": 6962,
      "cana": 6963,
      "fica": 6964,
      "param": 6965,
      "kmen": 6966,
      "]):": 6967,
      "lins": 6968,
      "linna": 6969,
      "llen": 6970,
      "states": 6971,
      "wasabi": 6972,
      "bênh": 6973,
      "sergio": 6974,
      "gamma": 6975,
      "1881": 6976,
      "1882": 6977,
      "1807": 6978,
      "ference": 6979,
      "descartes": 6980,
      "kyō": 6981,
      "ering": 6982,
      "champion": 6983,
      "turkmen": 6984,
      "honduras": 6985,
      "zü": 6986,
      "nais": 6987,
      "uae": 6988,
      "business": 6989,
      "disney": 6990,
      "wilson": 6991,
      "douglas": 6992,
      "colombo": 6993,
      "thuỷ": 6994,
      "nicolas": 6995,
      "postscript": 6996,
      "isaac": 6997,
      "multi": 6998,
      "church": 6999,
      "kyū": 7000,
      "munich": 7001,
      "mexica": 7002,
      "intelligence": 7003,
      "krym": 7004,
      "foundation": 7005,
      "assistan": 7006,
      "guatemala": 7007,
      "company": 7008,
      "fukushima": 7009,
      "mozambique": 7010,
      "lebanon": 7011,
      "2n": 7012,
      "380": 7013,
      "avarman": 7014,
      "diều": 7015,
      "dha": 7016,
      "ggs": 7017,
      "hq": 7018,
      "hở": 7019,
      "hiềm": 7020,
      "kri": 7021,
      "lắc": 7022,
      "nãi": 7023,
      "nể": 7024,
      "pyo": 7025,
      "qđ": 7026,
      "tali": 7027,
      "ui": 7028,
      "úng": 7029,
      "vướng": 7030,
      "xăm": 7031,
      "đắng": 7032,
      "chật": 7033,
      "chau": 7034,
      "phệ": 7035,
      "hot": 7036,
      "còi": 7037,
      "cope": 7038,
      "chuset": 7039,
      "race": 7040,
      "lov": 7041,
      "lose": 7042,
      "tun": 7043,
      "tụy": 7044,
      "tấc": 7045,
      "undi": 7046,
      "theodo": 7047,
      "altai": 7048,
      "alfon": 7049,
      "sumi": 7050,
      "sushi": 7051,
      "suez": 7052,
      "bob": 7053,
      "bong": 7054,
      "tie": 7055,
      "vio": 7056,
      "vier": 7057,
      "imal": 7058,
      "1819": 7059,
      "1814": 7060,
      "dela": 7061,
      "kes": 7062,
      "103": 7063,
      "1076": 7064,
      "tepe": 7065,
      "124": 7066,
      "organ": 7067,
      "cad": 7068,
      "1497": 7069,
      "135": 7070,
      "ters": 7071,
      "michi": 7072,
      "mikhai": 7073,
      "mana": 7074,
      "pati": 7075,
      "tralo": 7076,
      "chap": 7077,
      "fat": 7078,
      "person": 7079,
      "serge": 7080,
      "1805": 7081,
      "derland": 7082,
      "okinawa": 7083,
      "thara": 7084,
      "tent": 7085,
      "leone": 7086,
      "1406": 7087,
      "benfica": 7088,
      "crimea": 7089,
      "vincent": 7090,
      "borland": 7091,
      "simeone": 7092,
      "alexa": 7093,
      "++,": 7094,
      "hispan": 7095,
      "athens": 7096,
      "vnđ": 7097,
      "hẻo": 7098,
      "spacex": 7099,
      "enzym": 7100,
      "bilbao": 7101,
      "massachuset": 7102,
      "felipe": 7103,
      "scandina": 7104,
      "orbital": 7105,
      "stéfano": 7106,
      "zürich": 7107,
      "pyotr": 7108,
      "massachusetts": 7109,
      "ach": 7110,
      "cis": 7111,
      "dà": 7112,
      "dở": 7113,
      "fini": 7114,
      "hống": 7115,
      "kt": 7116,
      "lạch": 7117,
      "mr": 7118,
      "nđ": 7119,
      "nari": 7120,
      "oka": 7121,
      "pton": 7122,
      "smart": 7123,
      "yon": 7124,
      "trê": 7125,
      "khế": 7126,
      "khali": 7127,
      "hok": 7128,
      "amon": 7129,
      "chui": 7130,
      "doping": 7131,
      "khoe": 7132,
      "ngoặc": 7133,
      "dứa": 7134,
      "alta": 7135,
      "alba": 7136,
      "nóc": 7137,
      "lều": 7138,
      "dives": 7139,
      "met": 7140,
      "basi": 7141,
      "revolution": 7142,
      "kén": 7143,
      "1016": 7144,
      "bantu": 7145,
      "hít": 7146,
      "122": 7147,
      "1226": 7148,
      "1271": 7149,
      "1750": 7150,
      "1767": 7151,
      "nụ": 7152,
      "nuốt": 7153,
      "thing": 7154,
      "1697": 7155,
      "148": 7156,
      "1300": 7157,
      "nhũ": 7158,
      "goza": 7159,
      "gothic": 7160,
      "miche": 7161,
      "mics": 7162,
      "manag": 7163,
      "ché": 7164,
      "pep": 7165,
      "pique": 7166,
      "cio": 7167,
      "bility": 7168,
      "258": 7169,
      "xoá": 7170,
      "maldives": 7171,
      "delphi": 7172,
      "serie": 7173,
      "liston": 7174,
      "talk": 7175,
      "universal": 7176,
      "neutron": 7177,
      "australo": 7178,
      "brown": 7179,
      "llah": 7180,
      "ages": 7181,
      "matlab": 7182,
      "sưởi": 7183,
      "kềnh": 7184,
      "princi": 7185,
      "ubtv": 7186,
      "next": 7187,
      "sciences": 7188,
      "modern": 7189,
      "zaragoza": 7190,
      "américa": 7191,
      "desktop": 7192,
      "caucasus": 7193,
      "instagram": 7194,
      "assistant": 7195,
      "management": 7196,
      "')": 7197,
      "agen": 7198,
      "blu": 7199,
      "blem": 7200,
      "cf": 7201,
      "dle": 7202,
      "diễm": 7203,
      "ebo": 7204,
      "ele": 7205,
      "hấn": 7206,
      "hard": 7207,
      "its": 7208,
      "icia": 7209,
      "lắk": 7210,
      "mrna": 7211,
      "niệu": 7212,
      "odo": 7213,
      "over": 7214,
      "uc": 7215,
      "uran": 7216,
      "vơ": 7217,
      "xiết": 7218,
      "ος": 7219,
      "thối": 7220,
      "chần": 7221,
      "trăn": 7222,
      "phẩy": 7223,
      "quất": 7224,
      "quấn": 7225,
      "radar": 7226,
      "tura": 7227,
      "tune": 7228,
      "docu": 7229,
      "erne": 7230,
      "ents": 7231,
      "photo": 7232,
      "senho": 7233,
      "semit": 7234,
      "soi": 7235,
      "sọc": 7236,
      "taxi": 7237,
      "dire": 7238,
      "lagos": 7239,
      "104": 7240,
      "mā": 7241,
      "ries": 7242,
      "xẻ": 7243,
      "1735": 7244,
      "154": 7245,
      "1521": 7246,
      "1572": 7247,
      "1640": 7248,
      "1643": 7249,
      "1661": 7250,
      "144": 7251,
      "gow": 7252,
      "ashur": 7253,
      "gul": 7254,
      "tania": 7255,
      "night": 7256,
      "value": 7257,
      "puer": 7258,
      "ghen": 7259,
      "fact": 7260,
      "gera": 7261,
      "problem": 7262,
      "cale": 7263,
      "hammura": 7264,
      "eds": 7265,
      "mayer": 7266,
      "kura": 7267,
      "karel": 7268,
      "gart": 7269,
      "shiva": 7270,
      "aç": 7271,
      "afc": 7272,
      "plaza": 7273,
      "carbonat": 7274,
      "antikythera": 7275,
      "finan": 7276,
      "logos": 7277,
      "rhode": 7278,
      "school": 7279,
      "krogh": 7280,
      "ptolem": 7281,
      "jstor": 7282,
      "sainz": 7283,
      "müller": 7284,
      "namibia": 7285,
      "trinidad": 7286,
      "phoenicia": 7287,
      "tahiti": 7288,
      "sukhothai": 7289,
      "learning": 7290,
      "wallonie": 7291,
      "century": 7292,
      "mikhail": 7293,
      "hammurabi": 7294,
      "báng": 7295,
      "clin": 7296,
      "even": 7297,
      "fle": 7298,
      "fast": 7299,
      "gger": 7300,
      "hđ": 7301,
      "juni": 7302,
      "ká": 7303,
      "mày": 7304,
      "mống": 7305,
      "mund": 7306,
      "nã": 7307,
      "plus": 7308,
      "ủ": 7309,
      "đát": 7310,
      "”)": 7311,
      "nhạn": 7312,
      "that": 7313,
      "chổi": 7314,
      "trám": 7315,
      "cúi": 7316,
      "cular": 7317,
      "quo": 7318,
      "quar": 7319,
      "amori": 7320,
      "eong": 7321,
      "enten": 7322,
      "alger": 7323,
      "allen": 7324,
      "solar": 7325,
      "sue": 7326,
      "leu": 7327,
      "chiêng": 7328,
      "medi": 7329,
      "1859": 7330,
      "matic": 7331,
      "lip": 7332,
      "liberia": 7333,
      "lipid": 7334,
      "sit": 7335,
      "side": 7336,
      "1672": 7337,
      "1470": 7338,
      "dafi": 7339,
      "1380": 7340,
      "1371": 7341,
      "guel": 7342,
      "tanjung": 7343,
      "nicke": 7344,
      "xing": 7345,
      "marc": 7346,
      "cir": 7347,
      "kawa": 7348,
      "jab": 7349,
      "joa": 7350,
      "ppp": 7351,
      "226": 7352,
      "langu": 7353,
      "etton": 7354,
      "senna": 7355,
      "karyo": 7356,
      ",...)": 7357,
      "tennis": 7358,
      "portu": 7359,
      "porto": 7360,
      "burundi": 7361,
      "acca": 7362,
      "acces": 7363,
      "enstein": 7364,
      "pinyin": 7365,
      "cord": 7366,
      "1403": 7367,
      "benetton": 7368,
      "dragon": 7369,
      "casti": 7370,
      "distri": 7371,
      "volks": 7372,
      "köln": 7373,
      "nouve": 7374,
      "glasgow": 7375,
      "rhodes": 7376,
      "powerpoint": 7377,
      "court": 7378,
      "positron": 7379,
      "zzar": 7380,
      "espanyol": 7381,
      "outlook": 7382,
      "brandenburg": 7383,
      "bibcode": 7384,
      "container": 7385,
      "belize": 7386,
      "linnaeus": 7387,
      "alfonso": 7388,
      "michigan": 7389,
      "amorite": 7390,
      "/.": 7391,
      "944": 7392,
      "cin": 7393,
      "cles": 7394,
      "dơi": 7395,
      "diếp": 7396,
      "gơ": 7397,
      "gởi": 7398,
      "hand": 7399,
      "hmong": 7400,
      "hana": 7401,
      "iq": 7402,
      "kệ": 7403,
      "lẫm": 7404,
      "m2": 7405,
      "nba": 7406,
      "oz": 7407,
      "pine": 7408,
      "pali": 7409,
      "pana": 7410,
      "rt": 7411,
      "sô": 7412,
      "tto": 7413,
      "x86": 7414,
      "zza": 7415,
      "trau": 7416,
      "cũi": 7417,
      "hoắc": 7418,
      "yếm": 7419,
      "ansi": 7420,
      "aman": 7421,
      "tool": 7422,
      "nguyền": 7423,
      "ngõa": 7424,
      "phorus": 7425,
      "rotter": 7426,
      "emper": 7427,
      "mekong": 7428,
      "vil": 7429,
      "vice": 7430,
      "neisser": 7431,
      "185": 7432,
      "1818": 7433,
      "1821": 7434,
      "1838": 7435,
      "1864": 7436,
      "ded": 7437,
      "dez": 7438,
      "bani": 7439,
      "moor": 7440,
      "121": 7441,
      "1700": 7442,
      "1780": 7443,
      "1794": 7444,
      "1540": 7445,
      "sip": 7446,
      "1642": 7447,
      "143": 7448,
      "131": 7449,
      "nhuần": 7450,
      "1100": 7451,
      "popu": 7452,
      "miocen": 7453,
      "miguel": 7454,
      "suýt": 7455,
      "nion": 7456,
      "nike": 7457,
      "nghé": 7458,
      "note": 7459,
      "gara": 7460,
      "gabri": 7461,
      "japan": 7462,
      "wich": 7463,
      "calcu": 7464,
      "lonia": 7465,
      "station": 7466,
      "oglo": 7467,
      "silver": 7468,
      "eisenho": 7469,
      "sunda": 7470,
      "turn": 7471,
      "speech": 7472,
      "olympique": 7473,
      "systema": 7474,
      "alexand": 7475,
      "alexandre": 7476,
      "boston": 7477,
      "cern": 7478,
      "1127": 7479,
      "kaido": 7480,
      "singer": 7481,
      "creo": 7482,
      "galileo": 7483,
      "piaget": 7484,
      "hòe": 7485,
      "kauthara": 7486,
      "hlv": 7487,
      "mtdna": 7488,
      "analysis": 7489,
      "gaddafi": 7490,
      "source": 7491,
      "cogni": 7492,
      "tajikistan": 7493,
      "baghdad": 7494,
      "scandinavia": 7495,
      "australopithe": 7496,
      "entente": 7497,
      "rotterdam": 7498,
      "neisseria": 7499,
      "eisenhower": 7500,
      "/,": 7501,
      "480": 7502,
      "bời": 7503,
      "biếu": 7504,
      "blin": 7505,
      "bron": 7506,
      "ctor": 7507,
      "epi": 7508,
      "fy": 7509,
      "gand": 7510,
      "hổi": 7511,
      "ito": 7512,
      "iana": 7513,
      "lẩu": 7514,
      "nana": 7515,
      "nville": 7516,
      "peo": 7517,
      "rp": 7518,
      "rs": 7519,
      "sập": 7520,
      "sói": 7521,
      "tằng": 7522,
      "usa": 7523,
      "what": 7524,
      "yen": 7525,
      "zer": 7526,
      "ngen": 7527,
      "this": 7528,
      "chy": 7529,
      "chập": 7530,
      "chẩm": 7531,
      "ches": 7532,
      "chand": 7533,
      "khiên": 7534,
      "hore": 7535,
      "como": 7536,
      "rao": 7537,
      "đố": 7538,
      "lod": 7539,
      "tual": 7540,
      "intro": 7541,
      "inca": 7542,
      "hud": 7543,
      "hume": 7544,
      "ener": 7545,
      "muse": 7546,
      "algol": 7547,
      "road": 7548,
      "đuống": 7549,
      "bak": 7550,
      "bahn": 7551,
      "ista": 7552,
      "island": 7553,
      "1851": 7554,
      "1044": 7555,
      "1069": 7556,
      "rush": 7557,
      "beha": 7558,
      "1287": 7559,
      "nabo": 7560,
      "phila": 7561,
      "1570": 7562,
      "1529": 7563,
      "singh": 7564,
      "silic": 7565,
      "1648": 7566,
      "1467": 7567,
      "1449": 7568,
      "133": 7569,
      "1388": 7570,
      "pos": 7571,
      "pots": 7572,
      "podium": 7573,
      "pata": 7574,
      "petro": 7575,
      "tama": 7576,
      "gab": 7577,
      "parthia": 7578,
      "joão": 7579,
      "form": 7580,
      "fortune": 7581,
      "1005": 7582,
      "taire": 7583,
      "nhịn": 7584,
      "ports": 7585,
      "rence": 7586,
      "burn": 7587,
      "dance": 7588,
      "geneva": 7589,
      "1504": 7590,
      "utau": 7591,
      "lympic": 7592,
      "guiné": 7593,
      "ful": 7594,
      "horn": 7595,
      "routine": 7596,
      "yuán": 7597,
      "paralympic": 7598,
      "christo": 7599,
      "buntu": 7600,
      "bunraku": 7601,
      "constantin": 7602,
      "furt": 7603,
      "españa": 7604,
      "bacter": 7605,
      "luỹ": 7606,
      "carbohydrate": 7607,
      "milimét": 7608,
      "logistics": 7609,
      "govina": 7610,
      "semantic": 7611,
      "rafael": 7612,
      "hokkaido": 7613,
      "açores": 7614,
      "volkswagen": 7615,
      "creole": 7616,
      ".),": 7617,
      ".).": 7618,
      ".{{": 7619,
      "av": 7620,
      "agu": 7621,
      "act": 7622,
      "award": 7623,
      "eb": 7624,
      "ether": 7625,
      "hinh": 7626,
      "itz": 7627,
      "kle": 7628,
      "kno": 7629,
      "luyến": 7630,
      "nine": 7631,
      "ppe": 7632,
      "vm": 7633,
      "vã": 7634,
      "wester": 7635,
      "xộn": 7636,
      "yale": 7637,
      "̈l": 7638,
      "nhơ": 7639,
      "nhương": 7640,
      "ơng": 7641,
      "hoku": 7642,
      "ís": 7643,
      "anna": 7644,
      "coro": 7645,
      "core": 7646,
      "amd": 7647,
      "́union": 7648,
      "down": 7649,
      "indus": 7650,
      "toro": 7651,
      "luna": 7652,
      "alth": 7653,
      "alle": 7654,
      "rola": 7655,
      "contin": 7656,
      "sevilla": 7657,
      "sole": 7658,
      "bati": 7659,
      "bapti": 7660,
      "réunion": 7661,
      "impera": 7662,
      "1812": 7663,
      "1854": 7664,
      "dè": 7665,
      "dera": 7666,
      "dẹt": 7667,
      "hito": 7668,
      "tep": 7669,
      "moon": 7670,
      "mosco": 7671,
      "beiji": 7672,
      "126": 7673,
      "127": 7674,
      "1288": 7675,
      "1770": 7676,
      "1580": 7677,
      "cacao": 7678,
      "chill": 7679,
      "1636": 7680,
      "1638": 7681,
      "1687": 7682,
      "145": 7683,
      "1453": 7684,
      "1398": 7685,
      "good": 7686,
      "hecta": 7687,
      "pold": 7688,
      "chửi": 7689,
      "chet": 7690,
      "peso": 7691,
      "haas": 7692,
      "bangkok": 7693,
      "tamil": 7694,
      "figo": 7695,
      "fiji": 7696,
      "ghề": 7697,
      "cược": 7698,
      "wir": 7699,
      "euphra": 7700,
      "brah": 7701,
      "stad": 7702,
      "lease": 7703,
      "sene": 7704,
      "1781": 7705,
      "lisp": 7706,
      "lisbon": 7707,
      "trèo": 7708,
      "shiki": 7709,
      "cyrus": 7710,
      "graph": 7711,
      "wart": 7712,
      "zone": 7713,
      "zig": 7714,
      "louisiana": 7715,
      "dorf": 7716,
      "histori": 7717,
      "larry": 7718,
      "bosphorus": 7719,
      "shū": 7720,
      "bruxe": 7721,
      "drive": 7722,
      "tasman": 7723,
      "ploid": 7724,
      "phraya": 7725,
      "nelson": 7726,
      "kilogram": 7727,
      "antonio": 7728,
      "melanin": 7729,
      "kelvin": 7730,
      "motorola": 7731,
      "wolf": 7732,
      "mhc": 7733,
      "stroll": 7734,
      "vatican": 7735,
      "boolean": 7736,
      "nassr": 7737,
      "catalunya": 7738,
      "library": 7739,
      "junior": 7740,
      "gabriel": 7741,
      "oglobin": 7742,
      "potsdam": 7743,
      "euphrates": 7744,
      "225": 7745,
      "420": 7746,
      "540": 7747,
      "544": 7748,
      "840": 7749,
      "965": 7750,
      "dina": 7751,
      "eti": 7752,
      "ecua": 7753,
      "ffi": 7754,
      "gge": 7755,
      "hỉ": 7756,
      "hes": 7757,
      "iro": 7758,
      "ló": 7759,
      "lị": 7760,
      "munda": 7761,
      "ples": 7762,
      "rim": 7763,
      "rằm": 7764,
      "riềng": 7765,
      "ubuntu": 7766,
      "yd": 7767,
      "z3": 7768,
      "ί": 7769,
      "nhát": 7770,
      "chang": 7771,
      "trổ": 7772,
      "khiêng": 7773,
      "quạ": 7774,
      "giấm": 7775,
      "hō": 7776,
      "hous": 7777,
      "hocke": 7778,
      "inho": 7779,
      "truật": 7780,
      "loo": 7781,
      "lucia": 7782,
      "hugo": 7783,
      "ardo": 7784,
      "musa": 7785,
      "rol": 7786,
      "rose": 7787,
      "robo": 7788,
      "soro": 7789,
      "emmanuel": 7790,
      "tak": 7791,
      "tara": 7792,
      "mecca": 7793,
      "bazan": 7794,
      "report": 7795,
      "gót": 7796,
      "ruồi": 7797,
      "mode": 7798,
      "nhoáng": 7799,
      "129": 7800,
      "177": 7801,
      "natri": 7802,
      "capi": 7803,
      "165": 7804,
      "1683": 7805,
      "146": 7806,
      "cept": 7807,
      "mansa": 7808,
      "...),": 7809,
      "pac": 7810,
      "patter": 7811,
      "patrick": 7812,
      "hyper": 7813,
      "nọ": 7814,
      "fide": 7815,
      "film": 7816,
      "jazz": 7817,
      "kom": 7818,
      "formal": 7819,
      "yoko": 7820,
      "xôma": 7821,
      "602": 7822,
      "227": 7823,
      "235": 7824,
      "unit": 7825,
      "bral": 7826,
      "malacca": 7827,
      "wade": 7828,
      "1784": 7829,
      ",...),": 7830,
      "palais": 7831,
      "steve": 7832,
      "prime": 7833,
      "abbas": 7834,
      "plate": 7835,
      "broad": 7836,
      "frankfurt": 7837,
      "daily": 7838,
      "dfb": 7839,
      "block": 7840,
      "sars": 7841,
      "southern": 7842,
      "shell": 7843,
      "supercopa": 7844,
      "?\";": 7845,
      "]」「[": 7846,
      "nơron": 7847,
      "stream": 7848,
      "melanesia": 7849,
      "dolce": 7850,
      "query": 7851,
      "hominin": 7852,
      "assemb": 7853,
      "cornwall": 7854,
      "harivarman": 7855,
      "joachim": 7856,
      "gandhi": 7857,
      "nanak": 7858,
      "bruxelles": 7859,
      "ecuador": 7860,
      "%/": 7861,
      ")),": 7862,
      ",....": 7863,
      "917": 7864,
      "923": 7865,
      "athen": 7866,
      "cruz": 7867,
      "gmt": 7868,
      "há": 7869,
      "hác": 7870,
      "hí": 7871,
      "hdi": 7872,
      "i̇": 7873,
      "ise": 7874,
      "jeon": 7875,
      "kina": 7876,
      "krom": 7877,
      "lăm": 7878,
      "mả": 7879,
      "miệt": 7880,
      "nạo": 7881,
      "nạc": 7882,
      "nậu": 7883,
      "orang": 7884,
      "siêng": 7885,
      "tau": 7886,
      "vạc": 7887,
      "váy": 7888,
      "yy": 7889,
      "̈h": 7890,
      "hob": 7891,
      "antan": 7892,
      "cỏi": 7893,
      "rah": 7894,
      "tấp": 7895,
      "tẩu": 7896,
      "doạ": 7897,
      "too": 7898,
      "toy": 7899,
      "toshi": 7900,
      "lờ": 7901,
      "una": 7902,
      "ergas": 7903,
      "aro": 7904,
      "aram": 7905,
      "theorem": 7906,
      "roc": 7907,
      "conca": 7908,
      "seat": 7909,
      "som": 7910,
      "suhar": 7911,
      "189": 7912,
      "1855": 7913,
      "major": 7914,
      "rũ": 7915,
      "mour": 7916,
      "xéo": 7917,
      "1736": 7918,
      "1797": 7919,
      "nation": 7920,
      "estro": 7921,
      "166": 7922,
      "1630": 7923,
      "1437": 7924,
      "gọng": 7925,
      "xửng": 7926,
      "hed": 7927,
      "hep": 7928,
      "hebre": 7929,
      "guồng": 7930,
      "valo": 7931,
      "nghén": 7932,
      "thẹn": 7933,
      "rano": 7934,
      "young": 7935,
      "ppon": 7936,
      "tsky": 7937,
      "peri": 7938,
      "stat": 7939,
      "moni": 7940,
      "karst": 7941,
      "zawa": 7942,
      "queen": 7943,
      "queens": 7944,
      "derby": 7945,
      "garnier": 7946,
      "walter": 7947,
      "wski": 7948,
      "presen": 7949,
      "afri": 7950,
      "herbert": 7951,
      "genetic": 7952,
      "abc": 7953,
      "fuku": 7954,
      "wars": 7955,
      "gala": 7956,
      "zulu": 7957,
      "nhưỡng": 7958,
      "england": 7959,
      "policy": 7960,
      "celsius": 7961,
      "gainville": 7962,
      "elic": 7963,
      "clarke": 7964,
      "maximi": 7965,
      "ltd": 7966,
      "aristote": 7967,
      "bougainville": 7968,
      "spring": 7969,
      "murasaki": 7970,
      "ethno": 7971,
      "greenland": 7972,
      "blackberry": 7973,
      "churchill": 7974,
      "hilbert": 7975,
      "engineering": 7976,
      "indiana": 7977,
      "haddon": 7978,
      "princeton": 7979,
      "copenha": 7980,
      "uranium": 7981,
      "puerto": 7982,
      "people": 7983,
      "gabbana": 7984,
      "moscow": 7985,
      "beijing": 7986,
      "wirth": 7987,
      "soroban": 7988,
      "ergaster": 7989,
      "suharto": 7990,
      "hebrew": 7991,
      "''": 7992,
      "aki": 7993,
      "ave": 7994,
      "bói": 7995,
      "eur": 7996,
      "gard": 7997,
      "ida": 7998,
      "iet": 7999,
      "lạo": 8000,
      "lôn": 8001,
      "nà": 8002,
      "ow": 8003,
      "oro": 8004,
      "oid": 8005,
      "ody": 8006,
      "ppo": 8007,
      "sái": 8008,
      "sầu": 8009,
      "ssi": 8010,
      "uv": 8011,
      "use": 8012,
      "xế": 8013,
      "xước": 8014,
      "ngậm": 8015,
      "nhấp": 8016,
      "thới": 8017,
      "cun": 8018,
      "cùi": 8019,
      "ginia": 8020,
      "ann": 8021,
      "chỏm": 8022,
      "cọp": 8023,
      "amin": 8024,
      "chus": 8025,
      "rard": 8026,
      "loth": 8027,
      "nhàm": 8028,
      "tuý": 8029,
      "india": 8030,
      "tòi": 8031,
      "toni": 8032,
      "xus": 8033,
      "209": 8034,
      "hub": 8035,
      "conme": 8036,
      "séné": 8037,
      "sonian": 8038,
      "sụn": 8039,
      "empire": 8040,
      "tab": 8041,
      "boro": 8042,
      "dic": 8043,
      "disco": 8044,
      "mép": 8045,
      "buchad": 8046,
      "vista": 8047,
      "review": 8048,
      "lad": 8049,
      "nezzar": 8050,
      "nebuchad": 8051,
      "voya": 8052,
      "1810": 8053,
      "1813": 8054,
      "1866": 8055,
      "1863": 8056,
      "onal": 8057,
      "kevin": 8058,
      "thỏ": 8059,
      "lio": 8060,
      "moham": 8061,
      "mỳ": 8062,
      "myth": 8063,
      "172": 8064,
      "1729": 8065,
      "1744": 8066,
      "1741": 8067,
      "nagar": 8068,
      "159": 8069,
      "1573": 8070,
      "child": 8071,
      "1613": 8072,
      "1635": 8073,
      "1426": 8074,
      "dass": 8075,
      "1397": 8076,
      "goth": 8077,
      "hea": 8078,
      "head": 8079,
      "nếm": 8080,
      "mans": 8081,
      "user": 8082,
      "vada": 8083,
      "gates": 8084,
      "gaelic": 8085,
      "fortran": 8086,
      "1007": 8087,
      "worth": 8088,
      "lester": 8089,
      "brad": 8090,
      "delta": 8091,
      "delphia": 8092,
      "wak": 8093,
      "wara": 8094,
      "zee": 8095,
      "lẽo": 8096,
      "bêu": 8097,
      "dent": 8098,
      "vanua": 8099,
      "bombay": 8100,
      "leno": 8101,
      "979": 8102,
      "476": 8103,
      "1409": 8104,
      "crip": 8105,
      "frey": 8106,
      "georgia": 8107,
      "vices": 8108,
      "warner": 8109,
      "plata": 8110,
      "hydroxide": 8111,
      "blood": 8112,
      "biological": 8113,
      "carbonic": 8114,
      "smithsonian": 8115,
      "johannes": 8116,
      "venezia": 8117,
      "mamlu": 8118,
      "chàm": 8119,
      "edition": 8120,
      "esarhaddon": 8121,
      "atletico": 8122,
      "carbohydrat": 8123,
      "mouth": 8124,
      "encyclopedia": 8125,
      "punjab": 8126,
      "kissinger": 8127,
      "buddha": 8128,
      "sachsen": 8129,
      "canaan": 8130,
      "factbook": 8131,
      "languages": 8132,
      "philadelphia": 8133,
      "houston": 8134,
      "copenhagen": 8135,
      "conmebol": 8136,
      "sénégal": 8137,
      "nebuchadnezzar": 8138,
      "dassler": 8139,
      "vanuatu": 8140,
      "($": 8141,
      "310": 8142,
      "850": 8143,
      "937": 8144,
      "aer": 8145,
      "cv": 8146,
      "d3": 8147,
      "éc": 8148,
      "fron": 8149,
      "gn": 8150,
      "gân": 8151,
      "ipa": 8152,
      "ioc": 8153,
      "jia": 8154,
      "kiền": 8155,
      "mấu": 8156,
      "ỏi": 8157,
      "sl": 8158,
      "scu": 8159,
      "squ": 8160,
      "vali": 8161,
      "whit": 8162,
      "xóc": 8163,
      "zel": 8164,
      "³.": 8165,
      "̃ez": 8166,
      "thà": 8167,
      "thây": 8168,
      "ệch": 8169,
      "gis": 8170,
      "giồng": 8171,
      "việp": 8172,
      "cholester": 8173,
      "cõng": 8174,
      "indian": 8175,
      "tose": 8176,
      "eok": 8177,
      "huý": 8178,
      "arm": 8179,
      "artifi": 8180,
      "allah": 8181,
      "rö": 8182,
      "self": 8183,
      "đoản": 8184,
      "đoài": 8185,
      "sovo": 8186,
      "sure": 8187,
      "tatar": 8188,
      "dit": 8189,
      "tio": 8190,
      "nea": 8191,
      "nederland": 8192,
      "1829": 8193,
      "1879": 8194,
      "onto": 8195,
      "thắn": 8196,
      "thắp": 8197,
      "matt": 8198,
      "rủ": 8199,
      "1278": 8200,
      "1739": 8201,
      "1796": 8202,
      "nash": 8203,
      "thium": 8204,
      "1568": 8205,
      "cade": 8206,
      "1660": 8207,
      "1623": 8208,
      "1655": 8209,
      "1429": 8210,
      "1433": 8211,
      "1390": 8212,
      "hey": 8213,
      "heuris": 8214,
      "popper": 8215,
      "mile": 8216,
      "gur": 8217,
      "guja": 8218,
      "gusta": 8219,
      "manche": 8220,
      "nippon": 8221,
      "pete": 8222,
      "vate": 8223,
      "berger": 8224,
      "bernard": 8225,
      "thé": 8226,
      "nov": 8227,
      "nòi": 8228,
      "marse": 8229,
      "marck": 8230,
      "gabon": 8231,
      "ghts": 8232,
      "kā": 8233,
      "kosovo": 8234,
      "257": 8235,
      "2500": 8236,
      "proce": 8237,
      "hãnh": 8238,
      "228": 8239,
      "249": 8240,
      "mental": 8241,
      "santo": 8242,
      "cross": 8243,
      "guez": 8244,
      "chợt": 8245,
      "phèn": 8246,
      "jesus": 8247,
      "donau": 8248,
      "hổng": 8249,
      "arif": 8250,
      "diata": 8251,
      "kansai": 8252,
      "hằn": 8253,
      "fuji": 8254,
      "nissan": 8255,
      "histoire": 8256,
      "basque": 8257,
      "ieee": 8258,
      "líu": 8259,
      "christ": 8260,
      "kassite": 8261,
      "limi": 8262,
      "virginia": 8263,
      "alphabet": 8264,
      "shannon": 8265,
      "class": 8266,
      "daejeon": 8267,
      "function": 8268,
      "scientifi": 8269,
      "saddam": 8270,
      "number": 8271,
      "leptis": 8272,
      "britannica": 8273,
      "psycho": 8274,
      "soccer": 8275,
      "frederick": 8276,
      "championship": 8277,
      "taliban": 8278,
      "narita": 8279,
      "ubtvqh15": 8280,
      "nouvelle": 8281,
      "alexandria": 8282,
      "christopher": 8283,
      "western": 8284,
      "imperator": 8285,
      "concacaf": 8286,
      "cholesterol": 8287,
      "216": 8288,
      "430": 8289,
      "520": 8290,
      "970": 8291,
      "aba": 8292,
      "dì": 8293,
      "dang": 8294,
      "dres": 8295,
      "dhabi": 8296,
      "elo": 8297,
      "fau": 8298,
      "fta": 8299,
      "ğ": 8300,
      "gna": 8301,
      "hốc": 8302,
      "ipad": 8303,
      "kb": 8304,
      "kʼ": 8305,
      "kay": 8306,
      "kkin": 8307,
      "klins": 8308,
      "nc": 8309,
      "nk": 8310,
      "nư": 8311,
      "nau": 8312,
      "nôn": 8313,
      "ote": 8314,
      "ost": 8315,
      "ozon": 8316,
      "oxit": 8317,
      "pson": 8318,
      "pgs": 8319,
      "rặng": 8320,
      "rmb": 8321,
      "sty": 8322,
      "sậy": 8323,
      "sẫm": 8324,
      "spen": 8325,
      "tw": 8326,
      "thản": 8327,
      "thard": 8328,
      "giga": 8329,
      "gibral": 8330,
      "hono": 8331,
      "hoff": 8332,
      "andor": 8333,
      "nghai": 8334,
      "codd": 8335,
      "duk": 8336,
      "aipa": 8337,
      "loren": 8338,
      "vung": 8339,
      "mào": 8340,
      "insu": 8341,
      "tol": 8342,
      "toát": 8343,
      "lux": 8344,
      "luís": 8345,
      "húng": 8346,
      "allo": 8347,
      "conne": 8348,
      "sotho": 8349,
      "),...": 8350,
      "eme": 8351,
      "tahar": 8352,
      "differ": 8353,
      "titan": 8354,
      "but": 8355,
      "bùa": 8356,
      "baden": 8357,
      "lavo": 8358,
      "lahore": 8359,
      "vocalo": 8360,
      "1839": 8361,
      "deco": 8362,
      "kee": 8363,
      "kèn": 8364,
      "rub": 8365,
      "ruốc": 8366,
      "modi": 8367,
      "mogul": 8368,
      "bed": 8369,
      "beau": 8370,
      "bèo": 8371,
      "1231": 8372,
      "1277": 8373,
      "176": 8374,
      "1722": 8375,
      "natural": 8376,
      "phical": 8377,
      "1550": 8378,
      "cara": 8379,
      "1619": 8380,
      "1675": 8381,
      "141": 8382,
      "142": 8383,
      "1420": 8384,
      "1466": 8385,
      "pound": 8386,
      "mìn": 8387,
      "guó": 8388,
      "chừ": 8389,
      "kiri": 8390,
      "ushu": 8391,
      "paci": 8392,
      "pei": 8393,
      "thebes": 8394,
      "carol": 8395,
      "fit": 8396,
      "kah": 8397,
      "gène": 8398,
      "vers": 8399,
      "lini": 8400,
      "kos": 8401,
      "sys": 8402,
      "255": 8403,
      "produ": 8404,
      "giỏ": 8405,
      "224": 8406,
      "sense": 8407,
      "1785": 8408,
      "jules": 8409,
      "juku": 8410,
      "ronald": 8411,
      "dale": 8412,
      "bala": 8413,
      "wald": 8414,
      "exp": 8415,
      "hart": 8416,
      "voice": 8417,
      "rene": 8418,
      "stewart": 8419,
      "graham": 8420,
      "pictures": 8421,
      "sundiata": 8422,
      "britain": 8423,
      "damas": 8424,
      "frankenstein": 8425,
      "iniesta": 8426,
      "castro": 8427,
      "player": 8428,
      "diesel": 8429,
      "ultra": 8430,
      "magnus": 8431,
      "bruce": 8432,
      "ipv": 8433,
      "planck": 8434,
      "malawi": 8435,
      "virgin": 8436,
      "guardian": 8437,
      "columbus": 8438,
      "falcon": 8439,
      "touch": 8440,
      "silicat": 8441,
      "aceh": 8442,
      "chaldea": 8443,
      "zambia": 8444,
      "sign": 8445,
      "tainment": 8446,
      "jackson": 8447,
      "alumina": 8448,
      "cooper": 8449,
      "about": 8450,
      "publishing": 8451,
      "tobago": 8452,
      "ichiro": 8453,
      "smalltalk": 8454,
      "lications": 8455,
      "ounce": 8456,
      "turkmenistan": 8457,
      "nickel": 8458,
      "aristoteles": 8459,
      "artificial": 8460,
      "kkinen": 8461,
      "gibraltar": 8462,
      "taharqa": 8463,
      "vocaloid": 8464,
      "2d": 8465,
      "218": 8466,
      "316": 8467,
      "]]": 8468,
      "ā": 8469,
      "avi": 8470,
      "ater": 8471,
      "aden": 8472,
      "agas": 8473,
      "bb": 8474,
      "bực": 8475,
      "cry": 8476,
      "fr": 8477,
      "fet": 8478,
      "g7": 8479,
      "găng": 8480,
      "grau": 8481,
      "gặm": 8482,
      "gps": 8483,
      "hạp": 8484,
      "ile": 8485,
      "jang": 8486,
      "jas": 8487,
      "mích": 8488,
      "nấp": 8489,
      "náu": 8490,
      "oxi": 8491,
      "pm": 8492,
      "pdp": 8493,
      "pênh": 8494,
      "pnas": 8495,
      "reo": 8496,
      "sê": 8497,
      "sạt": 8498,
      "spar": 8499,
      "swa": 8500,
      "tía": 8501,
      "vạ": 8502,
      "vắn": 8503,
      "vừng": 8504,
      "vãng": 8505,
      "wes": 8506,
      "xt": 8507,
      "xang": 8508,
      "yl": 8509,
      "yard": 8510,
      "zero": 8511,
      "nhức": 8512,
      "chệch": 8513,
      "trặc": 8514,
      "trảm": 8515,
      "phiếm": 8516,
      "cut": 8517,
      "giun": 8518,
      "giles": 8519,
      "how": 8520,
      "hots": 8521,
      "anthon": 8522,
      "cói": 8523,
      "cole": 8524,
      "dũ": 8525,
      "amar": 8526,
      "rak": 8527,
      "rado": 8528,
      "truth": 8529,
      "lö": 8530,
      "lọng": 8531,
      "vụng": 8532,
      "domi": 8533,
      "indu": 8534,
      "insi": 8535,
      "tov": 8536,
      "tori": 8537,
      "togo": 8538,
      "totte": 8539,
      "lud": 8540,
      "cưa": 8541,
      "207": 8542,
      "ngỏ": 8543,
      "bịt": 8544,
      "enli": 8545,
      "alco": 8546,
      "algar": 8547,
      "seg": 8548,
      "taksin": 8549,
      "body": 8550,
      "leus": 8551,
      "tỉa": 8552,
      "tica": 8553,
      "tival": 8554,
      "ref": 8555,
      "rex": 8556,
      "republic": 8557,
      "represen": 8558,
      "nei": 8559,
      "lười": 8560,
      "182": 8561,
      "dev": 8562,
      "map": 8563,
      "teen": 8564,
      "ride": 8565,
      "rique": 8566,
      "little": 8567,
      "mous": 8568,
      "xel": 8569,
      "1216": 8570,
      "1293": 8571,
      "nur": 8572,
      "152": 8573,
      "155": 8574,
      "157": 8575,
      "1525": 8576,
      "1535": 8577,
      "case": 8578,
      "sio": 8579,
      "164": 8580,
      "168": 8581,
      "1674": 8582,
      "1694": 8583,
      "1689": 8584,
      "1434": 8585,
      "1479": 8586,
      "sak": 8587,
      "gover": 8588,
      "pong": 8589,
      "manu": 8590,
      "mannheim": 8591,
      "vey": 8592,
      "vegas": 8593,
      "pagan": 8594,
      "hyun": 8595,
      "nick": 8596,
      "thèm": 8597,
      "nokia": 8598,
      "marcus": 8599,
      "week": 8600,
      "ghz": 8601,
      "kat": 8602,
      "facto": 8603,
      "tonin": 8604,
      "wing": 8605,
      "jou": 8606,
      "kō": 8607,
      "shia": 8608,
      "shim": 8609,
      "atlan": 8610,
      "mendel": 8611,
      "sanid": 8612,
      "hamas": 8613,
      "zegovina": 8614,
      "logie": 8615,
      "nhẹn": 8616,
      "ogra": 8617,
      "minis": 8618,
      "micronesia": 8619,
      "ballon": 8620,
      "thaksin": 8621,
      "htar": 8622,
      "acre": 8623,
      "diode": 8624,
      "stefan": 8625,
      "leopold": 8626,
      "herzegovina": 8627,
      "print": 8628,
      "939": 8629,
      "turk": 8630,
      "turner": 8631,
      "store": 8632,
      "austro": 8633,
      "shah": 8634,
      "josep": 8635,
      "1209": 8636,
      "politan": 8637,
      "gordon": 8638,
      "bourne": 8639,
      "bourbon": 8640,
      "polymer": 8641,
      "lord": 8642,
      "sargon": 8643,
      "computing": 8644,
      "auguste": 8645,
      "arab": 8646,
      "collec": 8647,
      "ign": 8648,
      "lyonnais": 8649,
      "françai": 8650,
      "bismarck": 8651,
      "maurice": 8652,
      "huacan": 8653,
      "evolutionary": 8654,
      "kirch": 8655,
      "catalonia": 8656,
      "alfredo": 8657,
      "sarawak": 8658,
      "tablet": 8659,
      "reich": 8660,
      "festival": 8661,
      "foreign": 8662,
      "nikolai": 8663,
      "academ": 8664,
      "entertainment": 8665,
      "ajax": 8666,
      "batavia": 8667,
      "ernest": 8668,
      "introduction": 8669,
      "hudson": 8670,
      "capital": 8671,
      "toshiba": 8672,
      "maximilian": 8673,
      "square": 8674,
      "agassi": 8675,
      "anthony": 8676,
      "tottenham": 8677,
      ")-": 8678,
      "/[": 8679,
      "217": 8680,
      "410": 8681,
      "470": 8682,
      "570": 8683,
      "670": 8684,
      "911": 8685,
      ":[": 8686,
      "]\".": 8687,
      "aw": 8688,
      "bôn": 8689,
      "brain": 8690,
      "cti": 8691,
      "cres": 8692,
      "ctions": 8693,
      "dl": 8694,
      "eta": 8695,
      "fai": 8696,
      "ffrey": 8697,
      "gt": 8698,
      "gượng": 8699,
      "gros": 8700,
      "ike": 8701,
      "iki": 8702,
      "ius": 8703,
      "jet": 8704,
      "kền": 8705,
      "klose": 8706,
      "lóng": 8707,
      "lgb": 8708,
      "lhq": 8709,
      "pn": 8710,
      "pam": 8711,
      "rốn": 8712,
      "sz": 8713,
      "uý": 8714,
      "zia": 8715,
      "zhe": 8716,
      "zid": 8717,
      "đb": 8718,
      "đt": 8719,
      "đv": 8720,
      "đậy": 8721,
      "̈ik": 8722,
      "ngấm": 8723,
      "thre": 8724,
      "árez": 8725,
      "chải": 8726,
      "chten": 8727,
      "phộng": 8728,
      "phnôm": 8729,
      "kheo": 8730,
      "khrush": 8731,
      "qur": 8732,
      "hof": 8733,
      "họng": 8734,
      "anci": 8735,
      "colo": 8736,
      "coda": 8737,
      "coul": 8738,
      "aina": 8739,
      "chuồng": 8740,
      "räik": 8741,
      "lõm": 8742,
      "kyushu": 8743,
      "tuê": 8744,
      "tủa": 8745,
      "tuva": 8746,
      "dores": 8747,
      "index": 8748,
      "toạ": 8749,
      "203": 8750,
      "hus": 8751,
      "thừng": 8752,
      "ene": 8753,
      "concept": 8754,
      "emo": 8755,
      "tac": 8756,
      "bow": 8757,
      "bold": 8758,
      "lehman": 8759,
      "diamon": 8760,
      "bahamas": 8761,
      "vira": 8762,
      "vish": 8763,
      "rén": 8764,
      "ims": 8765,
      "imer": 8766,
      "isen": 8767,
      "1837": 8768,
      "1857": 8769,
      "magaz": 8770,
      "teng": 8771,
      "rida": 8772,
      "mọng": 8773,
      "1290": 8774,
      "1760": 8775,
      "1758": 8776,
      "153": 8777,
      "1519": 8778,
      "1597": 8779,
      "1599": 8780,
      "sive": 8781,
      "161": 8782,
      "167": 8783,
      "1634": 8784,
      "1414": 8785,
      "1435": 8786,
      "sadd": 8787,
      "132": 8788,
      "nhuế": 8789,
      "god": 8790,
      "hegel": 8791,
      "mitsu": 8792,
      "tanie": 8793,
      "...;": 8794,
      "ust": 8795,
      "piano": 8796,
      "cilia": 8797,
      "cannes": 8798,
      "cardo": 8799,
      "ghê": 8800,
      "cambo": 8801,
      "ngừ": 8802,
      "wire": 8803,
      "jō": 8804,
      "]);": 8805,
      "linois": 8806,
      "kobe": 8807,
      "shtra": 8808,
      "prost": 8809,
      "taine": 8810,
      "xoang": 8811,
      "percy": 8812,
      "sankt": 8813,
      "illinois": 8814,
      "264": 8815,
      "analog": 8816,
      "common": 8817,
      "tors": 8818,
      "stade": 8819,
      "stadt": 8820,
      "gris": 8821,
      "giễu": 8822,
      "minster": 8823,
      "1809": 8824,
      "986": 8825,
      "954": 8826,
      "porsche": 8827,
      "485": 8828,
      "bulle": 8829,
      "action": 8830,
      "ayak": 8831,
      "1401": 8832,
      "louvre": 8833,
      "hermann": 8834,
      "ttnt": 8835,
      "stanley": 8836,
      "nến": 8837,
      "dynam": 8838,
      "airbus": 8839,
      "stok": 8840,
      "engel": 8841,
      "schmid": 8842,
      "wells": 8843,
      "simpson": 8844,
      "blog": 8845,
      "gond": 8846,
      "mccar": 8847,
      "shelley": 8848,
      "peterburg": 8849,
      "blake": 8850,
      "year": 8851,
      "könen": 8852,
      "westminster": 8853,
      "gaulois": 8854,
      "spam": 8855,
      "namese": 8856,
      "crete": 8857,
      "based": 8858,
      "mauritanie": 8859,
      "phaolô": 8860,
      "challe": 8861,
      "street": 8862,
      "mhz": 8863,
      "caroling": 8864,
      "brooklyn": 8865,
      "carthage": 8866,
      "dhaka": 8867,
      "ebola": 8868,
      "rhodesia": 8869,
      "emperor": 8870,
      "population": 8871,
      "shikibu": 8872,
      "athena": 8873,
      "seattle": 8874,
      "école": 8875,
      "marseille": 8876,
      "klinsmann": 8877,
      "andorra": 8878,
      "algarve": 8879,
      "française": 8880,
      "lgbt": 8881,
      "codasyl": 8882,
      "coulthard": 8883,
      "räikkönen": 8884,
      "diamond": 8885,
      "()": 8886,
      ")\",": 8887,
      "119": 8888,
      "321": 8889,
      "395": 8890,
      "770": 8891,
      "==": 8892,
      "brea": 8893,
      "cạo": 8894,
      "cci": 8895,
      "d2": 8896,
      "dho": 8897,
      "diệc": 8898,
      "ein": 8899,
      "fish": 8900,
      "gru": 8901,
      "lẩn": 8902,
      "lsi": 8903,
      "lằn": 8904,
      "nlp": 8905,
      "rne": 8906,
      "sg": 8907,
      "siết": 8908,
      "spre": 8909,
      "sport": 8910,
      "tm": 8911,
      "vá": 8912,
      "vữa": 8913,
      "x2": 8914,
      "xắc": 8915,
      "zhu": 8916,
      "zhi": 8917,
      "²)": 8918,
      "́l": 8919,
      "ngrad": 8920,
      "nhấm": 8921,
      "chas": 8922,
      "chồi": 8923,
      "chẵn": 8924,
      "phis": 8925,
      "phat": 8926,
      "quẩn": 8927,
      "homer": 8928,
      "ím": 8929,
      "đễ": 8930,
      "annam": 8931,
      "anda": 8932,
      "choàng": 8933,
      "cov": 8934,
      "cobol": 8935,
      "độn": 8936,
      "chum": 8937,
      "chū": 8938,
      "lọ": 8939,
      "lock": 8940,
      "audi": 8941,
      "nhào": 8942,
      "tuẫn": 8943,
      "dō": 8944,
      "dore": 8945,
      "luang": 8946,
      "lucy": 8947,
      "saurus": 8948,
      "arya": 8949,
      "content": 8950,
      "bora": 8951,
      "boxing": 8952,
      "lexus": 8953,
      "mee": 8954,
      "meh": 8955,
      "buri": 8956,
      "bag": 8957,
      "villen": 8958,
      "rèm": 8959,
      "recon": 8960,
      "last": 8961,
      "vor": 8962,
      "ishtar": 8963,
      "187": 8964,
      "1816": 8965,
      "1825": 8966,
      "kell": 8967,
      "mati": 8968,
      "mahara": 8969,
      "rive": 8970,
      "rule": 8971,
      "being": 8972,
      "mya": 8973,
      "1218": 8974,
      "1234": 8975,
      "1768": 8976,
      "1743": 8977,
      "1751": 8978,
      "1769": 8979,
      "navar": 8980,
      "1542": 8981,
      "1567": 8982,
      "169": 8983,
      "1610": 8984,
      "1693": 8985,
      "1646": 8986,
      "1688": 8987,
      "1418": 8988,
      "dah": 8989,
      "1350": 8990,
      "1329": 8991,
      "1394": 8992,
      "1381": 8993,
      "goe": 8994,
      "gott": 8995,
      "cepha": 8996,
      "health": 8997,
      "pod": 8998,
      "pou": 8999,
      "pongo": 9000,
      "mie": 9001,
      "aston": 9002,
      "asimo": 9003,
      "chey": 9004,
      "kiev": 9005,
      "veh": 9006,
      "lain": 9007,
      "vía": 9008,
      "nicho": 9009,
      "pel": 9010,
      "pelle": 9011,
      "pixel": 9012,
      "martín": 9013,
      "305": 9014,
      "wick": 9015,
      "alian": 9016,
      "kota": 9017,
      "force": 9018,
      "yō": 9019,
      "yong": 9020,
      "urai": 9021,
      "urban": 9022,
      "ats": 9023,
      "dinho": 9024,
      "euve": 9025,
      "words": 9026,
      "sons": 9027,
      "monde": 9028,
      "serra": 9029,
      "services": 9030,
      "anol": 9031,
      "jür": 9032,
      "1808": 9033,
      "fergu": 9034,
      "walton": 9035,
      "wallace": 9036,
      "exchange": 9037,
      "982": 9038,
      "951": 9039,
      "electric": 9040,
      "487": 9041,
      "cyte": 9042,
      "eries": 9043,
      "pyg": 9044,
      "kingdom": 9045,
      "africa": 9046,
      "baidu": 9047,
      "graphy": 9048,
      "1509": 9049,
      "utc": 9050,
      "ics": 9051,
      "norris": 9052,
      "ffen": 9053,
      "transla": 9054,
      "napoli": 9055,
      "brother": 9056,
      "jamaica": 9057,
      "hittite": 9058,
      "caspi": 9059,
      "1206": 9060,
      "celtic": 9061,
      "andreas": 9062,
      "playstation": 9063,
      "bloom": 9064,
      "neymar": 9065,
      "jorge": 9066,
      "khuỷu": 9067,
      "obje": 9068,
      "bundes": 9069,
      "granth": 9070,
      "granada": 9071,
      "germanic": 9072,
      "kash": 9073,
      "kaspar": 9074,
      "julian": 9075,
      "subroutine": 9076,
      "schengen": 9077,
      "mammal": 9078,
      "mauritius": 9079,
      "huawei": 9080,
      "keita": 9081,
      "betawi": 9082,
      "culture": 9083,
      "cultural": 9084,
      "melbourne": 9085,
      "bernabeu": 9086,
      "moritz": 9087,
      "sebasti": 9088,
      "moravia": 9089,
      "physio": 9090,
      "icij": 9091,
      "chloride": 9092,
      "original": 9093,
      "tivity": 9094,
      "châtel": 9095,
      "processing": 9096,
      "hispanic": 9097,
      "basileus": 9098,
      "hđh": 9099,
      "algeria": 9100,
      "access": 9101,
      "distribu": 9102,
      "garden": 9103,
      "ietf": 9104,
      "limited": 9105,
      "pacific": 9106,
      "ikigai": 9107,
      "zidane": 9108,
      "đbqh": 9109,
      "khrushchev": 9110,
      "villeneuve": 9111,
      "\"-": 9112,
      ")\"": 9113,
      "460": 9114,
      "435": 9115,
      "780": 9116,
      "a1": 9117,
      "aa": 9118,
      "acha": 9119,
      "bt": 9120,
      "bx": 9121,
      "búp": 9122,
      "dầm": 9123,
      "dji": 9124,
      "eprom": 9125,
      "gm": 9126,
      "gập": 9127,
      "gli": 9128,
      "gst": 9129,
      "gắm": 9130,
      "gaugu": 9131,
      "hăm": 9132,
      "hali": 9133,
      "iz": 9134,
      "jes": 9135,
      "niết": 9136,
      "nun": 9137,
      "ocon": 9138,
      "p2": 9139,
      "pli": 9140,
      "pina": 9141,
      "rcep": 9142,
      "sd": 9143,
      "sr": 9144,
      "sli": 9145,
      "ston": 9146,
      "scy": 9147,
      "shor": 9148,
      "two": 9149,
      "uli": 9150,
      "vau": 9151,
      "vắt": 9152,
      "vưu": 9153,
      "yff": 9154,
      "ό": 9155,
      "ngây": 9156,
      "nhái": 9157,
      "ớc": 9158,
      "ầng": 9159,
      "chốc": 9160,
      "chắp": 9161,
      "chóc": 9162,
      "triền": 9163,
      "tras": 9164,
      "phớ": 9165,
      "khar": 9166,
      "quầy": 9167,
      "giơ": 9168,
      "giương": 9169,
      "giàng": 9170,
      "sưng": 9171,
      "host": 9172,
      "coco": 9173,
      "copy": 9174,
      "đôla": 9175,
      "angle": 9176,
      "loch": 9177,
      "câm": 9178,
      "cấn": 9179,
      "tuta": 9180,
      "inclu": 9181,
      "tong": 9182,
      "khít": 9183,
      "sauber": 9184,
      "hugh": 9185,
      "aris": 9186,
      "arts": 9187,
      "ento": 9188,
      "muống": 9189,
      "phobos": 9190,
      "confe": 9191,
      "suzu": 9192,
      "dison": 9193,
      "melo": 9194,
      "metho": 9195,
      "bú": 9196,
      "bung": 9197,
      "baker": 9198,
      "basel": 9199,
      "rel": 9200,
      "ned": 9201,
      "́at": 9202,
      "tya": 9203,
      "1817": 9204,
      "1845": 9205,
      "1836": 9206,
      "1843": 9207,
      "1852": 9208,
      "ont": 9209,
      "ony": 9210,
      "dee": 9211,
      "1070": 9212,
      "1077": 9213,
      "1066": 9214,
      "hira": 9215,
      "moun": 9216,
      "bẹp": 9217,
      "1210": 9218,
      "1260": 9219,
      "1280": 9220,
      "1721": 9221,
      "1798": 9222,
      "1766": 9223,
      "1759": 9224,
      "nak": 9225,
      "156": 9226,
      "1556": 9227,
      "cate": 9228,
      "catho": 9229,
      "1682": 9230,
      "satsu": 9231,
      "goto": 9232,
      "pom": 9233,
      "mike": 9234,
      "vation": 9235,
      "bern": 9236,
      "genesis": 9237,
      "cỗi": 9238,
      "trat": 9239,
      "tradi": 9240,
      "nol": 9241,
      "marcel": 9242,
      "mario": 9243,
      "mariner": 9244,
      "marduk": 9245,
      "pul": 9246,
      "cité": 9247,
      "cantor": 9248,
      "gaku": 9249,
      "kati": 9250,
      "sts": 9251,
      "jah": 9252,
      "rane": 9253,
      "forms": 9254,
      "259": 9255,
      "profes": 9256,
      "aten": 9257,
      "mere": 9258,
      "605": 9259,
      "223": 9260,
      "246": 9261,
      "vidia": 9262,
      "275": 9263,
      "perón": 9264,
      "calaure": 9265,
      "265": 9266,
      "edvac": 9267,
      "toria": 9268,
      "torres": 9269,
      "torval": 9270,
      "ftp": 9271,
      "zebu": 9272,
      "khứu": 9273,
      "service": 9274,
      "belle": 9275,
      "microsystems": 9276,
      "champs": 9277,
      "trek": 9278,
      "shira": 9279,
      "gash": 9280,
      "burkina": 9281,
      "cytok": 9282,
      "found": 9283,
      "hangul": 9284,
      "999": 9285,
      "ways": 9286,
      "samurai": 9287,
      "1405": 9288,
      "afar": 9289,
      "benjam": 9290,
      "hers": 9291,
      "dravarman": 9292,
      "prius": 9293,
      "borg": 9294,
      "morris": 9295,
      "heide": 9296,
      "josef": 9297,
      "zona": 9298,
      "gilbert": 9299,
      "jayavarman": 9300,
      "lars": 9301,
      "pré": 9302,
      "laurent": 9303,
      "studio": 9304,
      "gaule": 9305,
      "cacbo": 9306,
      "vietnamese": 9307,
      "nardo": 9308,
      "commun": 9309,
      "vỹ": 9310,
      "barack": 9311,
      "bissau": 9312,
      "highlands": 9313,
      "1175": 9314,
      "shinjuku": 9315,
      "nikko": 9316,
      "keith": 9317,
      "manden": 9318,
      "baccalaure": 9319,
      "econom": 9320,
      "cookie": 9321,
      "associa": 9322,
      "leiden": 9323,
      "hemoglobin": 9324,
      "cruyff": 9325,
      "phospho": 9326,
      "shamash": 9327,
      "wright": 9328,
      "easter": 9329,
      "abdul": 9330,
      "jacob": 9331,
      "blench": 9332,
      "pearl": 9333,
      "tepetl": 9334,
      "personal": 9335,
      "trêu": 9336,
      "michelin": 9337,
      "financial": 9338,
      "portugal": 9339,
      "gờm": 9340,
      "silverstone": 9341,
      "museum": 9342,
      "senegal": 9343,
      "hobbes": 9344,
      "estrogen": 9345,
      "gujarat": 9346,
      "scientific": 9347,
      "magazine": 9348,
      "bulletin": 9349,
      "gondwana": 9350,
      "ferguson": 9351,
      "kasparov": 9352,
      "gauguin": 9353,
      "torvalds": 9354,
      "cytokine": 9355,
      "benjamin": 9356,
      "baccalauréat": 9357,
      "340": 9358,
      "398": 9359,
      "433": 9360,
      "468": 9361,
      "545": 9362,
      "bới": 9363,
      "blai": 9364,
      "bmw": 9365,
      "cước": 9366,
      "fam": 9367,
      "fus": 9368,
      "feld": 9369,
      "ganh": 9370,
      "g20": 9371,
      "gno": 9372,
      "ibra": 9373,
      "jay": 9374,
      "jel": 9375,
      "kn": 9376,
      "kris": 9377,
      "kami": 9378,
      "lg": 9379,
      "lóc": 9380,
      "m3": 9381,
      "mải": 9382,
      "n1": 9383,
      "n2": 9384,
      "nâ": 9385,
      "nậm": 9386,
      "nặn": 9387,
      "nbc": 9388,
      "oliver": 9389,
      "rer": 9390,
      "sảo": 9391,
      "sburg": 9392,
      "slee": 9393,
      "snow": 9394,
      "ssure": 9395,
      "tland": 9396,
      "tcp": 9397,
      "ü": 9398,
      "ural": 9399,
      "vặn": 9400,
      "wins": 9401,
      "whis": 9402,
      "xao": 9403,
      "zai": 9404,
      "³,": 9405,
      "̀e": 9406,
      "̃o": 9407,
      "̌n": 9408,
      "ngạt": 9409,
      "chơ": 9410,
      "chiểu": 9411,
      "trơ": 9412,
      "cueva": 9413,
      "khaz": 9414,
      "quầng": 9415,
      "troy": 9416,
      "anne": 9417,
      "anthro": 9418,
      "chòi": 9419,
      "thuý": 9420,
      "dum": 9421,
      "trum": 9422,
      "logue": 9423,
      "aung": 9424,
      "auck": 9425,
      "vùi": 9426,
      "dok": 9427,
      "info": 9428,
      "lụi": 9429,
      "mốt": 9430,
      "xui": 9431,
      "xuy": 9432,
      "xuồng": 9433,
      "saussure": 9434,
      "archa": 9435,
      "mụ": 9436,
      "muỗi": 9437,
      "theodor": 9438,
      "alps": 9439,
      "rob": 9440,
      "roberto": 9441,
      "cons": 9442,
      "semi": 9443,
      "suv": 9444,
      "sury": 9445,
      "tata": 9446,
      "tational": 9447,
      "bohr": 9448,
      "borough": 9449,
      "dient": 9450,
      "metal": 9451,
      "bā": 9452,
      "vỉa": 9453,
      "vius": 9454,
      "labs": 9455,
      "vỏn": 9456,
      "vostok": 9457,
      "isca": 9458,
      "1824": 9459,
      "1823": 9460,
      "1844": 9461,
      "quýt": 9462,
      "deen": 9463,
      "defini": 9464,
      "band": 9465,
      "mater": 9466,
      "rier": 9467,
      "riche": 9468,
      "thou": 9469,
      "thoán": 9470,
      "rủa": 9471,
      "lig": 9472,
      "moss": 9473,
      "171": 9474,
      "1711": 9475,
      "1772": 9476,
      "1754": 9477,
      "ord": 9478,
      "ort": 9479,
      "este": 9480,
      "158": 9481,
      "1595": 9482,
      "1546": 9483,
      "1594": 9484,
      "chiang": 9485,
      "1645": 9486,
      "1647": 9487,
      "1651": 9488,
      "147": 9489,
      "149": 9490,
      "1413": 9491,
      "1430": 9492,
      "1459": 9493,
      "dahome": 9494,
      "saar": 9495,
      "136": 9496,
      "139": 9497,
      "1314": 9498,
      "1367": 9499,
      "1396": 9500,
      "termin": 9501,
      "héc": 9502,
      "mill": 9503,
      "gü": 9504,
      "guer": 9505,
      "pav": 9506,
      "pace": 9507,
      "hypo": 9508,
      "niken": 9509,
      "trie": 9510,
      "hasa": 9511,
      "have": 9512,
      "bero": 9513,
      "gent": 9514,
      "pira": 9515,
      "307": 9516,
      "309": 9517,
      "cil": 9518,
      "weber": 9519,
      "parti": 9520,
      "camera": 9521,
      "2026": 9522,
      "tony": 9523,
      "cks": 9524,
      "rana": 9525,
      "kopa": 9526,
      "253": 9527,
      "sher": 9528,
      "mero": 9529,
      "nguỵ": 9530,
      "leste": 9531,
      "231": 9532,
      "menu": 9533,
      "802": 9534,
      "sana": 9535,
      "sant": 9536,
      "ilia": 9537,
      "rail": 9538,
      "285": 9539,
      "staten": 9540,
      "raúl": 9541,
      "anders": 9542,
      "list": 9543,
      "feren": 9544,
      "thak": 9545,
      "453": 9546,
      "361": 9547,
      "exam": 9548,
      "harma": 9549,
      "385": 9550,
      "971": 9551,
      "acti": 9552,
      "arius": 9553,
      "arizona": 9554,
      "charlie": 9555,
      "corin": 9556,
      "here": 9557,
      "herman": 9558,
      "priest": 9559,
      "valley": 9560,
      "gradient": 9561,
      "1505": 9562,
      "rosso": 9563,
      "northern": 9564,
      "woo": 9565,
      "morgan": 9566,
      "zio": 9567,
      "appli": 9568,
      "agne": 9569,
      "kers": 9570,
      "chóp": 9571,
      "1306": 9572,
      "fritz": 9573,
      "origin": 9574,
      "cdc": 9575,
      "lorca": 9576,
      "1707": 9577,
      "shō": 9578,
      "konrad": 9579,
      "caust": 9580,
      "kaiser": 9581,
      "floren": 9582,
      "slot": 9583,
      "ernst": 9584,
      "bouti": 9585,
      "indrapura": 9586,
      "heinrich": 9587,
      "philosophical": 9588,
      "ahmed": 9589,
      "mariana": 9590,
      "sassanid": 9591,
      "antwer": 9592,
      "graphic": 9593,
      "graphics": 9594,
      "carolina": 9595,
      "symbo": 9596,
      "early": 9597,
      "encyclop": 9598,
      "andrés": 9599,
      "holocaust": 9600,
      "rơm": 9601,
      "carthago": 9602,
      "ryukyu": 9603,
      "classification": 9604,
      "altair": 9605,
      "delaware": 9606,
      "document": 9607,
      "clinton": 9608,
      "tools": 9609,
      "australopithecus": 9610,
      "bronx": 9611,
      "comoros": 9612,
      "nineveh": 9613,
      "baptiste": 9614,
      "ghềnh": 9615,
      "wolfgang": 9616,
      "orange": 9617,
      "fukuoka": 9618,
      "mamluk": 9619,
      "ontology": 9620,
      "damascus": 9621,
      "magnussen": 9622,
      "löw": 9623,
      "ludwig": 9624,
      "representation": 9625,
      "chtenstein": 9626,
      "cambodia": 9627,
      "goethe": 9628,
      "jürgen": 9629,
      "djibouti": 9630,
      "cacbonic": 9631,
      "economist": 9632,
      "ibrahim": 9633,
      "auckland": 9634,
      "dahomey": 9635,
      "(~": 9636,
      "2o": 9637,
      "314": 9638,
      "328": 9639,
      "438": 9640,
      "541": 9641,
      "880": 9642,
      "990": 9643,
      "931": 9644,
      "995": 9645,
      "967": 9646,
      "?),": 9647,
      "asa": 9648,
      "aber": 9649,
      "bam": 9650,
      "beo": 9651,
      "b12": 9652,
      "bớ": 9653,
      "biếng": 9654,
      "css": 9655,
      "dh": 9656,
      "dz": 9657,
      "dẳng": 9658,
      "dns": 9659,
      "eda": 9660,
      "equi": 9661,
      "fl": 9662,
      "g8": 9663,
      "hê": 9664,
      "iu": 9665,
      "kl": 9666,
      "mck": 9667,
      "nim": 9668,
      "nạm": 9669,
      "nvidia": 9670,
      "pô": 9671,
      "pci": 9672,
      "rc": 9673,
      "rdo": 9674,
      "râm": 9675,
      "sạ": 9676,
      "sành": 9677,
      "sấy": 9678,
      "scan": 9679,
      "tb": 9680,
      "tột": 9681,
      "tớ": 9682,
      "uta": 9683,
      "utre": 9684,
      "vr": 9685,
      "vine": 9686,
      "xẩm": 9687,
      "̈d": 9688,
      "ngốc": 9689,
      "nhớt": 9690,
      "nháy": 9691,
      "thin": 9692,
      "chĩa": 9693,
      "trạc": 9694,
      "phông": 9695,
      "phớt": 9696,
      "khất": 9697,
      "khản": 9698,
      "quáng": 9699,
      "gib": 9700,
      "trọc": 9701,
      "ankara": 9702,
      "ổm": 9703,
      "chō": 9704,
      "choang": 9705,
      "chola": 9706,
      "đốm": 9707,
      "băm": 9708,
      "tucky": 9709,
      "tone": 9710,
      "tomé": 9711,
      "luc": 9712,
      "unf": 9713,
      "entes": 9714,
      "mud": 9715,
      "muisca": 9716,
      "alha": 9717,
      "altepetl": 9718,
      "ror": 9719,
      "roll": 9720,
      "ross": 9721,
      "rout": 9722,
      "cond": 9723,
      "concor": 9724,
      "console": 9725,
      "seti": 9726,
      "sequen": 9727,
      "setia": 9728,
      "selection": 9729,
      "ngỗng": 9730,
      "suici": 9731,
      "suárez": 9732,
      "boer": 9733,
      "leng": 9734,
      "dick": 9735,
      "đụn": 9736,
      "timi": 9737,
      "mei": 9738,
      "methy": 9739,
      "búi": 9740,
      "lự": 9741,
      "bass": 9742,
      "bachev": 9743,
      "ợn": 9744,
      "iser": 9745,
      "1849": 9746,
      "oni": 9747,
      "delou": 9748,
      "depart": 9749,
      "design": 9750,
      "hide": 9751,
      "maxi": 9752,
      "magy": 9753,
      "matsu": 9754,
      "tee": 9755,
      "teu": 9756,
      "rij": 9757,
      "rizal": 9758,
      "thom": 9759,
      "lix": 9760,
      "litera": 9761,
      "lithium": 9762,
      "moc": 9763,
      "xẻo": 9764,
      "1232": 9765,
      "1259": 9766,
      "1712": 9767,
      "1730": 9768,
      "1753": 9769,
      "1757": 9770,
      "oran": 9771,
      "naci": 9772,
      "eswa": 9773,
      "1522": 9774,
      "1548": 9775,
      "1539": 9776,
      "casa": 9777,
      "chief": 9778,
      "1650": 9779,
      "1631": 9780,
      "1656": 9781,
[...]
