{
  "version": "1.0",
  "truncation": null,
  "padding": null,
  "added_tokens": [
    {
      "id": 0,
      "content": "[PAD]",
      "single_word": false,
      "lstrip": false,
      "rstrip": false,
      "normalized": false,
      "special": true
    },
    {
      "id": 1,
      "content": "[UNK]",
      "single_word": false,
      "lstrip": false,
      "rstrip": false,
      "normalized": false,
      "special": true
    },
    {
      "id": 2,
      "content": "[CLS]",
      "single_word": false,
      "lstrip": false,
      "rstrip": false,
      "normalized": false,
      "special": true
    },
    {
      "id": 3,
      "content": "[SEP]",
      "single_word": false,
      "lstrip": false,
      "rstrip": false,
      "normalized": false,
      "special": true
    },
    {
      "id": 4,
      "content": "[MASK]",
      "single_word": false,
      "lstrip": false,
      "rstrip": false,
      "normalized": false,
      "special": true
    },
    {
      "id": 5,
      "content": "[BOS]",
      "single_word": false,
      "lstrip": false,
      "rstrip": false,
      "normalized": false,
      "special": true
    },
    {
      "id": 6,
      "content": "[EOS]",
      "single_word": false,
      "lstrip": false,
      "rstrip": false,
      "normalized": false,
      "special": true
    }
  ],
  "normalizer": {
    "type": "Sequence",
    "normalizers": [
      {
        "type": "NFD"
      },
      {
        "type": "Lowercase"
      }
    ]
  },
  "pre_tokenizer": {
    "type": "Whitespace"
  },
  "post_processor": null,
  "decoder": null,
  "model": {
    "type": "BPE",
    "dropout": null,
    "unk_token": null,
    "continuing_subword_prefix": null,
    "end_of_word_suffix": null,
    "fuse_unk": false,
    "byte_fallback": false,
    "ignore_merges": false,
    "vocab": {
      "[PAD]": 0,
      "[UNK]": 1,
      "[CLS]": 2,
      "[SEP]": 3,
      "[MASK]": 4,
      "[BOS]": 5,
      "[EOS]": 6,
      "!": 7,
      "\"": 8,
      "%": 9,
      "&": 10,
      "'": 11,
      "(": 12,
      ")": 13,
      "+": 14,
      ",": 15,
      "-": 16,
      ".": 17,
      "/": 18,
      "0": 19,
      "1": 20,
      "2": 21,
      "3": 22,
      "4": 23,
      "5": 24,
      "6": 25,
      "7": 26,
      "8": 27,
      "9": 28,
      ":": 29,
      ";": 30,
      "=": 31,
      "?": 32,
      "`": 33,
      "a": 34,
      "b": 35,
      "c": 36,
      "d": 37,
      "e": 38,
      "f": 39,
      "g": 40,
      "h": 41,
      "i": 42,
      "j": 43,
      "k": 44,
      "l": 45,
      "m": 46,
      "n": 47,
      "o": 48,
      "p": 49,
      "q": 50,
      "r": 51,
      "s": 52,
      "t": 53,
      "u": 54,
      "v": 55,
      "w": 56,
      "x": 57,
      "y": 58,
      "z": 59,
      "°": 60,
      "²": 61,
      "³": 62,
      "à": 63,
      "á": 64,
      "â": 65,
      "ã": 66,
      "æ": 67,
      "è": 68,
      "é": 69,
      "ê": 70,
      "ì": 71,
      "í": 72,
      "ò": 73,
      "ó": 74,
      "ô": 75,
      "õ": 76,
      "ù": 77,
      "ú": 78,
      "ý": 79,
      "ă": 80,
      "đ": 81,
      "ĩ": 82,
      "ı": 83,
      "ł": 84,
      "ũ": 85,
      "ơ": 86,
      "ư": 87,
      "̀": 88,
      "́": 89,
      "̂": 90,
      "̃": 91,
      "̄": 92,
      "̆": 93,
      "̇": 94,
      "̈": 95,
      "̉": 96,
      "̋": 97,
      "̌": 98,
      "̛": 99,
      "̣": 100,
      "̧": 101,
      "α": 102,
      "β": 103,
      "ạ": 104,
      "ả": 105,
      "ấ": 106,
      "ầ": 107,
      "ẩ": 108,
      "ẫ": 109,
      "ậ": 110,
      "ắ": 111,
      "ằ": 112,
      "ẳ": 113,
      "ẵ": 114,
      "ặ": 115,
      "ẹ": 116,
      "ẻ": 117,
      "ẽ": 118,
      "ế": 119,
      "ề": 120,
      "ể": 121,
      "ễ": 122,
      "ệ": 123,
      "ỉ": 124,
      "ị": 125,
      "ọ": 126,
      "ỏ": 127,
      "ố": 128,
      "ồ": 129,
      "ổ": 130,
      "ỗ": 131,
      "ộ": 132,
      "ớ": 133,
      "ờ": 134,
      "ở": 135,
      "ỡ": 136,
      "ợ": 137,
      "ụ": 138,
      "ủ": 139,
      "ứ": 140,
      "ừ": 141,
      "ử": 142,
      "ữ": 143,
      "ự": 144,
      "ỳ": 145,
      "ỵ": 146,
      "ỷ": 147,
      "ỹ": 148,
      "–": 149,
      "’": 150,
      "−": 151,
      "ng": 152,
      "ư": 153,
      "ê": 154,
      "nh": 155,
      "̣̂": 156,
      "à": 157,
      "ơ": 158,
      "ô": 159,
      "th": 160,
      "tr": 161,
      "á": 162,
      "ch": 163,
      "â": 164,
      "iê": 165,
      "ươ": 166,
      "ệ": 167,
      "ộ": 168,
      "ạ": 169,
      "iệ": 170,
      "cu": 171,
      "ả": 172,
      "ự": 173,
      "ph": 174,
      "kh": 175,
      "tro": 176,
      "ó": 177,
      "và": 178,
      "gi": 179,
      "qu": 180,
      "ác": 181,
      "̀n": 182,
      "ă": 183,
      "ế": 184,
      "́c": 185,
      "trong": 186,
      "̉a": 187,
      "của": 188,
      "ông": 189,
      "̀u": 190,
      "̀ng": 191,
      "các": 192,
      "ữ": 193,
      "ị": 194,
      "ấ": 195,
      "ố": 196,
      "sự": 197,
      "̣c": 198,
      "là": 199,
      "ể": 200,
      "ã": 201,
      "iế": 202,
      "ậ": 203,
      "iều": 204,
      "chi": 205,
      "̀i": 206,
      "việ": 207,
      "ột": 208,
      "ớ": 209,
      "ho": 210,
      "một": 211,
      "an": 212,
      "ững": 213,
      "ân": 214,
      "có": 215,
      "̣ng": 216,
      "ì": 217,
      "những": 218,
      "ày": 219,
      "ú": 220,
      "iể": 221,
      "ại": 222,
      "đã": 223,
      "uy": 224,
      "việc": 225,
      "nhiều": 226,
      "ới": 227,
      "ổ": 228,
      "ngh": 229,
      "này": 230,
      "ực": 231,
      "ất": 232,
      "cho": 233,
      "iện": 234,
      "thể": 235,
      "ình": 236,
      "co": 237,
      "inh": 238,
      "không": 239,
      "phá": 240,
      "ường": 241,
      "ngươ": 242,
      "người": 243,
      "ược": 244,
      "ến": 245,
      "iên": 246,
      "ăn": 247,
      "í": 248,
      "độ": 249,
      "quan": 250,
      "iến": 251,
      "mà": 252,
      "gia": 253,
      "được": 254,
      "ra": 255,
      "ành": 256,
      "đến": 257,
      "ức": 258,
      "ền": 259,
      "còn": 260,
      "chỉ": 261,
      "ản": 262,
      "tư": 263,
      "thu": 264,
      "ách": 265,
      "ần": 266,
      "ên": 267,
      "chí": 268,
      "với": 269,
      "ở": 270,
      "ạo": 271,
      "am": 272,
      "ống": 273,
      "iển": 274,
      "để": 275,
      "ải": 276,
      "phát": 277,
      "ề": 278,
      "chính": 279,
      "trọng": 280,
      "ốc": 281,
      "ương": 282,
      "ật": 283,
      "ử": 284,
      "ội": 285,
      "du": 286,
      "óa": 287,
      "ộc": 288,
      "̉ng": 289,
      "hóa": 290,
      "ối": 291,
      "quy": 292,
      "triển": 293,
      "hơ": 294,
      "̃n": 295,
      "thường": 296,
      "ặ": 297,
      "quốc": 298,
      "văn": 299,
      "hội": 300,
      "ài": 301,
      "nă": 302,
      "ước": 303,
      "ổi": 304,
      "anh": 305,
      "học": 306,
      "sử": 307,
      "công": 308,
      "ịch": 309,
      "ời": 310,
      "hiện": 311,
      "úp": 312,
      "giúp": 313,
      "ứ": 314,
      "ết": 315,
      "̃ng": 316,
      "dân": 317,
      "đị": 318,
      "tạo": 319,
      "ao": 320,
      "thành": 321,
      "về": 322,
      "ảnh": 323,
      "ai": 324,
      "từ": 325,
      "động": 326,
      "ưởng": 327,
      "ang": 328,
      "ẩ": 329,
      "ý": 330,
      "tế": 331,
      "giá": 332,
      "vào": 333,
      "ây": 334,
      "ận": 335,
      "ky": 336,
      "ảo": 337,
      "cũng": 338,
      "ầu": 339,
      "ay": 340,
      "nam": 341,
      "cuộc": 342,
      "lịch": 343,
      "đó": 344,
      "ập": 345,
      "au": 346,
      "giữ": 347,
      "lo": 348,
      "̀m": 349,
      "việt": 350,
      "nước": 351,
      "iết": 352,
      "điều": 353,
      "ôi": 354,
      "chiến": 355,
      "âu": 356,
      "trị": 357,
      "vu": 358,
      "thời": 359,
      "như": 360,
      "khác": 361,
      "vực": 362,
      "ĩ": 363,
      "ẫn": 364,
      "àng": 365,
      "ượng": 366,
      "̣p": 367,
      "ung": 368,
      "ích": 369,
      "ánh": 370,
      "đô": 371,
      "thực": 372,
      "ảm": 373,
      "hơn": 374,
      "kinh": 375,
      "iểu": 376,
      "ắc": 377,
      "giữa": 378,
      "định": 379,
      "cách": 380,
      "hưởng": 381,
      "xã": 382,
      "tiế": 383,
      "lại": 384,
      "hệ": 385,
      "nghiệ": 386,
      "iệu": 387,
      "chú": 388,
      "lớ": 389,
      "sống": 390,
      "thức": 391,
      "ôn": 392,
      "bảo": 393,
      "lý": 394,
      "nhân": 395,
      "ủ": 396,
      "ạt": 397,
      "thế": 398,
      "âm": 399,
      "ngo": 400,
      "nhà": 401,
      "năng": 402,
      "àn": 403,
      "cơ": 404,
      "đại": 405,
      "ỗ": 406,
      "ộng": 407,
      "khu": 408,
      "̣i": 409,
      "dụng": 410,
      "pho": 411,
      "lớn": 412,
      "áng": 413,
      "phần": 414,
      "lực": 415,
      "in": 416,
      "kho": 417,
      "do": 418,
      "ặc": 419,
      "ẩm": 420,
      "ắ": 421,
      "sản": 422,
      "ạnh": 423,
      "khi": 424,
      "sinh": 425,
      "đồng": 426,
      "tại": 427,
      "to": 428,
      "ạng": 429,
      "nghệ": 430,
      "ẽ": 431,
      "hình": 432,
      "vị": 433,
      "quyền": 434,
      "ơi": 435,
      "ái": 436,
      "phong": 437,
      "hợp": 438,
      "chúng": 439,
      "tác": 440,
      "quân": 441,
      "làm": 442,
      "nhau": 443,
      "đổi": 444,
      "nền": 445,
      "thống": 446,
      "trường": 447,
      "ằng": 448,
      "giáo": 449,
      "ấn": 450,
      "uyên": 451,
      "cao": 452,
      "tổ": 453,
      "ấy": 454,
      "tranh": 455,
      "nổi": 456,
      "cứ": 457,
      "họ": 458,
      "cần": 459,
      "trình": 460,
      "xu": 461,
      "pháp": 462,
      "iệt": 463,
      "kết": 464,
      "cứu": 465,
      "ấu": 466,
      "ăng": 467,
      "dẫn": 468,
      "ục": 469,
      "nghiên": 470,
      "ồn": 471,
      "nghiệp": 472,
      "kỳ": 473,
      "lượng": 474,
      "uyền": 475,
      "iểm": 476,
      "trung": 477,
      "ạn": 478,
      "gó": 479,
      "vật": 480,
      "ấp": 481,
      "mang": 482,
      "tiê": 483,
      "năm": 484,
      "trở": 485,
      "án": 486,
      "dự": 487,
      "góp": 488,
      "hoạt": 489,
      "thông": 490,
      "̀a": 491,
      "truyền": 492,
      "qua": 493,
      "ặt": 494,
      "tự": 495,
      "đo": 496,
      "đối": 497,
      "lu": 498,
      "đất": 499,
      "địa": 500,
      "ro": 501,
      "mới": 502,
      "chức": 503,
      "nơi": 504,
      "tố": 505,
      "đầu": 506,
      "hàng": 507,
      "cộng": 508,
      "phương": 509,
      "quả": 510,
      "quyết": 511,
      "é": 512,
      "thuật": 513,
      "phải": 514,
      "thay": 515,
      "tiếng": 516,
      "kiện": 517,
      "ứng": 518,
      "ếu": 519,
      "rất": 520,
      "phẩm": 521,
      "trò": 522,
      "bản": 523,
      "sắc": 524,
      "nhất": 525,
      "biến": 526,
      "thấy": 527,
      "nhiên": 528,
      "phản": 529,
      "mình": 530,
      "tin": 531,
      "sách": 532,
      "ngày": 533,
      "cầu": 534,
      "tham": 535,
      "giao": 536,
      "mạnh": 537,
      "hành": 538,
      "cải": 539,
      "loại": 540,
      "đóng": 541,
      "thiết": 542,
      "ĩnh": 543,
      "iệm": 544,
      "hiểu": 545,
      "xuất": 546,
      "đặc": 547,
      "chất": 548,
      "giới": 549,
      "vai": 550,
      "ta": 551,
      "số": 552,
      "ảng": 553,
      "tài": 554,
      "mó": 555,
      "đa": 556,
      "nhận": 557,
      "ợi": 558,
      "ngoài": 559,
      "mo": 560,
      "yếu": 561,
      "tập": 562,
      "nên": 563,
      "tâm": 564,
      "tình": 565,
      "giải": 566,
      "trên": 567,
      "dạng": 568,
      "bị": 569,
      "iễn": 570,
      "tôi": 571,
      "ễ": 572,
      "toàn": 573,
      "cảm": 574,
      "tăng": 575,
      "món": 576,
      "lĩnh": 577,
      "chuy": 578,
      "ờ": 579,
      "ỗi": 580,
      "hiệu": 581,
      "khí": 582,
      "lã": 583,
      "gian": 584,
      "minh": 585,
      "vệ": 586,
      "điểm": 587,
      "lợi": 588,
      "sẽ": 589,
      "ướ": 590,
      "biệt": 591,
      "vụ": 592,
      "phú": 593,
      "ẻ": 594,
      "tí": 595,
      "liên": 596,
      "lập": 597,
      "di": 598,
      "con": 599,
      "rằng": 600,
      "sau": 601,
      "sức": 602,
      "diễn": 603,
      "út": 604,
      "kiến": 605,
      "ào": 606,
      "đạo": 607,
      "nó": 608,
      "nguyên": 609,
      "lãnh": 610,
      "áp": 611,
      "át": 612,
      "chủ": 613,
      "cảnh": 614,
      "mỗi": 615,
      "khả": 616,
      "tiếp": 617,
      "duy": 618,
      "môi": 619,
      "rõ": 620,
      "ngu": 621,
      "chu": 622,
      "chế": 623,
      "tiêu": 624,
      "eo": 625,
      "độc": 626,
      "đề": 627,
      "ợ": 628,
      "quá": 629,
      "tượng": 630,
      "tuy": 631,
      "thiện": 632,
      "áo": 633,
      "hút": 634,
      "mặt": 635,
      "ạc": 636,
      "tộc": 637,
      "cấp": 638,
      "nghĩ": 639,
      "xe": 640,
      "bộ": 641,
      "êu": 642,
      "trì": 643,
      "viên": 644,
      "âng": 645,
      "bao": 646,
      "tích": 647,
      "en": 648,
      "phân": 649,
      "thương": 650,
      "đu": 651,
      "mu": 652,
      "thị": 653,
      "nâng": 654,
      "sâu": 655,
      "dựng": 656,
      "mở": 657,
      "nguồn": 658,
      "kỹ": 659,
      "phủ": 660,
      "đê": 661,
      "ằm": 662,
      "tính": 663,
      "su": 664,
      "triều": 665,
      "đang": 666,
      "cả": 667,
      "nhằm": 668,
      "ìm": 669,
      "tìm": 670,
      "ngữ": 671,
      "ển": 672,
      "liệu": 673,
      "tương": 674,
      "đông": 675,
      "ưa": 676,
      "yêu": 677,
      "khỏ": 678,
      "xây": 679,
      "nghĩa": 680,
      "đây": 681,
      "phu": 682,
      "hô": 683,
      "đời": 684,
      "biểu": 685,
      "đội": 686,
      "đình": 687,
      "er": 688,
      "kỷ": 689,
      "dịch": 690,
      "đều": 691,
      "theo": 692,
      "thích": 693,
      "vấn": 694,
      "tinh": 695,
      "vẫn": 696,
      "tru": 697,
      "tu": 698,
      "sáng": 699,
      "ậu": 700,
      "nông": 701,
      "hai": 702,
      "tôn": 703,
      "so": 704,
      "quản": 705,
      "ện": 706,
      "cá": 707,
      "nhưng": 708,
      "châu": 709,
      "hòa": 710,
      "khoa": 711,
      "trí": 712,
      "ar": 713,
      "vững": 714,
      "19": 715,
      "bu": 716,
      "óng": 717,
      "ồm": 718,
      "gồm": 719,
      "thiên": 720,
      "dục": 721,
      "giảm": 722,
      "vùng": 723,
      "ẩn": 724,
      "bật": 725,
      "biết": 726,
      "bằng": 727,
      "thủ": 728,
      "khách": 729,
      "khó": 730,
      "lược": 731,
      "ơn": 732,
      "đua": 733,
      "trợ": 734,
      "cùng": 735,
      "iền": 736,
      "thái": 737,
      "lễ": 738,
      "mọi": 739,
      "ngôn": 740,
      "ướng": 741,
      "tồn": 742,
      "đánh": 743,
      "đi": 744,
      "ưu": 745,
      "chuyển": 746,
      "ngành": 747,
      "bình": 748,
      "iếm": 749,
      "ti": 750,
      "tâ": 751,
      "tiến": 752,
      "thách": 753,
      "ạch": 754,
      "nhiệm": 755,
      "mẽ": 756,
      "xung": 757,
      "gây": 758,
      "nghiệm": 759,
      "ắt": 760,
      "bối": 761,
      "ỏ": 762,
      "nay": 763,
      "iếu": 764,
      "đảm": 765,
      "mối": 766,
      "bạn": 767,
      "khỏe": 768,
      "tưởng": 769,
      "phi": 770,
      "phục": 771,
      "ia": 772,
      "cung": 773,
      "trải": 774,
      "khăn": 775,
      "đe": 776,
      "hậu": 777,
      "rộng": 778,
      "nhạc": 779,
      "chia": 780,
      "̣t": 781,
      "cổ": 782,
      "ạp": 783,
      "bền": 784,
      "hỗ": 785,
      "vi": 786,
      "vì": 787,
      "phố": 788,
      "thuộc": 789,
      "thần": 790,
      "̣n": 791,
      "iêng": 792,
      "thúc": 793,
      "đấu": 794,
      "ẳng": 795,
      "diện": 796,
      "đường": 797,
      "hoặc": 798,
      "trước": 799,
      "hương": 800,
      "tốt": 801,
      "bài": 802,
      "tho": 803,
      "dấu": 804,
      "ởi": 805,
      "từng": 806,
      "cường": 807,
      "uyết": 808,
      "ậy": 809,
      "biển": 810,
      "dài": 811,
      "trúc": 812,
      "al": 813,
      "ữa": 814,
      "ắn": 815,
      "miền": 816,
      "mại": 817,
      "riêng": 818,
      "nguy": 819,
      "đẹp": 820,
      "hu": 821,
      "vo": 822,
      "bên": 823,
      "ệnh": 824,
      "ổn": 825,
      "cạnh": 826,
      "ẩy": 827,
      "tiên": 828,
      "loài": 829,
      "thao": 830,
      "xem": 831,
      "lòng": 832,
      "thuyết": 833,
      "kế": 834,
      "éo": 835,
      "đẩy": 836,
      "nhu": 837,
      "thiếu": 838,
      "bước": 839,
      "̉i": 840,
      "tục": 841,
      "my": 842,
      "cây": 843,
      "đơn": 844,
      "ãi": 845,
      "tiết": 846,
      "ám": 847,
      "lai": 848,
      "ưỡng": 849,
      "quý": 850,
      "ắng": 851,
      "ừng": 852,
      "ốn": 853,
      "tạp": 854,
      "nhật": 855,
      "ba": 856,
      "êm": 857,
      "đáng": 858,
      "go": 859,
      "giả": 860,
      "tây": 861,
      "đạt": 862,
      "thêm": 863,
      "dùng": 864,
      "bất": 865,
      "20": 866,
      "cư": 867,
      "è": 868,
      "đảo": 869,
      "kiểm": 870,
      "cuối": 871,
      "is": 872,
      "giai": 873,
      "es": 874,
      "niệm": 875,
      "sở": 876,
      "chuẩn": 877,
      "đột": 878,
      "iêm": 879,
      "nối": 880,
      "ưng": 881,
      "cử": 882,
      "nghi": 883,
      "chọn": 884,
      "nội": 885,
      "mỹ": 886,
      "lan": 887,
      "lưu": 888,
      "phức": 889,
      "óm": 890,
      "hỏi": 891,
      "thuận": 892,
      "mục": 893,
      "dễ": 894,
      "hoa": 895,
      "hướng": 896,
      "nhờ": 897,
      "xác": 898,
      "hấp": 899,
      "thân": 900,
      "đoạn": 901,
      "iệp": 902,
      "bệnh": 903,
      "nhóm": 904,
      "ặp": 905,
      "la": 906,
      "sĩ": 907,
      "hi": 908,
      "đáo": 909,
      "điện": 910,
      "bắc": 911,
      "̀y": 912,
      "mạng": 913,
      "trẻ": 914,
      "cực": 915,
      "lên": 916,
      "kiếm": 917,
      "ninh": 918,
      "bánh": 919,
      "trang": 920,
      "doanh": 921,
      "̉nh": 922,
      "chương": 923,
      "xuyên": 924,
      "cố": 925,
      "phổ": 926,
      "buổi": 927,
      "vũ": 928,
      "câu": 929,
      "vậy": 930,
      "chứng": 931,
      "ịp": 932,
      "ép": 933,
      "bo": 934,
      "chống": 935,
      "phụ": 936,
      "khám": 937,
      "phí": 938,
      "nỗ": 939,
      "trách": 940,
      "tổng": 941,
      "khiến": 942,
      "tầm": 943,
      "gặp": 944,
      "bắt": 945,
      "uyện": 946,
      "ạm": 947,
      "cô": 948,
      "nhập": 949,
      "nhi": 950,
      "ngoại": 951,
      "thổ": 952,
      "mùa": 953,
      "tiền": 954,
      "trận": 955,
      "tháng": 956,
      "tỉnh": 957,
      "ấm": 958,
      "nghiêm": 959,
      "cụ": 960,
      "luận": 961,
      "nhìn": 962,
      "thư": 963,
      "ồng": 964,
      "thiểu": 965,
      "vươ": 966,
      "nhiệt": 967,
      "tay": 968,
      "mã": 969,
      "el": 970,
      "lâu": 971,
      "ễn": 972,
      "vua": 973,
      "vận": 974,
      "đoàn": 975,
      "bởi": 976,
      "bữa": 977,
      "ca": 978,
      "ốt": 979,
      "kháng": 980,
      "vọng": 981,
      "đảng": 982,
      "càng": 983,
      "ăm": 984,
      "ệt": 985,
      "ưới": 986,
      "nguyễn": 987,
      "ty": 988,
      "trào": 989,
      "hải": 990,
      "hoàn": 991,
      "đức": 992,
      "thi": 993,
      "bầu": 994,
      "thú": 995,
      "nhỏ": 996,
      "phim": 997,
      "cấu": 998,
      "lao": 999,
      "trưng": 1000,
      "nhanh": 1001,
      "ảy": 1002,
      "trái": 1003,
      "thứ": 1004,
      "khai": 1005,
      "ban": 1006,
      "áy": 1007,
      "em": 1008,
      "trạng": 1009,
      "tầng": 1010,
      "luật": 1011,
      "ầm": 1012,
      "hồi": 1013,
      "vương": 1014,
      "soát": 1015,
      "biện": 1016,
      "giờ": 1017,
      "dù": 1018,
      "thẳng": 1019,
      "quanh": 1020,
      "sông": 1021,
      "nhớ": 1022,
      "re": 1023,
      "dàng": 1024,
      "luôn": 1025,
      "đồ": 1026,
      "chuyện": 1027,
      "ét": 1028,
      "ma": 1029,
      "căng": 1030,
      "đưa": 1031,
      "cận": 1032,
      "tên": 1033,
      "triệu": 1034,
      "ngon": 1035,
      "suất": 1036,
      "thảo": 1037,
      "hy": 1038,
      "ru": 1039,
      "ầy": 1040,
      "khắc": 1041,
      "đế": 1042,
      "ki": 1043,
      "thanh": 1044,
      "vượt": 1045,
      "ựa": 1046,
      "dưỡng": 1047,
      "thưởng": 1048,
      "hà": 1049,
      "viện": 1050,
      "linh": 1051,
      "gọi": 1052,
      "giành": 1053,
      "iềm": 1054,
      "dịp": 1055,
      "tử": 1056,
      "hoạch": 1057,
      "dương": 1058,
      "ghi": 1059,
      "khuy": 1060,
      "chị": 1061,
      "hạ": 1062,
      "phòng": 1063,
      "gắn": 1064,
      "tiệ": 1065,
      "tiệc": 1066,
      "tối": 1067,
      "phù": 1068,
      "khuyến": 1069,
      "hoàng": 1070,
      "mặc": 1071,
      "danh": 1072,
      "bóng": 1073,
      "coi": 1074,
      "cân": 1075,
      "hạn": 1076,
      "niềm": 1077,
      "khích": 1078,
      "hồ": 1079,
      "kể": 1080,
      "quán": 1081,
      "̃i": 1082,
      "chơi": 1083,
      "lựa": 1084,
      "sẻ": 1085,
      "sát": 1086,
      "kiên": 1087,
      "nằm": 1088,
      "chóng": 1089,
      "vui": 1090,
      "viết": 1091,
      "đá": 1092,
      "ươi": 1093,
      "chăm": 1094,
      "giác": 1095,
      "cái": 1096,
      "dựa": 1097,
      "máy": 1098,
      "tảng": 1099,
      "tươi": 1100,
      "trồng": 1101,
      "úng": 1102,
      "ne": 1103,
      "ỡ": 1104,
      "thất": 1105,
      "gần": 1106,
      "chữ": 1107,
      "báo": 1108,
      "tín": 1109,
      "bỏ": 1110,
      "tri": 1111,
      "cam": 1112,
      "mô": 1113,
      "si": 1114,
      "trời": 1115,
      "chuyên": 1116,
      "phép": 1117,
      "đầy": 1118,
      "chịu": 1119,
      "hay": 1120,
      "tan": 1121,
      "xúc": 1122,
      "ặng": 1123,
      "ri": 1124,
      "ứa": 1125,
      "ẩu": 1126,
      "hộ": 1127,
      "môn": 1128,
      "nga": 1129,
      "hữ": 1130,
      "hữu": 1131,
      "lệ": 1132,
      "kéo": 1133,
      "thử": 1134,
      "gốc": 1135,
      "thủy": 1136,
      "sao": 1137,
      "trưởng": 1138,
      "đặt": 1139,
      "thơ": 1140,
      "phía": 1141,
      "ạy": 1142,
      "khẩu": 1143,
      "khoảng": 1144,
      "mưa": 1145,
      "ắp": 1146,
      "sang": 1147,
      "nếu": 1148,
      "đọc": 1149,
      "gu": 1150,
      "tiện": 1151,
      "bức": 1152,
      "thịt": 1153,
      "thụ": 1154,
      "li": 1155,
      "00": 1156,
      "đào": 1157,
      "as": 1158,
      "huy": 1159,
      "suy": 1160,
      "ke": 1161,
      "suốt": 1162,
      "tuyến": 1163,
      "ni": 1164,
      "dưới": 1165,
      "khởi": 1166,
      "thuần": 1167,
      "ính": 1168,
      "khán": 1169,
      "đúng": 1170,
      "toán": 1171,
      "luyện": 1172,
      "thoa": 1173,
      "can": 1174,
      "tấn": 1175,
      "me": 1176,
      "củng": 1177,
      "úi": 1178,
      "thắng": 1179,
      "muốn": 1180,
      "uống": 1181,
      "xâm": 1182,
      "chỉnh": 1183,
      "da": 1184,
      "triết": 1185,
      "gìn": 1186,
      "po": 1187,
      "đà": 1188,
      "chiếm": 1189,
      "̃m": 1190,
      "trực": 1191,
      "xảy": 1192,
      "bố": 1193,
      "lớp": 1194,
      "tuyệt": 1195,
      "dinh": 1196,
      "nghị": 1197,
      "ngoặt": 1198,
      "chung": 1199,
      "hiệp": 1200,
      "lưỡng": 1201,
      "núi": 1202,
      "ãn": 1203,
      "rau": 1204,
      "ký": 1205,
      "kim": 1206,
      "bè": 1207,
      "lê": 1208,
      "le": 1209,
      "mất": 1210,
      "bổ": 1211,
      "vẻ": 1212,
      "só": 1213,
      "sa": 1214,
      "ậm": 1215,
      "quảng": 1216,
      "ngôi": 1217,
      "àu": 1218,
      "hạt": 1219,
      "hứng": 1220,
      "cập": 1221,
      "màu": 1222,
      "khỏi": 1223,
      "te": 1224,
      "chuyến": 1225,
      "ắm": 1226,
      "phối": 1227,
      "sơn": 1228,
      "mong": 1229,
      "thác": 1230,
      "huống": 1231,
      "bại": 1232,
      "đáp": 1233,
      "nghề": 1234,
      "nu": 1235,
      "tướng": 1236,
      "ặn": 1237,
      "chứa": 1238,
      "xô": 1239,
      "ừa": 1240,
      "cãi": 1241,
      "tô": 1242,
      "lần": 1243,
      "nha": 1244,
      "na": 1245,
      "thập": 1246,
      "nghe": 1247,
      "trụ": 1248,
      "nhiê": 1249,
      "phê": 1250,
      "nào": 1251,
      "tái": 1252,
      "nắ": 1253,
      "tải": 1254,
      "hại": 1255,
      "bang": 1256,
      "đòi": 1257,
      "khái": 1258,
      "lúc": 1259,
      "dung": 1260,
      "lạnh": 1261,
      "phó": 1262,
      "pu": 1263,
      "xử": 1264,
      "xét": 1265,
      "cà": 1266,
      "đôi": 1267,
      "tất": 1268,
      "lương": 1269,
      "va": 1270,
      "họp": 1271,
      "on": 1272,
      "ràng": 1273,
      "bạch": 1274,
      "bay": 1275,
      "chấp": 1276,
      "dòng": 1277,
      "ẫ": 1278,
      "tra": 1279,
      "mức": 1280,
      "lạc": 1281,
      "đủ": 1282,
      "nhiễm": 1283,
      "nói": 1284,
      "khảo": 1285,
      "giãn": 1286,
      "khủng": 1287,
      "chặt": 1288,
      "ngô": 1289,
      "cú": 1290,
      "khẳng": 1291,
      "quần": 1292,
      "phật": 1293,
      "ói": 1294,
      "phái": 1295,
      "pa": 1296,
      "tắc": 1297,
      "quen": 1298,
      "biên": 1299,
      "tỷ": 1300,
      "nhắc": 1301,
      "tuổi": 1302,
      "nhấn": 1303,
      "nấu": 1304,
      "giảng": 1305,
      "man": 1306,
      "xa": 1307,
      "lắng": 1308,
      "tới": 1309,
      "nữ": 1310,
      "tránh": 1311,
      "bán": 1312,
      "huyện": 1313,
      "sai": 1314,
      "tam": 1315,
      "ngừng": 1316,
      "ủy": 1317,
      "kèm": 1318,
      "khắp": 1319,
      "ãy": 1320,
      "vĩ": 1321,
      "dõi": 1322,
      "trao": 1323,
      "mộ": 1324,
      "điển": 1325,
      "ựng": 1326,
      "xanh": 1327,
      "mát": 1328,
      "long": 1329,
      "hiến": 1330,
      "ửa": 1331,
      "dành": 1332,
      "lẫn": 1333,
      "cuốn": 1334,
      "chẽ": 1335,
      "ngăn": 1336,
      "de": 1337,
      "chắc": 1338,
      "thiệp": 1339,
      "sóc": 1340,
      "mi": 1341,
      "ngân": 1342,
      "dạy": 1343,
      "ẫu": 1344,
      "dầu": 1345,
      "ếp": 1346,
      "đoán": 1347,
      "hát": 1348,
      "bà": 1349,
      "18": 1350,
      "or": 1351,
      "ượ": 1352,
      "phạm": 1353,
      "khóa": 1354,
      "hùng": 1355,
      "bấy": 1356,
      "iêu": 1357,
      "ít": 1358,
      "liệt": 1359,
      "hồng": 1360,
      "rừng": 1361,
      "nghỉ": 1362,
      "tận": 1363,
      "kính": 1364,
      "mal": 1365,
      "rượ": 1366,
      "thờ": 1367,
      "cửa": 1368,
      "rượu": 1369,
      "trần": 1370,
      "rãi": 1371,
      "đổ": 1372,
      "ton": 1373,
      "ủng": 1374,
      "phúc": 1375,
      "ran": 1376,
      "tiễn": 1377,
      "èo": 1378,
      "pi": 1379,
      "kiệm": 1380,
      "car": 1381,
      "mer": 1382,
      "thói": 1383,
      "nữa": 1384,
      "nuôi": 1385,
      "194": 1386,
      "yên": 1387,
      "khứ": 1388,
      "dậy": 1389,
      "dữ": 1390,
      "đài": 1391,
      "ngại": 1392,
      "chân": 1393,
      "quang": 1394,
      "ii": 1395,
      "tiểu": 1396,
      "vinh": 1397,
      "tùy": 1398,
      "léo": 1399,
      "đích": 1400,
      "hết": 1401,
      "campu": 1402,
      "campuchia": 1403,
      "200": 1404,
      "kích": 1405,
      "vô": 1406,
      "nắm": 1407,
      "lành": 1408,
      "hâm": 1409,
      "đựng": 1410,
      "khéo": 1411,
      "tệ": 1412,
      "hoảng": 1413,
      "mái": 1414,
      "kê": 1415,
      "tiềm": 1416,
      "khô": 1417,
      "bá": 1418,
      "ly": 1419,
      "hào": 1420,
      "se": 1421,
      "tốc": 1422,
      "̣a": 1423,
      "khoảnh": 1424,
      "tuyên": 1425,
      "họa": 1426,
      "ven": 1427,
      "mật": 1428,
      "tàu": 1429,
      "đậm": 1430,
      "phóng": 1431,
      "sóng": 1432,
      "dừng": 1433,
      "chưa": 1434,
      "gh": 1435,
      "sân": 1436,
      "ter": 1437,
      "thấp": 1438,
      "rus": 1439,
      "cục": 1440,
      "201": 1441,
      "úa": 1442,
      "ngũ": 1443,
      "bãi": 1444,
      "he": 1445,
      "̣y": 1446,
      "gạo": 1447,
      "đàn": 1448,
      "chặn": 1449,
      "hài": 1450,
      "par": 1451,
      "gió": 1452,
      "liền": 1453,
      "sôi": 1454,
      "nóng": 1455,
      "hàn": 1456,
      "niên": 1457,
      "ngọt": 1458,
      "197": 1459,
      "thiệt": 1460,
      "nhe": 1461,
      "ủi": 1462,
      "chiều": 1463,
      "khối": 1464,
      "làng": 1465,
      "nặng": 1466,
      "mar": 1467,
      "ox": 1468,
      "lá": 1469,
      "hán": 1470,
      "sớ": 1471,
      "us": 1472,
      "ớt": 1473,
      "đới": 1474,
      "giản": 1475,
      "gen": 1476,
      "giám": 1477,
      "chúa": 1478,
      "sớm": 1479,
      "vàng": 1480,
      "thuế": 1481,
      "bi": 1482,
      "pro": 1483,
      "mắt": 1484,
      "mẻ": 1485,
      "nạn": 1486,
      "bào": 1487,
      "iếc": 1488,
      "canh": 1489,
      "istan": 1490,
      "nhẹ": 1491,
      "giống": 1492,
      "binh": 1493,
      "lạm": 1494,
      "mạch": 1495,
      "ngờ": 1496,
      "bột": 1497,
      "lời": 1498,
      "mẫu": 1499,
      "tông": 1500,
      "đứng": 1501,
      "bạo": 1502,
      "mì": 1503,
      "thoải": 1504,
      "ber": 1505,
      "lầm": 1506,
      "men": 1507,
      "chấm": 1508,
      "chuộng": 1509,
      "ngược": 1510,
      "thơm": 1511,
      "chiếc": 1512,
      "cáo": 1513,
      "199": 1514,
      "mãn": 1515,
      "rút": 1516,
      "điệp": 1517,
      "mông": 1518,
      "rập": 1519,
      "gỡ": 1520,
      "thịnh": 1521,
      "tai": 1522,
      "sắt": 1523,
      "ine": 1524,
      "tein": 1525,
      "hiểm": 1526,
      "lục": 1527,
      "hãy": 1528,
      "cảng": 1529,
      "hè": 1530,
      "bày": 1531,
      "mắm": 1532,
      "hiếm": 1533,
      "ém": 1534,
      "ga": 1535,
      "mua": 1536,
      "vời": 1537,
      "ộn": 1538,
      "bia": 1539,
      "thật": 1540,
      "cờ": 1541,
      "đậu": 1542,
      "cai": 1543,
      "tuần": 1544,
      "tổn": 1545,
      "ce": 1546,
      "rủi": 1547,
      "trữ": 1548,
      "tòa": 1549,
      "khía": 1550,
      "cúng": 1551,
      "quê": 1552,
      "be": 1553,
      "nét": 1554,
      "mỏ": 1555,
      "quyển": 1556,
      "tựu": 1557,
      "ngưỡng": 1558,
      "iềng": 1559,
      "virus": 1560,
      "nes": 1561,
      "pe": 1562,
      "thoại": 1563,
      "khoáng": 1564,
      "đỏ": 1565,
      "khuẩn": 1566,
      "tim": 1567,
      "land": 1568,
      "đẳng": 1569,
      "nho": 1570,
      "phán": 1571,
      "ka": 1572,
      "gio": 1573,
      "dần": 1574,
      "nghiệt": 1575,
      "lụy": 1576,
      "il": 1577,
      "thánh": 1578,
      "ão": 1579,
      "đền": 1580,
      "singa": 1581,
      "pore": 1582,
      "singapore": 1583,
      "gỗ": 1584,
      "pp": 1585,
      "ềm": 1586,
      "khôi": 1587,
      "gũi": 1588,
      "paris": 1589,
      "muối": 1590,
      "bò": 1591,
      "mẹ": 1592,
      "protein": 1593,
      "chết": 1594,
      "bờ": 1595,
      "miệ": 1596,
      "khmer": 1597,
      "thuốc": 1598,
      "new": 1599,
      "miệng": 1600,
      "bó": 1601,
      "bí": 1602,
      "địch": 1603,
      "láng": 1604,
      "mềm": 1605,
      "tân": 1606,
      "dọa": 1607,
      "đai": 1608,
      "nguyện": 1609,
      "kênh": 1610,
      "vượng": 1611,
      "dã": 1612,
      "tuân": 1613,
      "giềng": 1614,
      "mê": 1615,
      "áu": 1616,
      "lối": 1617,
      "lúa": 1618,
      "nghèo": 1619,
      "195": 1620,
      "ồ": 1621,
      "thôn": 1622,
      "trích": 1623,
      "khốc": 1624,
      "giàu": 1625,
      "10": 1626,
      "sư": 1627,
      "khát": 1628,
      "gắng": 1629,
      "sứ": 1630,
      "ngay": 1631,
      "hòn": 1632,
      "lâm": 1633,
      "no": 1634,
      "tv": 1635,
      "tỏ": 1636,
      "tết": 1637,
      "khẩn": 1638,
      "kịp": 1639,
      "nướng": 1640,
      "xi": 1641,
      "ôm": 1642,
      "trống": 1643,
      "chảy": 1644,
      "dụ": 1645,
      "sụp": 1646,
      "ver": 1647,
      "rael": 1648,
      "cơm": 1649,
      "hụt": 1650,
      "israel": 1651,
      "gà": 1652,
      "đợi": 1653,
      "khúc": 1654,
      "198": 1655,
      "trật": 1656,
      "000": 1657,
      "loan": 1658,
      "ha": 1659,
      "xếp": 1660,
      "gì": 1661,
      "nhẫn": 1662,
      "phấn": 1663,
      "ốm": 1664,
      "đau": 1665,
      "cha": 1666,
      "lửa": 1667,
      "tàn": 1668,
      "thụy": 1669,
      "dừa": 1670,
      "hạnh": 1671,
      "quận": 1672,
      "chủng": 1673,
      "lũ": 1674,
      "tội": 1675,
      "thăng": 1676,
      "trà": 1677,
      "củ": 1678,
      "lào": 1679,
      "196": 1680,
      "ví": 1681,
      "chờ": 1682,
      "thừa": 1683,
      "chiếu": 1684,
      "chua": 1685,
      "đàm": 1686,
      "băng": 1687,
      "xo": 1688,
      "phận": 1689,
      "khổ": 1690,
      "bớt": 1691,
      "cống": 1692,
      "đam": 1693,
      "thuẫn": 1694,
      "miễn": 1695,
      "pal": 1696,
      "17": 1697,
      "chợ": 1698,
      "rời": 1699,
      "să": 1700,
      "ve": 1701,
      "vịnh": 1702,
      "sẵn": 1703,
      "gốm": 1704,
      "bậ": 1705,
      "bàn": 1706,
      "xưa": 1707,
      "bậc": 1708,
      "sta": 1709,
      "tĩnh": 1710,
      "lường": 1711,
      "mâu": 1712,
      "pha": 1713,
      "oxy": 1714,
      "may": 1715,
      "ur": 1716,
      "đuổi": 1717,
      "malay": 1718,
      "tàng": 1719,
      "thù": 1720,
      "bảng": 1721,
      "chốt": 1722,
      "vid": 1723,
      "lạp": 1724,
      "trai": 1725,
      "giang": 1726,
      "chặng": 1727,
      "bel": 1728,
      "bồ": 1729,
      "jo": 1730,
      "lệnh": 1731,
      "lưới": 1732,
      "tức": 1733,
      "ứt": 1734,
      "bé": 1735,
      "hạng": 1736,
      "hưng": 1737,
      "tuệ": 1738,
      "cầm": 1739,
      "hồn": 1740,
      "thượng": 1741,
      "loạn": 1742,
      "kẻ": 1743,
      "thỏa": 1744,
      "nhạy": 1745,
      "thuyền": 1746,
      "ún": 1747,
      "net": 1748,
      "ada": 1749,
      "lái": 1750,
      "ngừa": 1751,
      "cũ": 1752,
      "son": 1753,
      "vitam": 1754,
      "vitamin": 1755,
      "bún": 1756,
      "vốn": 1757,
      "ngắn": 1758,
      "inter": 1759,
      "buộc": 1760,
      "vòng": 1761,
      "tỏa": 1762,
      "ger": 1763,
      "nỗi": 1764,
      "thải": 1765,
      "thiệu": 1766,
      "cánh": 1767,
      "vĩnh": 1768,
      "tụ": 1769,
      "buôn": 1770,
      "bra": 1771,
      "quên": 1772,
      "bão": 1773,
      "đỡ": 1774,
      "ire": 1775,
      "sữa": 1776,
      "tạm": 1777,
      "viễn": 1778,
      "điệu": 1779,
      "internet": 1780,
      "lây": 1781,
      "cl": 1782,
      "lam": 1783,
      "tịch": 1784,
      "1945": 1785,
      "sạch": 1786,
      "tần": 1787,
      "tuyển": 1788,
      "sơ": 1789,
      "rèn": 1790,
      "ham": 1791,
      "sy": 1792,
      "cơn": 1793,
      "lụt": 1794,
      "thì": 1795,
      "thí": 1796,
      "and": 1797,
      "by": 1798,
      "đói": 1799,
      "cản": 1800,
      "hầu": 1801,
      "lin": 1802,
      "tật": 1803,
      "giấy": 1804,
      "12": 1805,
      "bạc": 1806,
      "pr": 1807,
      "chép": 1808,
      "ười": 1809,
      "quay": 1810,
      "eu": 1811,
      "phạt": 1812,
      "mệnh": 1813,
      "ana": 1814,
      "bul": 1815,
      "ireland": 1816,
      "sót": 1817,
      "11": 1818,
      "sung": 1819,
      "thẩm": 1820,
      "đúc": 1821,
      "kém": 1822,
      "lính": 1823,
      "mơ": 1824,
      "mai": 1825,
      "gử": 1826,
      "kịch": 1827,
      "sàng": 1828,
      "ồi": 1829,
      "trả": 1830,
      "bon": 1831,
      "canada": 1832,
      "gửi": 1833,
      "bề": 1834,
      "kêu": 1835,
      "kistan": 1836,
      "trú": 1837,
      "nẵng": 1838,
      "chùa": 1839,
      "vườn": 1840,
      "ean": 1841,
      "tả": 1842,
      "ngặt": 1843,
      "trầm": 1844,
      "thoát": 1845,
      "dp": 1846,
      "thước": 1847,
      "tráng": 1848,
      "hoang": 1849,
      "huế": 1850,
      "nắng": 1851,
      "30": 1852,
      "lân": 1853,
      "mực": 1854,
      "mạc": 1855,
      "máu": 1856,
      "indo": 1857,
      "az": 1858,
      "sh": 1859,
      "chim": 1860,
      "khoản": 1861,
      "tine": 1862,
      "dâm": 1863,
      "sia": 1864,
      "rain": 1865,
      "ướt": 1866,
      "ku": 1867,
      "tách": 1868,
      "xương": 1869,
      "trứng": 1870,
      "trắng": 1871,
      "then": 1872,
      "hảo": 1873,
      "xuống": 1874,
      "bah": 1875,
      "nấm": 1876,
      "cậy": 1877,
      "đen": 1878,
      "pic": 1879,
      "mắc": 1880,
      "vỏ": 1881,
      "thăm": 1882,
      "ci": 1883,
      "ira": 1884,
      "mặn": 1885,
      "xuân": 1886,
      "bốn": 1887,
      "ser": 1888,
      "lấy": 1889,
      "mãi": 1890,
      "đinh": 1891,
      "ngơi": 1892,
      "thạch": 1893,
      "14": 1894,
      "cấm": 1895,
      "gas": 1896,
      "thảm": 1897,
      "trịnh": 1898,
      "cắt": 1899,
      "ge": 1900,
      "hang": 1901,
      "tờ": 1902,
      "we": 1903,
      "thận": 1904,
      "trấn": 1905,
      "phiên": 1906,
      "15": 1907,
      "htv": 1908,
      "diệt": 1909,
      "nợ": 1910,
      "úc": 1911,
      "phở": 1912,
      "chinh": 1913,
      "hung": 1914,
      "kông": 1915,
      "nề": 1916,
      "phiếu": 1917,
      "iraq": 1918,
      "lộ": 1919,
      "chìa": 1920,
      "malaysia": 1921,
      "16": 1922,
      "ck": 1923,
      "dũng": 1924,
      "diệm": 1925,
      "ko": 1926,
      "tống": 1927,
      "xứ": 1928,
      "quà": 1929,
      "dãy": 1930,
      "trân": 1931,
      "hỗn": 1932,
      "huyền": 1933,
      "asean": 1934,
      "niger": 1935,
      "rơi": 1936,
      "sắp": 1937,
      "vừa": 1938,
      "tôm": 1939,
      "bác": 1940,
      "cốc": 1941,
      "cát": 1942,
      "cẩn": 1943,
      "hiếu": 1944,
      "len": 1945,
      "siêu": 1946,
      "xấu": 1947,
      "ngàn": 1948,
      "chạm": 1949,
      "khơi": 1950,
      "ỏi": 1951,
      "võ": 1952,
      "dạo": 1953,
      "rệt": 1954,
      "nhắn": 1955,
      "phili": 1956,
      "lệch": 1957,
      "hẹn": 1958,
      "nesia": 1959,
      "tán": 1960,
      "wa": 1961,
      "đắn": 1962,
      "nhánh": 1963,
      "chăn": 1964,
      "chậm": 1965,
      "chín": 1966,
      "bỉ": 1967,
      "giòn": 1968,
      "gdp": 1969,
      "lợ": 1970,
      "les": 1971,
      "van": 1972,
      "nhĩ": 1973,
      "phường": 1974,
      "indonesia": 1975,
      "tre": 1976,
      "trùng": 1977,
      "sánh": 1978,
      "nhuận": 1979,
      "hàm": 1980,
      "căn": 1981,
      "ria": 1982,
      "don": 1983,
      "ngập": 1984,
      "cháy": 1985,
      "ard": 1986,
      "hủy": 1987,
      "kan": 1988,
      "mời": 1989,
      "truy": 1990,
      "ượt": 1991,
      "góc": 1992,
      "lợn": 1993,
      "sài": 1994,
      "ze": 1995,
      "làn": 1996,
      "hơi": 1997,
      "nhũng": 1998,
      "ess": 1999,
      "af": 2000,
      "sáp": 2001,
      "xào": 2002,
      "ngủ": 2003,
      "nổ": 2004,
      "che": 2005,
      "cốt": 2006,
      "béo": 2007,
      "des": 2008,
      "ja": 2009,
      "rạp": 2010,
      "xin": 2011,
      "đương": 2012,
      "than": 2013,
      "ngọc": 2014,
      "hit": 2015,
      "ruộng": 2016,
      "hôn": 2017,
      "mốc": 2018,
      "nô": 2019,
      "chèo": 2020,
      "lui": 2021,
      "dị": 2022,
      "leo": 2023,
      "tám": 2024,
      "vân": 2025,
      "vây": 2026,
      "hỏa": 2027,
      "ord": 2028,
      "gam": 2029,
      "huyết": 2030,
      "khiển": 2031,
      "giáp": 2032,
      "tỉ": 2033,
      "joh": 2034,
      "uk": 2035,
      "lon": 2036,
      "ines": 2037,
      "21": 2038,
      "non": 2039,
      "xảo": 2040,
      "zia": 2041,
      "ênh": 2042,
      "trương": 2043,
      "chiên": 2044,
      "chè": 2045,
      "covid": 2046,
      "san": 2047,
      "vang": 2048,
      "đốt": 2049,
      "quyện": 2050,
      "móc": 2051,
      "hôm": 2052,
      "song": 2053,
      "ppines": 2054,
      "philippines": 2055,
      "john": 2056,
      "cự": 2057,
      "côn": 2058,
      "dưa": 2059,
      "tuyết": 2060,
      "gòn": 2061,
      "ilton": 2062,
      "bén": 2063,
      "hamilton": 2064,
      "lăng": 2065,
      "unes": 2066,
      "cuba": 2067,
      "unesco": 2068,
      "cưới": 2069,
      "ném": 2070,
      "bắn": 2071,
      "ranh": 2072,
      "lãng": 2073,
      "mỡ": 2074,
      "sửa": 2075,
      "anistan": 2076,
      "lọc": 2077,
      "sốt": 2078,
      "ele": 2079,
      "ghanistan": 2080,
      "afghanistan": 2081,
      "bội": 2082,
      "fa": 2083,
      "ry": 2084,
      "za": 2085,
      "tar": 2086,
      "duyệt": 2087,
      "dáng": 2088,
      "chạy": 2089,
      "ẫm": 2090,
      "tròn": 2091,
      "pakistan": 2092,
      "',": 2093,
      "gru": 2094,
      "hứa": 2095,
      "kiểu": 2096,
      "đốc": 2097,
      "chả": 2098,
      "chay": 2099,
      "sil": 2100,
      "dày": 2101,
      "huấn": 2102,
      "gruzia": 2103,
      "cười": 2104,
      "jan": 2105,
      "màn": 2106,
      "bal": 2107,
      "pia": 2108,
      "yo": 2109,
      "cher": 2110,
      "khánh": 2111,
      "mor": 2112,
      "kitô": 2113,
      "bách": 2114,
      "tị": 2115,
      "xạ": 2116,
      "phan": 2117,
      "logi": 2118,
      "syria": 2119,
      "nem": 2120,
      "điêu": 2121,
      "the": 2122,
      "đoan": 2123,
      "cửu": 2124,
      "nic": 2125,
      "múa": 2126,
      "táo": 2127,
      "xít": 2128,
      "đàng": 2129,
      "chấn": 2130,
      "khôn": 2131,
      "anmar": 2132,
      "ino": 2133,
      "myanmar": 2134,
      "carbon": 2135,
      "pales": 2136,
      "euro": 2137,
      "gái": 2138,
      "sal": 2139,
      "sắm": 2140,
      "chuỗi": 2141,
      "bùng": 2142,
      "hộp": 2143,
      "bai": 2144,
      "cối": 2145,
      "fran": 2146,
      "heo": 2147,
      "rào": 2148,
      "trư": 2149,
      "trội": 2150,
      "ngoan": 2151,
      "đêm": 2152,
      "aria": 2153,
      "armen": 2154,
      "palestine": 2155,
      "armenia": 2156,
      "cán": 2157,
      "dấy": 2158,
      "lật": 2159,
      "nhàng": 2160,
      "màng": 2161,
      "erbai": 2162,
      "ary": 2163,
      "azerbai": 2164,
      "azerbaijan": 2165,
      "25": 2166,
      "tháp": 2167,
      "tùng": 2168,
      "vong": 2169,
      "brasil": 2170,
      "bru": 2171,
      "cc": 2172,
      "cột": 2173,
      "dược": 2174,
      "dâng": 2175,
      "st": 2176,
      "gói": 2177,
      "nếp": 2178,
      "tes": 2179,
      "iếng": 2180,
      "quỹ": 2181,
      "lỏng": 2182,
      "đỉnh": 2183,
      "1975": 2184,
      "bar": 2185,
      "bếp": 2186,
      "im": 2187,
      "điền": 2188,
      "ía": 2189,
      "lũy": 2190,
      "'.": 2191,
      "har": 2192,
      "nộ": 2193,
      "vải": 2194,
      "vay": 2195,
      "chối": 2196,
      "chắn": 2197,
      "chiêm": 2198,
      "iếp": 2199,
      "cro": 2200,
      "lf": 2201,
      "mạo": 2202,
      "ngầm": 2203,
      "nhịp": 2204,
      "nhôm": 2205,
      "tha": 2206,
      "trộn": 2207,
      "tiêm": 2208,
      "latinh": 2209,
      "wi": 2210,
      "zan": 2211,
      "thép": 2212,
      "las": 2213,
      "bot": 2214,
      "bb": 2215,
      "gan": 2216,
      "rối": 2217,
      "đăng": 2218,
      "chẳng": 2219,
      "cua": 2220,
      "khung": 2221,
      "cặp": 2222,
      "dệt": 2223,
      "tto": 2224,
      "xơ": 2225,
      "xích": 2226,
      "ano": 2227,
      "chuối": 2228,
      "bbc": 2229,
      "dây": 2230,
      "lông": 2231,
      "ler": 2232,
      "mộc": 2233,
      "ong": 2234,
      "uni": 2235,
      "wai": 2236,
      "thang": 2237,
      "chữa": 2238,
      "đón": 2239,
      "khổng": 2240,
      "13": 2241,
      "sky": 2242,
      "stan": 2243,
      "chênh": 2244,
      "đồn": 2245,
      "mòn": 2246,
      "press": 2247,
      "gran": 2248,
      "kiều": 2249,
      "qa": 2250,
      "tt": 2251,
      "wan": 2252,
      "ãng": 2253,
      "lãm": 2254,
      "hạm": 2255,
      "mía": 2256,
      "schu": 2257,
      "sợ": 2258,
      "ngư": 2259,
      "trừng": 2260,
      "móng": 2261,
      "phút": 2262,
      "bom": 2263,
      "macher": 2264,
      "ppen": 2265,
      "nobel": 2266,
      "versta": 2267,
      "schumacher": 2268,
      "verstappen": 2269,
      "lộc": 2270,
      "mây": 2271,
      "nồng": 2272,
      "os": 2273,
      "trại": 2274,
      "phe": 2275,
      "mon": 2276,
      "193": 2277,
      "bangla": 2278,
      "mắn": 2279,
      "đám": 2280,
      "tron": 2281,
      "hungary": 2282,
      "ấc": 2283,
      "giấc": 2284,
      "cỏ": 2285,
      "lõi": 2286,
      "tia": 2287,
      "timor": 2288,
      "guine": 2289,
      "lym": 2290,
      "lenin": 2291,
      "guinea": 2292,
      "gy": 2293,
      "gánh": 2294,
      "lạt": 2295,
      "rn": 2296,
      "tường": 2297,
      "tặng": 2298,
      "chụp": 2299,
      "sumer": 2300,
      "thọ": 2301,
      "báu": 2302,
      "ad": 2303,
      "ide": 2304,
      "săn": 2305,
      "vài": 2306,
      "khoai": 2307,
      "ướp": 2308,
      "ali": 2309,
      "bơi": 2310,
      "dứt": 2311,
      "nôm": 2312,
      "rã": 2313,
      "nhảy": 2314,
      "giam": 2315,
      "1970": 2316,
      "nigeria": 2317,
      "f1": 2318,
      "garia": 2319,
      "hầm": 2320,
      "mường": 2321,
      "rẽ": 2322,
      "rồng": 2323,
      "shi": 2324,
      "tước": 2325,
      "tạng": 2326,
      "vạn": 2327,
      "thầy": 2328,
      "cứng": 2329,
      "huệ": 2330,
      "lav": 2331,
      "bulgaria": 2332,
      "lympic": 2333,
      "bắp": 2334,
      "iran": 2335,
      "lang": 2336,
      "otto": 2337,
      "rỡ": 2338,
      "tưới": 2339,
      "ngẫm": 2340,
      "trôi": 2341,
      "raina": 2342,
      "logic": 2343,
      "ottoman": 2344,
      "70": 2345,
      "ff": 2346,
      "lẻ": 2347,
      "lỡ": 2348,
      "rễ": 2349,
      "xon": 2350,
      "trăng": 2351,
      "hyd": 2352,
      "hối": 2353,
      "id": 2354,
      "vợ": 2355,
      "xứng": 2356,
      "xưng": 2357,
      "que": 2358,
      "ốp": 2359,
      "aul": 2360,
      "tỏi": 2361,
      "mol": 2362,
      "mali": 2363,
      "ukraina": 2364,
      "50": 2365,
      "bông": 2366,
      "cra": 2367,
      "ethi": 2368,
      "opia": 2369,
      "ris": 2370,
      "ya": 2371,
      "túc": 2372,
      "buồn": 2373,
      "desh": 2374,
      "bangladesh": 2375,
      "ethiopia": 2376,
      "rực": 2377,
      "trục": 2378,
      "chúc": 2379,
      "aland": 2380,
      "sity": 2381,
      "versity": 2382,
      "university": 2383,
      "qatar": 2384,
      "kar": 2385,
      "sút": 2386,
      "súc": 2387,
      "tic": 2388,
      "mada": 2389,
      "bahrain": 2390,
      "gascar": 2391,
      "madagascar": 2392,
      "at": 2393,
      "bảy": 2394,
      "cồn": 2395,
      "lạ": 2396,
      "msky": 2397,
      "xê": 2398,
      "thốn": 2399,
      "trễ": 2400,
      "óc": 2401,
      "chomsky": 2402,
      "dọc": 2403,
      "mùi": 2404,
      "tù": 2405,
      "soạn": 2406,
      "ale": 2407,
      "1990": 2408,
      "xico": 2409,
      "kuwai": 2410,
      "picnic": 2411,
      "web": 2412,
      "johnson": 2413,
      "kuwait": 2414,
      "dồi": 2415,
      "răng": 2416,
      "vin": 2417,
      "trăm": 2418,
      "giây": 2419,
      "lit": 2420,
      "nixon": 2421,
      "ẫy": 2422,
      "mỉ": 2423,
      "grand": 2424,
      "cau": 2425,
      "mừng": 2426,
      "sen": 2427,
      "slav": 2428,
      "đệ": 2429,
      "thiền": 2430,
      "pháo": 2431,
      "gián": 2432,
      "lò": 2433,
      "đồi": 2434,
      "erra": 2435,
      "dẹp": 2436,
      "xoáy": 2437,
      "dao": 2438,
      "gắt": 2439,
      "hư": 2440,
      "ib": 2441,
      "ic": 2442,
      "̀o": 2443,
      "khuất": 2444,
      "suôn": 2445,
      "guay": 2446,
      "htv7": 2447,
      "htv9": 2448,
      "elec": 2449,
      "24": 2450,
      "bran": 2451,
      "geo": 2452,
      "km": 2453,
      "rổ": 2454,
      "sri": 2455,
      "truyện": 2456,
      "ez": 2457,
      "gợi": 2458,
      "lặp": 2459,
      "lượt": 2460,
      "rắn": 2461,
      "hoài": 2462,
      "para": 2463,
      "bri": 2464,
      "dư": 2465,
      "dge": 2466,
      "lis": 2467,
      "per": 2468,
      "un": 2469,
      "vôi": 2470,
      "tràn": 2471,
      "tốn": 2472,
      "suối": 2473,
      "ngồi": 2474,
      "cúm": 2475,
      "electron": 2476,
      "cương": 2477,
      "dan": 2478,
      "dar": 2479,
      "dắt": 2480,
      "gay": 2481,
      "gỏi": 2482,
      "hãng": 2483,
      "lỗi": 2484,
      "rô": 2485,
      "she": 2486,
      "vựng": 2487,
      "xôi": 2488,
      "nhở": 2489,
      "trọt": 2490,
      "dia": 2491,
      "voi": 2492,
      "nei": 2493,
      "brunei": 2494,
      "bơ": 2495,
      "bát": 2496,
      "oman": 2497,
      "rộn": 2498,
      "vở": 2499,
      "xóa": 2500,
      "khoán": 2501,
      "vịt": 2502,
      "liby": 2503,
      "ork": 2504,
      "oxide": 2505,
      "zealand": 2506,
      "libya": 2507,
      "cậu": 2508,
      "dào": 2509,
      "kiệt": 2510,
      "ld": 2511,
      "mệt": 2512,
      "xói": 2513,
      "trãi": 2514,
      "giỏi": 2515,
      "luộc": 2516,
      "mỏi": 2517,
      "arus": 2518,
      "1980": 2519,
      "belarus": 2520,
      "27": 2521,
      "diệu": 2522,
      "char": 2523,
      "vũng": 2524,
      "dọn": 2525,
      "dova": 2526,
      "phụng": 2527,
      "ari": 2528,
      "thoái": 2529,
      "bab": 2530,
      "red": 2531,
      "mag": 2532,
      "moldova": 2533,
      "89": 2534,
      "ken": 2535,
      "kia": 2536,
      "kon": 2537,
      "mưu": 2538,
      "mét": 2539,
      "nis": 2540,
      "tú": 2541,
      "xx": 2542,
      "york": 2543,
      "ngắm": 2544,
      "thợ": 2545,
      "thính": 2546,
      "chưng": 2547,
      "hoãn": 2548,
      "đãi": 2549,
      "ini": 2550,
      "robot": 2551,
      "golf": 2552,
      "ford": 2553,
      "lặng": 2554,
      "ten": 2555,
      "vết": 2556,
      "thai": 2557,
      "thiêng": 2558,
      "chó": 2559,
      "cham": 2560,
      "ram": 2561,
      "aya": 2562,
      "ẻo": 2563,
      "bado": 2564,
      "2010": 2565,
      "video": 2566,
      "geor": 2567,
      "mận": 2568,
      "tấm": 2569,
      "ut": 2570,
      "ngâm": 2571,
      "nhơn": 2572,
      "nhầm": 2573,
      "chỗ": 2574,
      "khá": 2575,
      "quật": 2576,
      "khuôn": 2577,
      "phỏng": 2578,
      "muộn": 2579,
      "iii": 2580,
      "java": 2581,
      "90": 2582,
      "lỗ": 2583,
      "olympic": 2584,
      "sấu": 2585,
      "khoan": 2586,
      "nghìn": 2587,
      "giọng": 2588,
      "barbado": 2589,
      "barbados": 2590,
      "mảng": 2591,
      "zim": 2592,
      "quây": 2593,
      "hỏng": 2594,
      "colo": 2595,
      "én": 2596,
      "ngụy": 2597,
      "alban": 2598,
      "2020": 2599,
      "byzan": 2600,
      "trừ": 2601,
      "albania": 2602,
      "byzantine": 2603,
      "100": 2604,
      "cởi": 2605,
      "for": 2606,
      "gre": 2607,
      "ji": 2608,
      "lậu": 2609,
      "tấu": 2610,
      "wil": 2611,
      "xiêm": 2612,
      "tràng": 2613,
      "phì": 2614,
      "khiêm": 2615,
      "1930": 2616,
      "cas": 2617,
      "ed": 2618,
      "giết": 2619,
      "hức": 2620,
      "háo": 2621,
      "mứt": 2622,
      "mười": 2623,
      "nửa": 2624,
      "ok": 2625,
      "paul": 2626,
      "súng": 2627,
      "ue": 2628,
      "viêm": 2629,
      "xưởng": 2630,
      "khuyết": 2631,
      "ngọn": 2632,
      "luân": 2633,
      "lụa": 2634,
      "lãi": 2635,
      "vik": 2636,
      "gọn": 2637,
      "bol": 2638,
      "nepal": 2639,
      "gue": 2640,
      "mexico": 2641,
      "nato": 2642,
      "2008": 2643,
      "2011": 2644,
      "gai": 2645,
      "gạch": 2646,
      "ll": 2647,
      "str": 2648,
      "tton": 2649,
      "phẫu": 2650,
      "íp": 2651,
      "rang": 2652,
      "sum": 2653,
      "lea": 2654,
      "vacc": 2655,
      "1954": 2656,
      "malaya": 2657,
      "hitler": 2658,
      "shevik": 2659,
      "vaccine": 2660,
      "bận": 2661,
      "cay": 2662,
      "dám": 2663,
      "dna": 2664,
      "tắm": 2665,
      "vặt": 2666,
      "thậm": 2667,
      "chanh": 2668,
      "chán": 2669,
      "khấu": 2670,
      "khine": 2671,
      "cot": 2672,
      "rakhine": 2673,
      "rom": 2674,
      "xèo": 2675,
      "1960": 2676,
      "serbia": 2677,
      "babwe": 2678,
      "zimbabwe": 2679,
      "ac": 2680,
      "bái": 2681,
      "bro": 2682,
      "dam": 2683,
      "mau": 2684,
      "sàn": 2685,
      "sáu": 2686,
      "um": 2687,
      "vé": 2688,
      "đập": 2689,
      "đán": 2690,
      "dor": 2691,
      "tiếc": 2692,
      "lão": 2693,
      "socra": 2694,
      "clé": 2695,
      "lấn": 2696,
      "lốp": 2697,
      "nở": 2698,
      "pin": 2699,
      "plas": 2700,
      "̀nh": 2701,
      "nhượng": 2702,
      "2000": 2703,
      "2007": 2704,
      "séc": 2705,
      "marx": 2706,
      "xoay": 2707,
      "colom": 2708,
      "60": 2709,
      "dẻo": 2710,
      "fi": 2711,
      "rna": 2712,
      "rwan": 2713,
      "đạp": 2714,
      "ngộ": 2715,
      "thạo": 2716,
      "chư": 2717,
      "quế": 2718,
      "chile": 2719,
      "lou": 2720,
      "tuồng": 2721,
      "cambri": 2722,
      "2006": 2723,
      "bull": 2724,
      "london": 2725,
      "rwanda": 2726,
      "cambridge": 2727,
      "23": 2728,
      "mậu": 2729,
      "não": 2730,
      "pan": 2731,
      "nhị": 2732,
      "trượt": 2733,
      "khử": 2734,
      "loa": 2735,
      "roman": 2736,
      "tina": 2737,
      "argen": 2738,
      "por": 2739,
      "bóc": 2740,
      "1950": 2741,
      "game": 2742,
      "litva": 2743,
      "grandclé": 2744,
      "league": 2745,
      "argentina": 2746,
      "grandcléme": 2747,
      "22": 2748,
      "jaya": 2749,
      "nỏ": 2750,
      "nano": 2751,
      "sam": 2752,
      "tê": 2753,
      "tắt": 2754,
      "wor": 2755,
      "trông": 2756,
      "chiêu": 2757,
      "ượn": 2758,
      "cup": 2759,
      "hoá": 2760,
      "ami": 2761,
      "loạt": 2762,
      "tọa": 2763,
      "bour": 2764,
      "mãnh": 2765,
      "emi": 2766,
      "ghép": 2767,
      "beng": 2768,
      "franc": 2769,
      "40": 2770,
      "ab": 2771,
      "cạn": 2772,
      "dời": 2773,
      "kem": 2774,
      "mao": 2775,
      "rửa": 2776,
      "sầm": 2777,
      "tang": 2778,
      "xvi": 2779,
      "ngựa": 2780,
      "khan": 2781,
      "ail": 2782,
      "name": 2783,
      "suri": 2784,
      "bush": 2785,
      "all": 2786,
      "gogh": 2787,
      "email": 2788,
      "liban": 2789,
      "berber": 2790,
      "vẹn": 2791,
      "suriname": 2792,
      "bành": 2793,
      "ben": 2794,
      "ion": 2795,
      "jord": 2796,
      "ndi": 2797,
      "py": 2798,
      "pti": 2799,
      "slo": 2800,
      "tơ": 2801,
      "vắc": 2802,
      "đầm": 2803,
      "nhiếp": 2804,
      "chôm": 2805,
      "ót": 2806,
      "ằn": 2807,
      "thuột": 2808,
      "ắk": 2809,
      "tunis": 2810,
      "eli": 2811,
      "nùng": 2812,
      "sain": 2813,
      "tịnh": 2814,
      "socrates": 2815,
      "tunisia": 2816,
      "cia": 2817,
      "ferra": 2818,
      "hin": 2819,
      "mến": 2820,
      "miêu": 2821,
      "sổ": 2822,
      "sto": 2823,
      "sào": 2824,
      "sét": 2825,
      "var": 2826,
      "đẻ": 2827,
      "bas": 2828,
      "180": 2829,
      "berlin": 2830,
      "charles": 2831,
      "túy": 2832,
      "george": 2833,
      "ferrari": 2834,
      "gp": 2835,
      "lạng": 2836,
      "lẫy": 2837,
      "uz": 2838,
      "xá": 2839,
      "̃u": 2840,
      "khen": 2841,
      "tum": 2842,
      "ting": 2843,
      "ashi": 2844,
      "grego": 2845,
      "world": 2846,
      "bàng": 2847,
      "dy": 2848,
      "gương": 2849,
      "her": 2850,
      "sưu": 2851,
      "via": 2852,
      "vắng": 2853,
      "xay": 2854,
      "đằng": 2855,
      "ngợi": 2856,
      "thám": 2857,
      "phiệt": 2858,
      "phẳng": 2859,
      "air": 2860,
      "ins": 2861,
      "eri": 2862,
      "bum": 2863,
      "đèn": 2864,
      "vil": 2865,
      "album": 2866,
      "2013": 2867,
      "gambia": 2868,
      "bolshevik": 2869,
      "jordan": 2870,
      "bể": 2871,
      "cen": 2872,
      "eg": 2873,
      "mạn": 2874,
      "síp": 2875,
      "tạ": 2876,
      "vtv": 2877,
      "đặng": 2878,
      "ngẫu": 2879,
      "trầu": 2880,
      "chuyền": 2881,
      "đỗ": 2882,
      "mũi": 2883,
      "bur": 2884,
      "nguyệt": 2885,
      "nica": 2886,
      "sabah": 2887,
      "nhiêu": 2888,
      "venez": 2889,
      "2014": 2890,
      "cựu": 2891,
      "nộp": 2892,
      "vợt": 2893,
      "uela": 2894,
      "plasma": 2895,
      "venezuela": 2896,
      "ae": 2897,
      "bốc": 2898,
      "dai": 2899,
      "ju": 2900,
      "lừng": 2901,
      "mảnh": 2902,
      "rác": 2903,
      "vẽ": 2904,
      "ves": 2905,
      "zo": 2906,
      "đĩ": 2907,
      "nhung": 2908,
      "thuy": 2909,
      "chiết": 2910,
      "giày": 2911,
      "ras": 2912,
      "ros": 2913,
      "sus": 2914,
      "190": 2915,
      "bụi": 2916,
      "mala": 2917,
      "sea": 2918,
      "hẹp": 2919,
      "yoga": 2920,
      "salad": 2921,
      "frank": 2922,
      "trừu": 2923,
      "8970": 2924,
      "đĩa": 2925,
      "aci": 2926,
      "atia": 2927,
      "cất": 2928,
      "dê": 2929,
      "hmông": 2930,
      "táng": 2931,
      "ther": 2932,
      "trướng": 2933,
      "congo": 2934,
      "chút": 2935,
      "erc": 2936,
      "2018": 2937,
      "book": 2938,
      "mad": 2939,
      "ring": 2940,
      "lecl": 2941,
      "carbo": 2942,
      "bert": 2943,
      "beria": 2944,
      "croatia": 2945,
      "uzbe": 2946,
      "gregory": 2947,
      "acid": 2948,
      "leclerc": 2949,
      "eins": 2950,
      "hãi": 2951,
      "jung": 2952,
      "kiệu": 2953,
      "lội": 2954,
      "lồ": 2955,
      "nung": 2956,
      "oi": 2957,
      "sợi": 2958,
      "tá": 2959,
      "uru": 2960,
      "wana": 2961,
      "thấu": 2962,
      "hoạn": 2963,
      "đoái": 2964,
      "tuấn": 2965,
      "vijaya": 2966,
      "rich": 2967,
      "huynh": 2968,
      "keting": 2969,
      "carib": 2970,
      "ghế": 2971,
      "marketing": 2972,
      "bénin": 2973,
      "einstein": 2974,
      "caribbe": 2975,
      "cri": 2976,
      "lách": 2977,
      "lặn": 2978,
      "nia": 2979,
      "nor": 2980,
      "ren": 2981,
      "tề": 2982,
      "tảo": 2983,
      "nhựa": 2984,
      "trinh": 2985,
      "chào": 2986,
      "thung": 2987,
      "lũng": 2988,
      "bos": 2989,
      "gua": 2990,
      "1946": 2991,
      "vett": 2992,
      "sỹ": 2993,
      "balkan": 2994,
      "hydra": 2995,
      "carbohydra": 2996,
      "vettel": 2997,
      "ak": 2998,
      "dâu": 2999,
      "fre": 3000,
      "hổ": 3001,
      "ik": 3002,
      "line": 3003,
      "mp": 3004,
      "mượn": 3005,
      "súp": 3006,
      "tẩy": 3007,
      "hoan": 3008,
      "ayut": 3009,
      "tour": 3010,
      "thaya": 3011,
      "bou": 3012,
      "born": 3013,
      "mace": 3014,
      "1940": 3015,
      "2009": 3016,
      "2016": 3017,
      "donia": 3018,
      "hydro": 3019,
      "ayutthaya": 3020,
      "borneo": 3021,
      "macedonia": 3022,
      "cội": 3023,
      "duyên": 3024,
      "hạo": 3025,
      "jam": 3026,
      "sắn": 3027,
      "scot": 3028,
      "uất": 3029,
      "vn": 3030,
      "ngự": 3031,
      "chẩn": 3032,
      "ưởi": 3033,
      "gióng": 3034,
      "ina": 3035,
      "luxem": 3036,
      "button": 3037,
      "ruột": 3038,
      "dad": 3039,
      "bổng": 3040,
      "tồi": 3041,
      "newton": 3042,
      "xong": 3043,
      "zakh": 3044,
      "louis": 3045,
      "uzbekistan": 3046,
      "scotland": 3047,
      "dốc": 3048,
      "ft": 3049,
      "fan": 3050,
      "hước": 3051,
      "miếu": 3052,
      "nd": 3053,
      "rán": 3054,
      "vỡ": 3055,
      "wto": 3056,
      "chôn": 3057,
      "ín": 3058,
      "roc": 3059,
      "rou": 3060,
      "mỏng": 3061,
      "haiti": 3062,
      "eston": 3063,
      "cac": 3064,
      "kipe": 3065,
      "mồi": 3066,
      "liam": 3067,
      "2015": 3068,
      "1955": 3069,
      "stalin": 3070,
      "wikipe": 3071,
      "paraguay": 3072,
      "william": 3073,
      "port": 3074,
      "bourg": 3075,
      "estonia": 3076,
      "wikipedia": 3077,
      "bhu": 3078,
      "bis": 3079,
      "cy": 3080,
      "cướp": 3081,
      "cằn": 3082,
      "df": 3083,
      "ds": 3084,
      "hái": 3085,
      "iv": 3086,
      "kẽ": 3087,
      "lốt": 3088,
      "miến": 3089,
      "nạp": 3090,
      "nas": 3091,
      "ngưng": 3092,
      "thấm": 3093,
      "khâm": 3094,
      "chìm": 3095,
      "cong": 3096,
      "dioxide": 3097,
      "hiv": 3098,
      "emen": 3099,
      "micha": 3100,
      "micro": 3101,
      "188": 3102,
      "1976": 3103,
      "oxford": 3104,
      "berg": 3105,
      "premi": 3106,
      "srivijaya": 3107,
      "bengal": 3108,
      "kẽm": 3109,
      "michael": 3110,
      "premier": 3111,
      "ara": 3112,
      "gấp": 3113,
      "hạch": 3114,
      "lôi": 3115,
      "nàng": 3116,
      "đừng": 3117,
      "ngà": 3118,
      "nhuy": 3119,
      "thả": 3120,
      "triệt": 3121,
      "chồng": 3122,
      "già": 3123,
      "quát": 3124,
      "thục": 3125,
      "dò": 3126,
      "mos": 3127,
      "chuột": 3128,
      "tur": 3129,
      "sòng": 3130,
      "bù": 3131,
      "vich": 3132,
      "cồ": 3133,
      "guin": 3134,
      "pot": 3135,
      "seria": 3136,
      "kant": 3137,
      "francis": 3138,
      "nhuyễn": 3139,
      "bê": 3140,
      "guy": 3141,
      "múi": 3142,
      "rgy": 3143,
      "stro": 3144,
      "vú": 3145,
      "zy": 3146,
      "đợ": 3147,
      "đạc": 3148,
      "trạm": 3149,
      "phiến": 3150,
      "hor": 3151,
      "giáng": 3152,
      "kyrgy": 3153,
      "ngòi": 3154,
      "toản": 3155,
      "nguội": 3156,
      "somal": 3157,
      "2019": 3158,
      "ève": 3159,
      "est": 3160,
      "lanka": 3161,
      "genève": 3162,
      "clar": 3163,
      "romania": 3164,
      "ville": 3165,
      "uruguay": 3166,
      "đợt": 3167,
      "kyrgyz": 3168,
      "somalia": 3169,
      "gừng": 3170,
      "giếng": 3171,
      "kiềm": 3172,
      "lứa": 3173,
      "mị": 3174,
      "mộng": 3175,
      "mầm": 3176,
      "mino": 3177,
      "rị": 3178,
      "sel": 3179,
      "smi": 3180,
      "tày": 3181,
      "ùn": 3182,
      "wis": 3183,
      "đính": 3184,
      "đặn": 3185,
      "ngào": 3186,
      "nhậm": 3187,
      "trạch": 3188,
      "iễu": 3189,
      "phước": 3190,
      "com": 3191,
      "thuê": 3192,
      "đoạt": 3193,
      "mula": 3194,
      "cốm": 3195,
      "cụm": 3196,
      "lewis": 3197,
      "2004": 3198,
      "2017": 3199,
      "usd": 3200,
      "1998": 3201,
      "gate": 3202,
      "hindu": 3203,
      "luxembourg": 3204,
      "bhutan": 3205,
      "vichy": 3206,
      "mịn": 3207,
      "rịa": 3208,
      "smith": 3209,
      "den": 3210,
      "hót": 3211,
      "măng": 3212,
      "miếng": 3213,
      "nản": 3214,
      "nảy": 3215,
      "om": 3216,
      "pla": 3217,
      "sạn": 3218,
      "tẩm": 3219,
      "tào": 3220,
      "tter": 3221,
      "xóm": 3222,
      "đan": 3223,
      "̣o": 3224,
      "nhộn": 3225,
      "trốn": 3226,
      "phôi": 3227,
      "phượng": 3228,
      "khê": 3229,
      "vành": 3230,
      "thoáng": 3231,
      "hus": 3232,
      "2021": 3233,
      "lah": 3234,
      "mas": 3235,
      "maroc": 3236,
      "meso": 3237,
      "2005": 3238,
      "1991": 3239,
      "giò": 3240,
      "xỉ": 3241,
      "cauca": 3242,
      "colombia": 3243,
      "caribbean": 3244,
      "plato": 3245,
      "28": 3246,
      "80": 3247,
      "buy": 3248,
      "bến": 3249,
      "hố": 3250,
      "lánh": 3251,
      "nan": 3252,
      "rce": 3253,
      "khe": 3254,
      "khuyên": 3255,
      "hoành": 3256,
      "lor": 3257,
      "los": 3258,
      "sudan": 3259,
      "trù": 3260,
      "isto": 3261,
      "isseria": 3262,
      "king": 3263,
      "neisseria": 3264,
      "huỳnh": 3265,
      "napo": 3266,
      "pit": 3267,
      "2012": 3268,
      "1992": 3269,
      "braz": 3270,
      "apar": 3271,
      "ape": 3272,
      "athen": 3273,
      "bồi": 3274,
      "cành": 3275,
      "dạn": 3276,
      "gr": 3277,
      "hấu": 3278,
      "kam": 3279,
      "lles": 3280,
      "mờ": 3281,
      "oc": 3282,
      "ward": 3283,
      "washi": 3284,
      "ngột": 3285,
      "ngần": 3286,
      "ngton": 3287,
      "nhai": 3288,
      "chánh": 3289,
      "chừng": 3290,
      "khao": 3291,
      "tropy": 3292,
      "ânia": 3293,
      "entropy": 3294,
      "ars": 3295,
      "tanjung": 3296,
      "poli": 3297,
      "1997": 3298,
      "kazakh": 3299,
      "xit": 3300,
      "shan": 3301,
      "theid": 3302,
      "românia": 3303,
      "kyrgyzstan": 3304,
      "apartheid": 3305,
      "apec": 3306,
      "washington": 3307,
      "98": 3308,
      "bì": 3309,
      "bưởi": 3310,
      "cưỡng": 3311,
      "ei": 3312,
      "hiển": 3313,
      "hề": 3314,
      "hằng": 3315,
      "ice": 3316,
      "kai": 3317,
      "kmen": 3318,
      "lươ": 3319,
      "lẽ": 3320,
      "mé": 3321,
      "rạn": 3322,
      "sừng": 3323,
      "swana": 3324,
      "tz": 3325,
      "tét": 3326,
      "ván": 3327,
      "zon": 3328,
      "thâm": 3329,
      "chao": 3330,
      "chảo": 3331,
      "chục": 3332,
      "giàn": 3333,
      "gieo": 3334,
      "hò": 3335,
      "ragua": 3336,
      "dom": 3337,
      "sushi": 3338,
      "cám": 3339,
      "ala": 3340,
      "sius": 3341,
      "assyria": 3342,
      "xix": 3343,
      "hammad": 3344,
      "botswana": 3345,
      "slavơ": 3346,
      "đệm": 3347,
      "rôma": 3348,
      "nicaragua": 3349,
      "turkmen": 3350,
      "caucasus": 3351,
      "bây": 3352,
      "bồn": 3353,
      "cel": 3354,
      "cke": 3355,
      "dj": 3356,
      "hãn": 3357,
      "kur": 3358,
      "lia": 3359,
      "mè": 3360,
      "ndu": 3361,
      "zi": 3362,
      "nham": 3363,
      "thẻ": 3364,
      "trệ": 3365,
      "chày": 3366,
      "chở": 3367,
      "cúc": 3368,
      "dives": 3369,
      "cừu": 3370,
      "ester": 3371,
      "latv": 3372,
      "taylor": 3373,
      "tanzan": 3374,
      "maldives": 3375,
      "1941": 3376,
      "gael": 3377,
      "bón": 3378,
      "nộm": 3379,
      "bơm": 3380,
      "magna": 3381,
      "champa": 3382,
      "mauri": 3383,
      "guyana": 3384,
      "stroll": 3385,
      "latvia": 3386,
      "tanzania": 3387,
      "%.": 3388,
      ").": 3389,
      "500": 3390,
      "cẩm": 3391,
      "cáp": 3392,
      "dạ": 3393,
      "gal": 3394,
      "jer": 3395,
      "jean": 3396,
      "kau": 3397,
      "kạn": 3398,
      "rêu": 3399,
      "rạch": 3400,
      "tiệp": 3401,
      "xáo": 3402,
      "đực": 3403,
      "đắc": 3404,
      "chel": 3405,
      "ớp": 3406,
      "ans": 3407,
      "co2": 3408,
      "tứ": 3409,
      "amino": 3410,
      "mone": 3411,
      "enzy": 3412,
      "muhammad": 3413,
      "sò": 3414,
      "alg": 3415,
      "ric": 3416,
      "pol": 3417,
      "xửng": 3418,
      "online": 3419,
      "ping": 3420,
      "1949": 3421,
      "2001": 3422,
      "1956": 3423,
      "haas": 3424,
      "stress": 3425,
      "burg": 3426,
      "richard": 3427,
      "grdp": 3428,
      "dội": 3429,
      "diêu": 3430,
      "fri": 3431,
      "gang": 3432,
      "gram": 3433,
      "hươ": 3434,
      "hổi": 3435,
      "lư": 3436,
      "lữ": 3437,
      "lầy": 3438,
      "ns": 3439,
      "nâu": 3440,
      "ose": 3441,
      "rắc": 3442,
      "sâm": 3443,
      "vel": 3444,
      "wn": 3445,
      "xì": 3446,
      "xướng": 3447,
      "đâu": 3448,
      "đắp": 3449,
      "ngủi": 3450,
      "trưa": 3451,
      "cháu": 3452,
      "cuống": 3453,
      "trọn": 3454,
      "quặng": 3455,
      "lum": 3456,
      "rol": 3457,
      "roose": 3458,
      "mona": 3459,
      "mù": 3460,
      "phùng": 3461,
      "aristo": 3462,
      "buru": 3463,
      "baby": 3464,
      "mãng": 3465,
      "rez": 3466,
      "sikh": 3467,
      "nụ": 3468,
      "vakia": 3469,
      "1999": 3470,
      "news": 3471,
      "1989": 3472,
      "1963": 3473,
      "1965": 3474,
      "wat": 3475,
      "trea": 3476,
      "formula": 3477,
      "slovakia": 3478,
      "eritrea": 3479,
      "books": 3480,
      "minoan": 3481,
      "ricci": 3482,
      "hươu": 3483,
      "velt": 3484,
      "roosevelt": 3485,
      "monaco": 3486,
      "aristot": 3487,
      "burundi": 3488,
      "35": 3489,
      "75": 3490,
      "nai": 3491,
      "pra": 3492,
      "xà": 3493,
      "yemen": 3494,
      "zam": 3495,
      "đống": 3496,
      "đạn": 3497,
      "đứt": 3498,
      "đắk": 3499,
      "ngã": 3500,
      "nhược": 3501,
      "trâu": 3502,
      "cháo": 3503,
      "ộm": 3504,
      "hondu": 3505,
      "raci": 3506,
      "duẩn": 3507,
      "toà": 3508,
      "đòn": 3509,
      "lùi": 3510,
      "éri": 3511,
      "mora": 3512,
      "sun": 3513,
      "sùng": 3514,
      "1918": 3515,
      "1917": 3516,
      "gò": 3517,
      "himalaya": 3518,
      "neu": 3519,
      "sierra": 3520,
      "ling": 3521,
      "lius": 3522,
      "kẹt": 3523,
      "ley": 3524,
      "1948": 3525,
      "chev": 3526,
      "leone": 3527,
      "games": 3528,
      "stem": 3529,
      "stantin": 3530,
      "inica": 3531,
      "sainz": 3532,
      "varman": 3533,
      "julius": 3534,
      "dominica": 3535,
      "algéri": 3536,
      "honduras": 3537,
      "racing": 3538,
      "algérie": 3539,
      "29": 3540,
      "aki": 3541,
      "cli": 3542,
      "kín": 3543,
      "lột": 3544,
      "lay": 3545,
      "lấp": 3546,
      "mâm": 3547,
      "ny": 3548,
      "ura": 3549,
      "thở": 3550,
      "phẫn": 3551,
      "khang": 3552,
      "khớp": 3553,
      "quẻ": 3554,
      "chì": 3555,
      "hoà": 3556,
      "costa": 3557,
      "raik": 3558,
      "aipa": 3559,
      "lùn": 3560,
      "tini": 3561,
      "boli": 3562,
      "tripoli": 3563,
      "sili": 3564,
      "rica": 3565,
      "med": 3566,
      "nuối": 3567,
      "napar": 3568,
      "vador": 3569,
      "1974": 3570,
      "bahá": 3571,
      "leste": 3572,
      "dịu": 3573,
      "salvador": 3574,
      "monten": 3575,
      "1939": 3576,
      "tics": 3577,
      "kenya": 3578,
      "konen": 3579,
      "egro": 3580,
      "celsius": 3581,
      "kurd": 3582,
      "raikkonen": 3583,
      "bolivia": 3584,
      "montenegro": 3585,
      "26": 3586,
      "300": 3587,
      "alon": 3588,
      "dra": 3589,
      "dải": 3590,
      "diếp": 3591,
      "fris": 3592,
      "hưu": 3593,
      "ibia": 3594,
      "kis": 3595,
      "lau": 3596,
      "miên": 3597,
      "manh": 3598,
      "nành": 3599,
      "nén": 3600,
      "pt": 3601,
      "ré": 3602,
      "riềng": 3603,
      "sis": 3604,
      "sas": 3605,
      "uel": 3606,
      "way": 3607,
      "ngang": 3608,
      "nger": 3609,
      "thổi": 3610,
      "trini": 3611,
      "chần": 3612,
      "phế": 3613,
      "khải": 3614,
      "đãng": 3615,
      "phách": 3616,
      "rad": 3617,
      "ray": 3618,
      "namibia": 3619,
      "doping": 3620,
      "đùa": 3621,
      "ruốc": 3622,
      "rùa": 3623,
      "singer": 3624,
      "ribo": 3625,
      "kẹo": 3626,
      "sara": 3627,
      "pub": 3628,
      "mid": 3629,
      "đổng": 3630,
      "cartha": 3631,
      "gene": 3632,
      "1996": 3633,
      "pepti": 3634,
      "kaz": 3635,
      "hara": 3636,
      "1968": 3637,
      "178": 3638,
      "karl": 3639,
      "saint": 3640,
      "guiné": 3641,
      "brazil": 3642,
      "alonso": 3643,
      "frisia": 3644,
      "kissinger": 3645,
      "trinidad": 3646,
      "peptide": 3647,
      "31": 3648,
      "36": 3649,
      "cỗ": 3650,
      "dép": 3651,
      "kép": 3652,
      "lận": 3653,
      "liêng": 3654,
      "lắk": 3655,
      "mm": 3656,
      "nứt": 3657,
      "op": 3658,
      "ola": 3659,
      "sốc": 3660,
      "sha": 3661,
      "tc": 3662,
      "tóm": 3663,
      "war": 3664,
      "đẫm": 3665,
      "thô": 3666,
      "thóc": 3667,
      "phơi": 3668,
      "nghiện": 3669,
      "cọc": 3670,
      "thua": 3671,
      "quỳnh": 3672,
      "vuông": 3673,
      "khothai": 3674,
      "mus": 3675,
      "sukhothai": 3676,
      "turing": 3677,
      "1920": 3678,
      "khói": 3679,
      "tion": 3680,
      "nhụy": 3681,
      "bara": 3682,
      "pop": 3683,
      "polis": 3684,
      "nus": 3685,
      "sailles": 3686,
      "2003": 3687,
      "ghé": 3688,
      "cean": 3689,
      "versailles": 3690,
      "1987": 3691,
      "jose": 3692,
      "ander": 3693,
      "akka": 3694,
      "octan": 3695,
      "babylon": 3696,
      "),": 3697,
      "52": 3698,
      "axit": 3699,
      "cal": 3700,
      "cắm": 3701,
      "cali": 3702,
      "dường": 3703,
      "hột": 3704,
      "heli": 3705,
      "ie": 3706,
      "je": 3707,
      "kor": 3708,
      "mclar": 3709,
      "nôi": 3710,
      "pana": 3711,
      "rung": 3712,
      "sương": 3713,
      "ste": 3714,
      "vla": 3715,
      "wo": 3716,
      "́t": 3717,
      "trác": 3718,
      "treo": 3719,
      "phiêu": 3720,
      "race": 3721,
      "angola": 3722,
      "angkor": 3723,
      "austr": 3724,
      "tò": 3725,
      "lucia": 3726,
      "mò": 3727,
      "1912": 3728,
      "alia": 3729,
      "nhuộm": 3730,
      "bỏng": 3731,
      "cồng": 3732,
      "mồ": 3733,
      "site": 3734,
      "miami": 3735,
      "merce": 3736,
      "russel": 3737,
      "1995": 3738,
      "gabon": 3739,
      "pero": 3740,
      "1986": 3741,
      "1969": 3742,
      "ttle": 3743,
      "alex": 3744,
      "paralympic": 3745,
      "peru": 3746,
      "fornia": 3747,
      "colombo": 3748,
      "buýt": 3749,
      "california": 3750,
      "mclaren": 3751,
      "australia": 3752,
      "mercedes": 3753,
      "95": 3754,
      "bút": 3755,
      "dẫu": 3756,
      "eng": 3757,
      "fer": 3758,
      "far": 3759,
      "hen": 3760,
      "húng": 3761,
      "ium": 3762,
      "jr": 3763,
      "lát": 3764,
      "lắp": 3765,
      "mèo": 3766,
      "mrna": 3767,
      "rs": 3768,
      "răn": 3769,
      "rẫy": 3770,
      "uran": 3771,
      "vard": 3772,
      "xí": 3773,
      "xăng": 3774,
      "xốp": 3775,
      "yu": 3776,
      "ngạch": 3777,
      "nhắm": 3778,
      "phộng": 3779,
      "khiết": 3780,
      "khâu": 3781,
      "giầy": 3782,
      "quét": 3783,
      "chica": 3784,
      "nhàm": 3785,
      "toan": 3786,
      "constantin": 3787,
      "sumi": 3788,
      "bago": 3789,
      "back": 3790,
      "goe": 3791,
      "govin": 3792,
      "bor": 3793,
      "bonapar": 3794,
      "bantu": 3795,
      "rụng": 3796,
      "rìu": 3797,
      "liu": 3798,
      "potam": 3799,
      "poly": 3800,
      "nagas": 3801,
      "1947": 3802,
      "léon": 3803,
      "2002": 3804,
      "sey": 3805,
      "seau": 3806,
      "sein": 3807,
      "venia": 3808,
      "1971": 3809,
      "giọt": 3810,
      "pper": 3811,
      "now": 3812,
      "1982": 3813,
      "water": 3814,
      "santo": 3815,
      "hari": 3816,
      "harvard": 3817,
      "ffel": 3818,
      "castro": 3819,
      "slovenia": 3820,
      "1802": 3821,
      "cent": 3822,
      "carbohydrat": 3823,
      "carbohydrate": 3824,
      "hormone": 3825,
      "hussein": 3826,
      "mesopotam": 3827,
      "rcep": 3828,
      "napoléon": 3829,
      "kazakhstan": 3830,
      "981": 3831,
      "fried": 3832,
      "joseph": 3833,
      "uranium": 3834,
      "chicago": 3835,
      "bonaparte": 3836,
      "nagasaki": 3837,
      "mesopotamia": 3838,
      "46": 3839,
      "600": 3840,
      "73": 3841,
      "bla": 3842,
      "ek": 3843,
      "fia": 3844,
      "fur": 3845,
      "gst": 3846,
      "hủ": 3847,
      "itar": 3848,
      "lướt": 3849,
      "mc": 3850,
      "mel": 3851,
      "nút": 3852,
      "pé": 3853,
      "pri": 3854,
      "pênh": 3855,
      "rước": 3856,
      "sảng": 3857,
      "stu": 3858,
      "sars": 3859,
      "stics": 3860,
      "tản": 3861,
      "đấm": 3862,
      "đáy": 3863,
      "̃a": 3864,
      "ngai": 3865,
      "chiêng": 3866,
      "cùi": 3867,
      "phớ": 3868,
      "phra": 3869,
      "phai": 3870,
      "phnôm": 3871,
      "giỗ": 3872,
      "giặc": 3873,
      "giấm": 3874,
      "hoe": 3875,
      "hok": 3876,
      "cov": 3877,
      "ams": 3878,
      "auré": 3879,
      "ngoái": 3880,
      "đọng": 3881,
      "lus": 3882,
      "ron": 3883,
      "robert": 3884,
      "1900": 3885,
      "alem": 3886,
      "alauré": 3887,
      "bat": 3888,
      "bacc": 3889,
      "2025": 3890,
      "lac": 3891,
      "bọc": 3892,
      "vươn": 3893,
      "cap": 3894,
      "guitar": 3895,
      "liberia": 3896,
      "mit": 3897,
      "186": 3898,
      "1979": 3899,
      "usalem": 3900,
      "bec": 3901,
      "times": 3902,
      "1981": 3903,
      "pala": 3904,
      "maya": 3905,
      "wak": 3906,
      "logistics": 3907,
      "ibn": 3908,
      "arif": 3909,
      "éné": 3910,
      "malawi": 3911,
      "bosnia": 3912,
      "cacbon": 3913,
      "turkmenistan": 3914,
      "jerusalem": 3915,
      "enzyme": 3916,
      "moravia": 3917,
      "sarawak": 3918,
      "tcn": 3919,
      "russell": 3920,
      "pérez": 3921,
      "alauréat": 3922,
      "baccalauréat": 3923,
      "ado": 3924,
      "blo": 3925,
      "bám": 3926,
      "bre": 3927,
      "cd": 3928,
      "cấy": 3929,
      "fe": 3930,
      "his": 3931,
      "ks": 3932,
      "kas": 3933,
      "krom": 3934,
      "mẫn": 3935,
      "ner": 3936,
      "nba": 3937,
      "ocon": 3938,
      "sk": 3939,
      "tti": 3940,
      "xv": 3941,
      "đạm": 3942,
      "nhồi": 3943,
      "chứ": 3944,
      "khống": 3945,
      "khắt": 3946,
      "ếm": 3947,
      "hol": 3948,
      "home": 3949,
      "anti": 3950,
      "corn": 3951,
      "raine": 3952,
      "kyo": 3953,
      "ngõ": 3954,
      "tobago": 3955,
      "taji": 3956,
      "mọc": 3957,
      "saurus": 3958,
      "mur": 3959,
      "mũ": 3960,
      "muống": 3961,
      "sụt": 3962,
      "some": 3963,
      "tig": 3964,
      "alta": 3965,
      "alen": 3966,
      "ish": 3967,
      "bonic": 3968,
      "cacao": 3969,
      "max": 3970,
      "kita": 3971,
      "dahome": 3972,
      "bèo": 3973,
      "lepti": 3974,
      "sad": 3975,
      "pua": 3976,
      "pucc": 3977,
      "papua": 3978,
      "185": 3979,
      "piai": 3980,
      "sebas": 3981,
      "ghana": 3982,
      "park": 3983,
      "1973": 3984,
      "1993": 3985,
      "bero": 3986,
      "leon": 3987,
      "ukraine": 3988,
      "baltic": 3989,
      "oscar": 3990,
      "shima": 3991,
      "magnus": 3992,
      "james": 3993,
      "cacbonic": 3994,
      "lưỡi": 3995,
      "lẽo": 3996,
      "ribosome": 3997,
      "henry": 3998,
      "govina": 3999,
      "cappucc": 4000,
      "tajikistan": 4001,
      "dahomey": 4002,
      "leptis": 4003,
      "sebasti": 4004,
      "magnussen": 4005,
      "cappuccino": 4006,
      "400": 4007,
      "cộ": 4008,
      "dại": 4009,
      "giê": 4010,
      "iso": 4011,
      "lở": 4012,
      "liễu": 4013,
      "nới": 4014,
      "nạc": 4015,
      "nville": 4016,
      "oe": 4017,
      "ts": 4018,
      "uae": 4019,
      "vkaz": 4020,
      "thự": 4021,
      "chà": 4022,
      "châm": 4023,
      "ché": 4024,
      "phô": 4025,
      "khiếu": 4026,
      "chin": 4027,
      "hous": 4028,
      "nghịch": 4029,
      "thuấn": 4030,
      "augu": 4031,
      "đôn": 4032,
      "khoái": 4033,
      "dong": 4034,
      "taliban": 4035,
      "mori": 4036,
      "bùi": 4037,
      "bụng": 4038,
      "đéc": 4039,
      "thoả": 4040,
      "huân": 4041,
      "bati": 4042,
      "ise": 4043,
      "ist": 4044,
      "latin": 4045,
      "eles": 4046,
      "elli": 4047,
      "thúy": 4048,
      "david": 4049,
      "pole": 4050,
      "popper": 4051,
      "nucl": 4052,
      "vasumi": 4053,
      "mann": 4054,
      "tệp": 4055,
      "seine": 4056,
      "mari": 4057,
      "kavkaz": 4058,
      "vẹt": 4059,
      "kura": 4060,
      "gasy": 4061,
      "philip": 4062,
      "website": 4063,
      "litz": 4064,
      "thuỵ": 4065,
      "rosberg": 4066,
      "malagasy": 4067,
      "fregate": 4068,
      "méxico": 4069,
      "carthago": 4070,
      "ronal": 4071,
      "houston": 4072,
      "nucleo": 4073,
      "vasumitra": 4074,
      "38": 4075,
      "86": 4076,
      "bầy": 4077,
      "cr": 4078,
      "dha": 4079,
      "dsta": 4080,
      "dina": 4081,
      "diễu": 4082,
      "eas": 4083,
      "fta": 4084,
      "gơ": 4085,
      "gặt": 4086,
      "giêng": 4087,
      "it": 4088,
      "ibe": 4089,
      "jvo": 4090,
      "lung": 4091,
      "nel": 4092,
      "ome": 4093,
      "rồi": 4094,
      "séné": 4095,
      "tộ": 4096,
      "tsky": 4097,
      "wal": 4098,
      "xas": 4099,
      "yết": 4100,
      "z3": 4101,
      "zu": 4102,
      "nhãn": 4103,
      "thạnh": 4104,
      "chris": 4105,
      "cù": 4106,
      "cuộn": 4107,
      "cóc": 4108,
      "uỷ": 4109,
      "chòm": 4110,
      "cor": 4111,
      "radar": 4112,
      "ama": 4113,
      "lod": 4114,
      "ngụ": 4115,
      "1922": 4116,
      "bùn": 4117,
      "time": 4118,
      "đèo": 4119,
      "cổng": 4120,
      "visi": 4121,
      "vojvo": 4122,
      "esar": 4123,
      "cad": 4124,
      "caro": 4125,
      "đếm": 4126,
      "rim": 4127,
      "key": 4128,
      "nik": 4129,
      "texas": 4130,
      "cúp": 4131,
      "patri": 4132,
      "pagan": 4133,
      "carlos": 4134,
      "caribe": 4135,
      "terdam": 4136,
      "1972": 4137,
      "bỉnh": 4138,
      "proton": 4139,
      "gad": 4140,
      "beth": 4141,
      "1988": 4142,
      "1964": 4143,
      "serb": 4144,
      "donau": 4145,
      "zabeth": 4146,
      "mont": 4147,
      "1938": 4148,
      "ffe": 4149,
      "kart": 4150,
      "darlac": 4151,
      "kenne": 4152,
      "golfer": 4153,
      "fifa": 4154,
      "elizabeth": 4155,
      "williams": 4156,
      "athens": 4157,
      "eiffel": 4158,
      "kaido": 4159,
      "aristotle": 4160,
      "zambia": 4161,
      "sunni": 4162,
      "watergate": 4163,
      "haricot": 4164,
      "hokkaido": 4165,
      "amsterdam": 4166,
      "gờm": 4167,
      "omega": 4168,
      "sénégal": 4169,
      "vojvodina": 4170,
      "1000": 4171,
      "130": 4172,
      "78": 4173,
      "bế": 4174,
      "bin": 4175,
      "dập": 4176,
      "del": 4177,
      "dứa": 4178,
      "dji": 4179,
      "et": 4180,
      "ero": 4181,
      "etton": 4182,
      "gau": 4183,
      "glu": 4184,
      "gar": 4185,
      "hke": 4186,
      "hmong": 4187,
      "jus": 4188,
      "kel": 4189,
      "lg": 4190,
      "lô": 4191,
      "liều": 4192,
      "mân": 4193,
      "nại": 4194,
      "plo": 4195,
      "pas": 4196,
      "pyo": 4197,
      "rỗi": 4198,
      "res": 4199,
      "rốt": 4200,
      "sr": 4201,
      "são": 4202,
      "túng": 4203,
      "vừng": 4204,
      "vãn": 4205,
      "wy": 4206,
      "wall": 4207,
      "yale": 4208,
      "zen": 4209,
      "đơ": 4210,
      "đắng": 4211,
      "trỗi": 4212,
      "trơn": 4213,
      "hoán": 4214,
      "howard": 4215,
      "anus": 4216,
      "colum": 4217,
      "lop": 4218,
      "loãng": 4219,
      "roi": 4220,
      "moto": 4221,
      "đun": 4222,
      "đuôi": 4223,
      "supero": 4224,
      "soft": 4225,
      "alha": 4226,
      "vòm": 4227,
      "gor": 4228,
      "isa": 4229,
      "banon": 4230,
      "bantam": 4231,
      "ema": 4232,
      "mak": 4233,
      "magy": 4234,
      "tanie": 4235,
      "lebanon": 4236,
      "lỵ": 4237,
      "martin": 4238,
      "1994": 4239,
      "1957": 4240,
      "1958": 4241,
      "1984": 4242,
      "1962": 4243,
      "lende": 4244,
      "zebu": 4245,
      "face": 4246,
      "franç": 4247,
      "xviii": 4248,
      "benetton": 4249,
      "franklin": 4250,
      "bouti": 4251,
      "bishke": 4252,
      "mauritanie": 4253,
      "cornwall": 4254,
      "djibouti": 4255,
      "kelvin": 4256,
      "pyotr": 4257,
      "đờn": 4258,
      "superocean": 4259,
      "alhazen": 4260,
      "magyar": 4261,
      "bishkek": 4262,
      "42": 4263,
      "44": 4264,
      "96": 4265,
      "biếm": 4266,
      "cp": 4267,
      "càn": 4268,
      "eise": 4269,
      "fra": 4270,
      "fdi": 4271,
      "gra": 4272,
      "gắm": 4273,
      "gaul": 4274,
      "hận": 4275,
      "hóc": 4276,
      "ize": 4277,
      "iberia": 4278,
      "jen": 4279,
      "kking": 4280,
      "lưng": 4281,
      "lượ": 4282,
      "mổ": 4283,
      "mướt": 4284,
      "mck": 4285,
      "of": 4286,
      "oh": 4287,
      "ol": 4288,
      "ois": 4289,
      "ps": 4290,
      "ppi": 4291,
      "pdf": 4292,
      "rảnh": 4293,
      "rậm": 4294,
      "ss": 4295,
      "sả": 4296,
      "sho": 4297,
      "stri": 4298,
      "sana": 4299,
      "tp": 4300,
      "ul": 4301,
      "ule": 4302,
      "wer": 4303,
      "xẩm": 4304,
      "xấp": 4305,
      "zza": 4306,
      "ngạn": 4307,
      "ngậy": 4308,
      "ngói": 4309,
      "tháo": 4310,
      "cul": 4311,
      "phà": 4312,
      "gis": 4313,
      "gini": 4314,
      "nghiêng": 4315,
      "choleste": 4316,
      "cose": 4317,
      "sửu": 4318,
      "aids": 4319,
      "tolia": 4320,
      "roma": 4321,
      "rock": 4322,
      "roseau": 4323,
      "more": 4324,
      "tím": 4325,
      "die": 4326,
      "dian": 4327,
      "enten": 4328,
      "suma": 4329,
      "suhar": 4330,
      "phun": 4331,
      "trump": 4332,
      "sỏi": 4333,
      "tius": 4334,
      "thomas": 4335,
      "him": 4336,
      "cape": 4337,
      "rug": 4338,
      "gü": 4339,
      "navar": 4340,
      "189": 4341,
      "pir": 4342,
      "pita": 4343,
      "pizza": 4344,
      "mere": 4345,
      "hero": 4346,
      "marché": 4347,
      "bio": 4348,
      "istanbul": 4349,
      "taira": 4350,
      "petro": 4351,
      "nhọn": 4352,
      "nhower": 4353,
      "1953": 4354,
      "hawai": 4355,
      "1967": 4356,
      "belize": 4357,
      "german": 4358,
      "lina": 4359,
      "pres": 4360,
      "anatolia": 4361,
      "sharif": 4362,
      "kundi": 4363,
      "kok": 4364,
      "kov": 4365,
      "trekking": 4366,
      "zegovina": 4367,
      "darfur": 4368,
      "gainville": 4369,
      "chừ": 4370,
      "samo": 4371,
      "bengali": 4372,
      "xvii": 4373,
      "allele": 4374,
      "herzegovina": 4375,
      "vtv1": 4376,
      "thuý": 4377,
      "bougainville": 4378,
      "cyc": 4379,
      "francisco": 4380,
      "athena": 4381,
      "neutron": 4382,
      "publis": 4383,
      "akkadian": 4384,
      "blake": 4385,
      "prix": 4386,
      "adolf": 4387,
      "glucose": 4388,
      "eisenhower": 4389,
      "lượm": 4390,
      "cholesterol": 4391,
      "entente": 4392,
      "suharto": 4393,
      "hawaii": 4394,
      "kundika": 4395,
      "37": 4396,
      "840": 4397,
      "bs": 4398,
      "bích": 4399,
      "bục": 4400,
      "biền": 4401,
      "bưu": 4402,
      "bdf": 4403,
      "din": 4404,
      "das": 4405,
      "fes": 4406,
      "grou": 4407,
      "hú": 4408,
      "hdi": 4409,
      "hall": 4410,
      "hchev": 4411,
      "ila": 4412,
      "jai": 4413,
      "jin": 4414,
      "jaz": 4415,
      "kva": 4416,
      "lầu": 4417,
      "lừa": 4418,
      "mes": 4419,
      "nđ": 4420,
      "nêm": 4421,
      "ráo": 4422,
      "rặng": 4423,
      "sl": 4424,
      "sp": 4425,
      "snow": 4426,
      "tte": 4427,
      "vd": 4428,
      "was": 4429,
      "x2": 4430,
      "².": 4431,
      "đẽ": 4432,
      "nhường": 4433,
      "thầu": 4434,
      "thắc": 4435,
      "thrace": 4436,
      "cht": 4437,
      "chàng": 4438,
      "chậu": 4439,
      "chạp": 4440,
      "chiếng": 4441,
      "phổi": 4442,
      "phồng": 4443,
      "khảm": 4444,
      "khép": 4445,
      "khiêu": 4446,
      "khrus": 4447,
      "khaz": 4448,
      "ếch": 4449,
      "rat": 4450,
      "photon": 4451,
      "inis": 4452,
      "town": 4453,
      "luther": 4454,
      "roshima": 4455,
      "chuông": 4456,
      "muỗi": 4457,
      "ardo": 4458,
      "tỉa": 4459,
      "alan": 4460,
      "baham": 4461,
      "2023": 4462,
      "isp": 4463,
      "eswa": 4464,
      "hiroshima": 4465,
      "cata": 4466,
      "empana": 4467,
      "hỷ": 4468,
      "nex": 4469,
      "camero": 4470,
      "niko": 4471,
      "kimi": 4472,
      "sahara": 4473,
      "tamil": 4474,
      "pique": 4475,
      "setia": 4476,
      "1977": 4477,
      "1978": 4478,
      "nhẹn": 4479,
      "peso": 4480,
      "1959": 4481,
      "1983": 4482,
      "habs": 4483,
      "1961": 4484,
      "1789": 4485,
      "cles": 4486,
      "city": 4487,
      "1427": 4488,
      "kong": 4489,
      "sanid": 4490,
      "thera": 4491,
      "ossetia": 4492,
      "50xx": 4493,
      "vincent": 4494,
      "uefa": 4495,
      "brown": 4496,
      "hers": 4497,
      "cricke": 4498,
      "norris": 4499,
      "bosna": 4500,
      "bissau": 4501,
      "microsoft": 4502,
      "arakan": 4503,
      "moskva": 4504,
      "clarke": 4505,
      "massa": 4506,
      "gaelic": 4507,
      "sassanid": 4508,
      "geneva": 4509,
      "vladi": 4510,
      "191250xx": 4511,
      "kennedy": 4512,
      "8406": 4513,
      "group": 4514,
      "khrushchev": 4515,
      "bahamas": 4516,
      "eswatini": 4517,
      "empanadas": 4518,
      "cameroon": 4519,
      "piquet": 4520,
      "habsburg": 4521,
      "cricket": 4522,
      "191250xxxx": 4523,
      "34": 4524,
      "3000": 4525,
      "51": 4526,
      "bt": 4527,
      "best": 4528,
      "bama": 4529,
      "cm": 4530,
      "cpi": 4531,
      "der": 4532,
      "ex": 4533,
      "ebo": 4534,
      "ether": 4535,
      "fo": 4536,
      "fu": 4537,
      "fair": 4538,
      "han": 4539,
      "hẻ": 4540,
      "hít": 4541,
      "ita": 4542,
      "jor": 4543,
      "jsto": 4544,
      "kin": 4545,
      "liêm": 4546,
      "mw": 4547,
      "mươi": 4548,
      "náo": 4549,
      "nen": 4550,
      "ozon": 4551,
      "obama": 4552,
      "rgi": 4553,
      "rho": 4554,
      "sấy": 4555,
      "sãi": 4556,
      "tà": 4557,
      "tẻ": 4558,
      "tạc": 4559,
      "tằm": 4560,
      "vách": 4561,
      "val": 4562,
      "vầy": 4563,
      "vóc": 4564,
      "ws": 4565,
      "windo": 4566,
      "zbol": 4567,
      "đản": 4568,
      "đục": 4569,
      "ngài": 4570,
      "nhài": 4571,
      "tria": 4572,
      "trans": 4573,
      "chéo": 4574,
      "chester": 4575,
      "kha": 4576,
      "khiếm": 4577,
      "khiêng": 4578,
      "qué": 4579,
      "hocke": 4580,
      "andor": 4581,
      "uyển": 4582,
      "chola": 4583,
      "amin": 4584,
      "toy": 4585,
      "tomé": 4586,
      "tokyo": 4587,
      "sauber": 4588,
      "chum": 4589,
      "sul": 4590,
      "suez": 4591,
      "tụng": 4592,
      "tụt": 4593,
      "sotho": 4594,
      "soni": 4595,
      "tis": 4596,
      "tiano": 4597,
      "virgi": 4598,
      "hũ": 4599,
      "bachev": 4600,
      "hing": 4601,
      "emala": 4602,
      "major": 4603,
      "kilo": 4604,
      "kiyo": 4605,
      "simp": 4606,
      "guat": 4607,
      "libero": 4608,
      "nile": 4609,
      "canxi": 4610,
      "mengay": 4611,
      "methan": 4612,
      "mir": 4613,
      "pid": 4614,
      "1944": 4615,
      "hezbol": 4616,
      "marco": 4617,
      "prodsta": 4618,
      "pei": 4619,
      "kat": 4620,
      "kawa": 4621,
      "xiv": 4622,
      "1985": 4623,
      "had": 4624,
      "mayer": 4625,
      "uris": 4626,
      "prín": 4627,
      "cipe": 4628,
      "kö": 4629,
      "eurovisi": 4630,
      "ngừm": 4631,
      "osman": 4632,
      "monte": 4633,
      "shiva": 4634,
      "dance": 4635,
      "pina": 4636,
      "thuỷ": 4637,
      "seattle": 4638,
      "1887": 4639,
      "smithsoni": 4640,
      "shannon": 4641,
      "iceland": 4642,
      "zonda": 4643,
      "silic": 4644,
      "silica": 4645,
      "barak": 4646,
      "goethe": 4647,
      "sebastian": 4648,
      "nelson": 4649,
      "christiano": 4650,
      "lgbt": 4651,
      "columbia": 4652,
      "gorbachev": 4653,
      "gaulle": 4654,
      "jenson": 4655,
      "ebola": 4656,
      "hẻm": 4657,
      "jstor": 4658,
      "rhodes": 4659,
      "windows": 4660,
      "québec": 4661,
      "andorra": 4662,
      "virgin": 4663,
      "simpang": 4664,
      "guatemala": 4665,
      "mengayau": 4666,
      "hezbollah": 4667,
      "prodstat": 4668,
      "príncipe": 4669,
      "eurovision": 4670,
      "smithsonian": 4671,
      "christianopolis": 4672,
      "3d": 4673,
      "45": 4674,
      "abra": 4675,
      "bướ": 4676,
      "bẩn": 4677,
      "bồng": 4678,
      "cz": 4679,
      "dho": 4680,
      "dật": 4681,
      "dàn": 4682,
      "éc": 4683,
      "fpa": 4684,
      "gg": 4685,
      "gác": 4686,
      "ip": 4687,
      "ida": 4688,
      "jas": 4689,
      "jun": 4690,
      "kiêng": 4691,
      "kry": 4692,
      "lèo": 4693,
      "lượn": 4694,
      "nể": 4695,
      "nang": 4696,
      "nát": 4697,
      "nêu": 4698,
      "niêm": 4699,
      "ou": 4700,
      "pes": 4701,
      "sươ": 4702,
      "sanh": 4703,
      "sứa": 4704,
      "stre": 4705,
      "semi": 4706,
      "ua": 4707,
      "viếng": 4708,
      "win": 4709,
      "xả": 4710,
      "xế": 4711,
      "xinh": 4712,
      "xang": 4713,
      "zhiv": 4714,
      "ædia": 4715,
      "đắt": 4716,
      "đắm": 4717,
      "ngục": 4718,
      "nhục": 4719,
      "nhặt": 4720,
      "nhốt": 4721,
      "thà": 4722,
      "thề": 4723,
      "thắt": 4724,
      "chăng": 4725,
      "chướng": 4726,
      "chén": 4727,
      "iễm": 4728,
      "cus": 4729,
      "khương": 4730,
      "khấn": 4731,
      "khali": 4732,
      "trotsky": 4733,
      "giã": 4734,
      "giff": 4735,
      "ani": 4736,
      "chòi": 4737,
      "col": 4738,
      "cọ": 4739,
      "como": 4740,
      "cott": 4741,
      "dur": 4742,
      "ange": 4743,
      "aude": 4744,
      "inc": 4745,
      "dou": 4746,
      "togo": 4747,
      "rov": 4748,
      "mọng": 4749,
      "chui": 4750,
      "xeer": 4751,
      "ence": 4752,
      "encyc": 4753,
      "đụng": 4754,
      "mubarak": 4755,
      "truman": 4756,
      "sovo": 4757,
      "art": 4758,
      "arman": 4759,
      "1914": 4760,
      "tite": 4761,
      "vỉa": 4762,
      "alger": 4763,
      "vol": 4764,
      "vòi": 4765,
      "nhũ": 4766,
      "myco": 4767,
      "balo": 4768,
      "babang": 4769,
      "bagh": 4770,
      "gong": 4771,
      "lapita": 4772,
      "hil": 4773,
      "boy": 4774,
      "boro": 4775,
      "thìn": 4776,
      "mac": 4777,
      "macau": 4778,
      "tannica": 4779,
      "lip": 4780,
      "asper": 4781,
      "ascus": 4782,
      "nghẽn": 4783,
      "dẹt": 4784,
      "delou": 4785,
      "pion": 4786,
      "1943": 4787,
      "menshevik": 4788,
      "gaa": 4789,
      "peter": 4790,
      "ileo": 4791,
      "jos": 4792,
      "claude": 4793,
      "bullah": 4794,
      "shia": 4795,
      "sharia": 4796,
      "kosovo": 4797,
      "kanish": 4798,
      "250": 4799,
      "rãnh": 4800,
      "aten": 4801,
      "vinta": 4802,
      "britannica": 4803,
      "unfpa": 4804,
      "champion": 4805,
      "edward": 4806,
      "damascus": 4807,
      "samuel": 4808,
      "abdu": 4809,
      "zone": 4810,
      "1905": 4811,
      "guadelou": 4812,
      "lineback": 4813,
      "ports": 4814,
      "nasa": 4815,
      "napoleon": 4816,
      "galileo": 4817,
      "tinianus": 4818,
      "alexander": 4819,
      "friedman": 4820,
      "stus": 4821,
      "oecd": 4822,
      "augustus": 4823,
      "litzer": 4824,
      "justinianus": 4825,
      "lopædia": 4826,
      "facebook": 4827,
      "diego": 4828,
      "peirce": 4829,
      "abraha": 4830,
      "bướm": 4831,
      "dhofar": 4832,
      "krym": 4833,
      "sườn": 4834,
      "semit": 4835,
      "zhivkov": 4836,
      "khalifa": 4837,
      "giffen": 4838,
      "comoros": 4839,
      "encyclopædia": 4840,
      "babangida": 4841,
      "baghdad": 4842,
      "aspern": 4843,
      "kanishka": 4844,
      "guadeloupe": 4845,
      "linebacker": 4846,
      "\".": 4847,
      "53": 4848,
      "92": 4849,
      "bạt": 4850,
      "băm": 4851,
      "diên": 4852,
      "diêm": 4853,
      "ey": 4854,
      "ecua": 4855,
      "ges": 4856,
      "ggu": 4857,
      "glas": 4858,
      "hôi": 4859,
      "hel": 4860,
      "hman": 4861,
      "hẻo": 4862,
      "ito": 4863,
      "ibra": 4864,
      "ivan": 4865,
      "kaya": 4866,
      "lự": 4867,
      "mít": 4868,
      "mler": 4869,
      "nậm": 4870,
      "nãy": 4871,
      "oli": 4872,
      "opolis": 4873,
      "pai": 4874,
      "pang": 4875,
      "pto": 4876,
      "sv": 4877,
      "ssu": 4878,
      "sand": 4879,
      "spin": 4880,
      "tễ": 4881,
      "tăm": 4882,
      "túi": 4883,
      "tbi": 4884,
      "ub": 4885,
      "up": 4886,
      "una": 4887,
      "upu": 4888,
      "vội": 4889,
      "varia": 4890,
      "won": 4891,
      "xiii": 4892,
      "yếm": 4893,
      "đái": 4894,
      "đeo": 4895,
      "đứa": 4896,
      "̄n": 4897,
      "ngải": 4898,
      "nhạt": 4899,
      "thệ": 4900,
      "thêu": 4901,
      "thiếc": 4902,
      "phạn": 4903,
      "phen": 4904,
      "khản": 4905,
      "giậu": 4906,
      "gium": 4907,
      "china": 4908,
      "hoại": 4909,
      "hova": 4910,
      "cói": 4911,
      "nghiền": 4912,
      "thùng": 4913,
      "duệ": 4914,
      "quyến": 4915,
      "ain": 4916,
      "aica": 4917,
      "auto": 4918,
      "lomon": 4919,
      "cỡ": 4920,
      "int": 4921,
      "lụi": 4922,
      "luồng": 4923,
      "rò": 4924,
      "rous": 4925,
      "rotter": 4926,
      "saussu": 4927,
      "ent": 4928,
      "đũa": 4929,
      "truất": 4930,
      "tuta": 4931,
      "ture": 4932,
      "turn": 4933,
      "solomon": 4934,
      "1923": 4935,
      "buồng": 4936,
      "albert": 4937,
      "alley": 4938,
      "bac": 4939,
      "bavaria": 4940,
      "gõ": 4941,
      "2022": 4942,
      "lava": 4943,
      "kiri": 4944,
      "ney": 4945,
      "tric": 4946,
      "rid": 4947,
      "rỉ": 4948,
      "guồng": 4949,
      "lipid": 4950,
      "nigo": 4951,
      "meh": 4952,
      "metan": 4953,
      "mekong": 4954,
      "leic": 4955,
      "ledge": 4956,
      "sava": 4957,
      "nhiễu": 4958,
      "pulitzer": 4959,
      "manuel": 4960,
      "manila": 4961,
      "manchester": 4962,
      "mil": 4963,
      "michel": 4964,
      "malta": 4965,
      "1942": 4966,
      "mark": 4967,
      "geno": 4968,
      "illa": 4969,
      "hä": 4970,
      "1966": 4971,
      "chợt": 4972,
      "stabro": 4973,
      "andria": 4974,
      "eucli": 4975,
      "bahn": 4976,
      "koroma": 4977,
      "wad": 4978,
      "fac": 4979,
      "fah": 4980,
      "bali": 4981,
      "europa": 4982,
      "brueg": 4983,
      "thara": 4984,
      "granada": 4985,
      "1936": 4986,
      "lisi": 4987,
      "ariel": 4988,
      "kendi": 4989,
      "kontum": 4990,
      "basque": 4991,
      "1804": 4992,
      "gps": 4993,
      "daimler": 4994,
      "jamaica": 4995,
      "portcul": 4996,
      "ziggu": 4997,
      "mauritius": 4998,
      "kauthara": 4999,
      "watson": 5000,
      "aristoteles": 5001,
      "cliffe": 5002,
      "guinée": 5003,
      "ople": 5004,
      "woo": 5005,
      "alexandria": 5006,
      "yusu": 5007,
      "constantinopolis": 5008,
      "constantinople": 5009,
      "polypeptide": 5010,
      "melilla": 5011,
      "battuta": 5012,
      "chàm": 5013,
      "caroling": 5014,
      "wycliffe": 5015,
      "rugby": 5016,
      "jaina": 5017,
      "jazz": 5018,
      "inista": 5019,
      "nikolai": 5020,
      "rhodesia": 5021,
      "ecuador": 5022,
      "ibrahim": 5023,
      "kayak": 5024,
      "lựu": 5025,
      "svc": 5026,
      "sandinista": 5027,
      "tbilisi": 5028,
      "autobahn": 5029,
      "rotterdam": 5030,
      "saussure": 5031,
      "turner": 5032,
      "kiribati": 5033,
      "stabroek": 5034,
      "euclid": 5035,
      "bruegel": 5036,
      "portcullis": 5037,
      "ziggurat": 5038,
      "66": 5039,
      "72": 5040,
      "800": 5041,
      "ah": 5042,
      "agan": 5043,
      "b6": 5044,
      "bau": 5045,
      "bẩm": 5046,
      "biếu": 5047,
      "blan": 5048,
      "b12": 5049,
      "biếng": 5050,
      "cé": 5051,
      "dó": 5052,
      "dán": 5053,
      "dăm": 5054,
      "dính": 5055,
      "fid": 5056,
      "gmy": 5057,
      "gãy": 5058,
      "gger": 5059,
      "hano": 5060,
      "ies": 5061,
      "ika": 5062,
      "kìm": 5063,
      "kram": 5064,
      "lơ": 5065,
      "lộng": 5066,
      "lé": 5067,
      "lộn": 5068,
      "lười": 5069,
      "mác": 5070,
      "nần": 5071,
      "nặc": 5072,
      "neo": 5073,
      "nồi": 5074,
      "ña": 5075,
      "ori": 5076,
      "off": 5077,
      "pdo": 5078,
      "ple": 5079,
      "rộ": 5080,
      "rể": 5081,
      "rẻ": 5082,
      "rbas": 5083,
      "sộ": 5084,
      "sạt": 5085,
      "sán": 5086,
      "seo": 5087,
      "sáo": 5088,
      "ski": 5089,
      "sưởi": 5090,
      "stig": 5091,
      "tể": 5092,
      "tánh": 5093,
      "uông": 5094,
      "ure": 5095,
      "udf": 5096,
      "vác": 5097,
      "vạc": 5098,
      "viền": 5099,
      "vrbas": 5100,
      "xốt": 5101,
      "yaz": 5102,
      "yalta": 5103,
      "zel": 5104,
      "zalta": 5105,
      "đốm": 5106,
      "̣m": 5107,
      "ngưu": 5108,
      "nhé": 5109,
      "nhút": 5110,
      "thal": 5111,
      "tral": 5112,
      "trúng": 5113,
      "chồi": 5114,
      "khar": 5115,
      "giận": 5116,
      "hoo": 5117,
      "horus": 5118,
      "anton": 5119,
      "cole": 5120,
      "cosaurus": 5121,
      "íu": 5122,
      "rahman": 5123,
      "duke": 5124,
      "quỳ": 5125,
      "ặm": 5126,
      "namara": 5127,
      "lona": 5128,
      "logy": 5129,
      "door": 5130,
      "top": 5131,
      "tòng": 5132,
      "luña": 5133,
      "ròng": 5134,
      "rome": 5135,
      "mozam": 5136,
      "diz": 5137,
      "diox": 5138,
      "eole": 5139,
      "enne": 5140,
      "tuab": 5141,
      "sos": 5142,
      "solin": 5143,
      "arf": 5144,
      "1919": 5145,
      "1913": 5146,
      "buồm": 5147,
      "tislav": 5148,
      "philus": 5149,
      "ald": 5150,
      "alba": 5151,
      "allah": 5152,
      "vọt": 5153,
      "mỳ": 5154,
      "gond": 5155,
      "cưng": 5156,
      "latte": 5157,
      "lacosaurus": 5158,
      "boei": 5159,
      "eld": 5160,
      "calo": 5161,
      "eman": 5162,
      "emia": 5163,
      "rex": 5164,
      "reagan": 5165,
      "mapu": 5166,
      "mather": 5167,
      "rụm": 5168,
      "kie": 5169,
      "sian": 5170,
      "sien": 5171,
      "sihano": 5172,
      "tanni": 5173,
      "gur": 5174,
      "nikita": 5175,
      "dafi": 5176,
      "polo": 5177,
      "letin": 5178,
      "tetum": 5179,
      "nuts": 5180,
      "naji": 5181,
      "natter": 5182,
      "punic": 5183,
      "mìn": 5184,
      "mitter": 5185,
      "mitanni": 5186,
      "ors": 5187,
      "orlé": 5188,
      "rand": 5189,
      "heide": 5190,
      "mart": 5191,
      "marus": 5192,
      "bique": 5193,
      "celona": 5194,
      "nhõm": 5195,
      "mẹo": 5196,
      "1951": 5197,
      "nol": 5198,
      "noam": 5199,
      "jong": 5200,
      "euphra": 5201,
      "bulletin": 5202,
      "sergio": 5203,
      "series": 5204,
      "wey": 5205,
      "160": 5206,
      "lenoi": 5207,
      "vania": 5208,
      "vandoor": 5209,
      "kanyaz": 5210,
      "cheng": 5211,
      "piastri": 5212,
      "thèm": 5213,
      "barcelona": 5214,
      "1933": 5215,
      "gyi": 5216,
      "laval": 5217,
      "240": 5218,
      "paramari": 5219,
      "darlan": 5220,
      "magma": 5221,
      "utc": 5222,
      "casso": 5223,
      "caspi": 5224,
      "pygmy": 5225,
      "central": 5226,
      "rastislav": 5227,
      "nasser": 5228,
      "ement": 5229,
      "mesosaurus": 5230,
      "chelles": 5231,
      "praha": 5232,
      "365": 5233,
      "mussolin": 5234,
      "seychelles": 5235,
      "santos": 5236,
      "friedrich": 5237,
      "mcnamara": 5238,
      "brexit": 5239,
      "saddam": 5240,
      "moritz": 5241,
      "ronaldo": 5242,
      "creole": 5243,
      "gaddafi": 5244,
      "françois": 5245,
      "graph": 5246,
      "mckay": 5247,
      "shona": 5248,
      "navarra": 5249,
      "herophilus": 5250,
      "petrolacosaurus": 5251,
      "cataluña": 5252,
      "italia": 5253,
      "hockey": 5254,
      "kilogram": 5255,
      "silicat": 5256,
      "ahmed": 5257,
      "fidel": 5258,
      "lợp": 5259,
      "office": 5260,
      "thaler": 5261,
      "antonelli": 5262,
      "mozambique": 5263,
      "dioxin": 5264,
      "tuabin": 5265,
      "gondwana": 5266,
      "boeing": 5267,
      "sihanouk": 5268,
      "najibullah": 5269,
      "mitterrand": 5270,
      "orléans": 5271,
      "heidegger": 5272,
      "marussia": 5273,
      "euphrates": 5274,
      "lenoir": 5275,
      "vandoorne": 5276,
      "kanyaza": 5277,
      "paramaribo": 5278,
      "mussolini": 5279,
      "%,": 5280,
      "32": 5281,
      "33": 5282,
      "64": 5283,
      "71": 5284,
      "76": 5285,
      "79": 5286,
      "85": 5287,
      "ā": 5288,
      "abu": 5289,
      "aton": 5290,
      "agas": 5291,
      "akhen": 5292,
      "avarman": 5293,
      "bần": 5294,
      "bương": 5295,
      "bbel": 5296,
      "blin": 5297,
      "blende": 5298,
      "cươ": 5299,
      "cày": 5300,
      "cược": 5301,
      "diều": 5302,
      "dỗ": 5303,
      "dấm": 5304,
      "dỡ": 5305,
      "ea": 5306,
      "eco": 5307,
      "fau": 5308,
      "fin": 5309,
      "fred": 5310,
      "glo": 5311,
      "gand": 5312,
      "hq": 5313,
      "hốc": 5314,
      "hạc": 5315,
      "iana": 5316,
      "ioc": 5317,
      "liêu": 5318,
      "lóc": 5319,
      "mượt": 5320,
      "nà": 5321,
      "nương": 5322,
      "né": 5323,
      "nốt": 5324,
      "nứa": 5325,
      "nếm": 5326,
      "oanh": 5327,
      "px": 5328,
      "panh": 5329,
      "pino": 5330,
      "rê": 5331,
      "râm": 5332,
      "rtu": 5333,
      "rét": 5334,
      "rhe": 5335,
      "sô": 5336,
      "sar": 5337,
      "sếp": 5338,
      "sland": 5339,
      "tép": 5340,
      "tem": 5341,
      "vần": 5342,
      "vấp": 5343,
      "wen": 5344,
      "waz": 5345,
      "xiên": 5346,
      "yến": 5347,
      "yon": 5348,
      "đrô": 5349,
      "̈l": 5350,
      "ngung": 5351,
      "ngãi": 5352,
      "ngrad": 5353,
      "nhì": 5354,
      "thia": 5355,
      "trau": 5356,
      "trắc": 5357,
      "chai": 5358,
      "chầu": 5359,
      "ches": 5360,
      "phả": 5361,
      "phiền": 5362,
      "khiếp": 5363,
      "giường": 5364,
      "giội": 5365,
      "giấu": 5366,
      "quấn": 5367,
      "quẩn": 5368,
      "ques": 5369,
      "chipot": 5370,
      "hou": 5371,
      "hong": 5372,
      "horn": 5373,
      "anide": 5374,
      "anura": 5375,
      "nghé": 5376,
      "cholas": 5377,
      "cour": 5378,
      "ranga": 5379,
      "ramen": 5380,
      "amar": 5381,
      "amaz": 5382,
      "dus": 5383,
      "duranga": 5384,
      "namo": 5385,
      "lõng": 5386,
      "loire": 5387,
      "lotoy": 5388,
      "phoen": 5389,
      "indra": 5390,
      "domi": 5391,
      "dover": 5392,
      "domus": 5393,
      "toa": 5394,
      "toga": 5395,
      "toyo": 5396,
      "lue": 5397,
      "luang": 5398,
      "luẩn": 5399,
      "rog": 5400,
      "tốp": 5401,
      "tac": 5402,
      "tacht": 5403,
      "move": 5404,
      "moun": 5405,
      "modus": 5406,
      "dio": 5407,
      "saud": 5408,
      "enna": 5409,
      "muk": 5410,
      "muon": 5411,
      "sury": 5412,
      "eric": 5413,
      "tus": 5414,
      "sọ": 5415,
      "sọc": 5416,
      "argü": 5417,
      "buông": 5418,
      "buda": 5419,
      "tide": 5420,
      "vii": 5421,
      "viking": 5422,
      "mys": 5423,
      "lais": 5424,
      "batt": 5425,
      "golan": 5426,
      "isari": 5427,
      "isds": 5428,
      "hire": 5429,
      "hippi": 5430,
      "hiđrô": 5431,
      "bọt": 5432,
      "ell": 5433,
      "elles": 5434,
      "caesar": 5435,
      "thium": 5436,
      "mash": 5437,
      "mafia": 5438,
      "kir": 5439,
      "kiwi": 5440,
      "nep": 5441,
      "sim": 5442,
      "siz": 5443,
      "siro": 5444,
      "siberia": 5445,
      "kẹp": 5446,
      "nike": 5447,
      "nitơ": 5448,
      "nicholas": 5449,
      "mea": 5450,
      "dah": 5451,
      "nuvong": 5452,
      "bangkok": 5453,
      "vati": 5454,
      "parov": 5455,
      "1870": 5456,
      "piano": 5457,
      "venice": 5458,
      "ght": 5459,
      "oxit": 5460,
      "bitum": 5461,
      "prost": 5462,
      "pedo": 5463,
      "kara": 5464,
      "verhoe": 5465,
      "xoài": 5466,
      "xoong": 5467,
      "pali": 5468,
      "vegas": 5469,
      "belisari": 5470,
      "brah": 5471,
      "andre": 5472,
      "lines": 5473,
      "indoram": 5474,
      "shin": 5475,
      "1400": 5476,
      "150": 5477,
      "vanua": 5478,
      "chet": 5479,
      "elet": 5480,
      "zaville": 5481,
      "balaton": 5482,
      "yos": 5483,
      "europe": 5484,
      "euronex": 5485,
      "salami": 5486,
      "harry": 5487,
      "wick": 5488,
      "1931": 5489,
      "crangon": 5490,
      "cramp": 5491,
      "icia": 5492,
      "chót": 5493,
      "georgia": 5494,
      "wilson": 5495,
      "acb": 5496,
      "acre": 5497,
      "plasmid": 5498,
      "panduranga": 5499,
      "abd": 5500,
      "benin": 5501,
      "dysis": 5502,
      "airlines": 5503,
      "zolotoy": 5504,
      "1904": 5505,
      "cript": 5506,
      "zakher": 5507,
      "louisiana": 5508,
      "fansland": 5509,
      "cyanide": 5510,
      "nando": 5511,
      "brazzaville": 5512,
      "arslan": 5513,
      "lườn": 5514,
      "gaeltacht": 5515,
      "jersey": 5516,
      "enzym": 5517,
      "nsnd": 5518,
      "watelet": 5519,
      "urartu": 5520,
      "midway": 5521,
      "1787": 5522,
      "anderen": 5523,
      "akkad": 5524,
      "jeju": 5525,
      "panade": 5526,
      "vlaanderen": 5527,
      "fernando": 5528,
      "goebbel": 5529,
      "hispan": 5530,
      "kasparov": 5531,
      "skri": 5532,
      "nucleoprotein": 5533,
      "nucleotide": 5534,
      "dhabi": 5535,
      "esarhad": 5536,
      "keynes": 5537,
      "motogp": 5538,
      "pirelli": 5539,
      "germanic": 5540,
      "publishers": 5541,
      "slình": 5542,
      "wasa": 5543,
      "mwami": 5544,
      "kiyomori": 5545,
      "algeria": 5546,
      "yusuf": 5547,
      "kramnik": 5548,
      "ānuvong": 5549,
      "agassiz": 5550,
      "akhenaten": 5551,
      "cưỡi": 5552,
      "pinochet": 5553,
      "rhee": 5554,
      "cheshire": 5555,
      "chipotle": 5556,
      "hornblende": 5557,
      "amazon": 5558,
      "phoenicia": 5559,
      "indravarman": 5560,
      "domingo": 5561,
      "toyota": 5562,
      "mounbatt": 5563,
      "suryavarman": 5564,
      "argüelles": 5565,
      "hippie": 5566,
      "verhoeven": 5567,
      "belisarius": 5568,
      "vanuatu": 5569,
      "euronext": 5570,
      "crampton": 5571,
      "goebbels": 5572,
      "esarhaddon": 5573,
      "mounbatten": 5574,
      ".,": 5575,
      "47": 5576,
      "48": 5577,
      "77": 5578,
      "avo": 5579,
      "atri": 5580,
      "ace": 5581,
      "atv": 5582,
      "abru": 5583,
      "akawa": 5584,
      "bệ": 5585,
      "bes": 5586,
      "bẫy": 5587,
      "cấn": 5588,
      "dd": 5589,
      "dực": 5590,
      "day": 5591,
      "dvd": 5592,
      "dặm": 5593,
      "ev": 5594,
      "eta": 5595,
      "econ": 5596,
      "ete": 5597,
      "ever": 5598,
      "etown": 5599,
      "euris": 5600,
      "fon": 5601,
      "fish": 5602,
      "g8": 5603,
      "gập": 5604,
      "gne": 5605,
      "grau": 5606,
      "gren": 5607,
      "gcom": 5608,
      "hé": 5609,
      "héo": 5610,
      "imere": 5611,
      "ktu": 5612,
      "kwa": 5613,
      "kali": 5614,
      "know": 5615,
      "kkin": 5616,
      "lli": 5617,
      "lema": 5618,
      "mĩ": 5619,
      "min": 5620,
      "nq": 5621,
      "nến": 5622,
      "nard": 5623,
      "obi": 5624,
      "oop": 5625,
      "ocean": 5626,
      "oliu": 5627,
      "qh": 5628,
      "rải": 5629,
      "rạng": 5630,
      "rít": 5631,
      "sn": 5632,
      "say": 5633,
      "siết": 5634,
      "squa": 5635,
      "shuy": 5636,
      "scha": 5637,
      "tao": 5638,
      "tfre": 5639,
      "tsuma": 5640,
      "uky": 5641,
      "uẩn": 5642,
      "uốn": 5643,
      "ugan": 5644,
      "vối": 5645,
      "vỗ": 5646,
      "vạch": 5647,
      "wdi": 5648,
      "whit": 5649,
      "west": 5650,
      "xộn": 5651,
      "yang": 5652,
      "zca": 5653,
      "zzo": 5654,
      "đày": 5655,
      "đốn": 5656,
      "̀e": 5657,
      "̀ong": 5658,
      "nhí": 5659,
      "nhức": 5660,
      "nhối": 5661,
      "nhúng": 5662,
      "thau": 5663,
      "thạc": 5664,
      "thắp": 5665,
      "thắm": 5666,
      "thềm": 5667,
      "thiếp": 5668,
      "triện": 5669,
      "trảng": 5670,
      "trám": 5671,
      "chài": 5672,
      "chước": 5673,
      "chứt": 5674,
      "change": 5675,
      "phồn": 5676,
      "khinh": 5677,
      "khau": 5678,
      "khăng": 5679,
      "khale": 5680,
      "gier": 5681,
      "giun": 5682,
      "quách": 5683,
      "quin": 5684,
      "quầy": 5685,
      "quãng": 5686,
      "ớn": 5687,
      "hoạ": 5688,
      "homo": 5689,
      "ann": 5690,
      "nghênh": 5691,
      "nghiễm": 5692,
      "cow": 5693,
      "cọp": 5694,
      "cola": 5695,
      "cochin": 5696,
      "íno": 5697,
      "rac": 5698,
      "rasia": 5699,
      "radio": 5700,
      "ềnh": 5701,
      "ốctan": 5702,
      "dugong": 5703,
      "angeles": 5704,
      "kyi": 5705,
      "kỵ": 5706,
      "kyus": 5707,
      "kythera": 5708,
      "aung": 5709,
      "tiếu": 5710,
      "khund": 5711,
      "inno": 5712,
      "inbur": 5713,
      "khọt": 5714,
      "toph": 5715,
      "xuôi": 5716,
      "đòong": 5717,
      "roque": 5718,
      "tinkhund": 5719,
      "tatar": 5720,
      "taft": 5721,
      "taíno": 5722,
      "khít": 5723,
      "vụn": 5724,
      "dìu": 5725,
      "diva": 5726,
      "diale": 5727,
      "nóc": 5728,
      "nón": 5729,
      "chùn": 5730,
      "chuộc": 5731,
      "chùm": 5732,
      "eomuk": 5733,
      "bộn": 5734,
      "ende": 5735,
      "đuống": 5736,
      "mun": 5737,
      "muz": 5738,
      "munis": 5739,
      "suu": 5740,
      "phùn": 5741,
      "tuwe": 5742,
      "arsen": 5743,
      "array": 5744,
      "1927": 5745,
      "1929": 5746,
      "bus": 5747,
      "bula": 5748,
      "buktu": 5749,
      "tier": 5750,
      "đem": 5751,
      "vis": 5752,
      "vish": 5753,
      "alfa": 5754,
      "allende": 5755,
      "algier": 5756,
      "vò": 5757,
      "vosto": 5758,
      "nhuế": 5759,
      "mỵ": 5760,
      "baroque": 5761,
      "2024": 5762,
      "lad": 5763,
      "laar": 5764,
      "laser": 5765,
      "higg": 5766,
      "bọn": 5767,
      "ellen": 5768,
      "elíp": 5769,
      "cake": 5770,
      "cation": 5771,
      "tyle": 5772,
      "embang": 5773,
      "renhe": 5774,
      "mat": 5775,
      "ruồi": 5776,
      "rupia": 5777,
      "tửu": 5778,
      "sipan": 5779,
      "simone": 5780,
      "rive": 5781,
      "guar": 5782,
      "guel": 5783,
      "gutfre": 5784,
      "lifes": 5785,
      "lication": 5786,
      "nitric": 5787,
      "mee": 5788,
      "pon": 5789,
      "point": 5790,
      "lemy": 5791,
      "lesotho": 5792,
      "satsuma": 5793,
      "natic": 5794,
      "nazca": 5795,
      "bangsamo": 5796,
      "pulaar": 5797,
      "value": 5798,
      "bayakawa": 5799,
      "pata": 5800,
      "pathe": 5801,
      "paper": 5802,
      "papan": 5803,
      "mankie": 5804,
      "tamar": 5805,
      "deng": 5806,
      "dewey": 5807,
      "minamo": 5808,
      "miguel": 5809,
      "1850": 5810,
      "organ": 5811,
      "malac": 5812,
      "carnatic": 5813,
      "sef": 5814,
      "serou": 5815,
      "terence": 5816,
      "maria": 5817,
      "oxi": 5818,
      "ust": 5819,
      "taire": 5820,
      "bearman": 5821,
      "beatri": 5822,
      "betuwe": 5823,
      "petis": 5824,
      "timbuktu": 5825,
      "illy": 5826,
      "ppp": 5827,
      "1010": 5828,
      "noi": 5829,
      "noby": 5830,
      "tvqh": 5831,
      "tràm": 5832,
      "víz": 5833,
      "xoá": 5834,
      "xoắn": 5835,
      "xòe": 5836,
      "palani": 5837,
      "palembang": 5838,
      "vec": 5839,
      "phara": 5840,
      "johor": 5841,
      "joule": 5842,
      "andes": 5843,
      "pris": 5844,
      "euler": 5845,
      "gash": 5846,
      "koga": 5847,
      "kobayakawa": 5848,
      "ardashi": 5849,
      "zewdi": 5850,
      "fati": 5851,
      "ryuky": 5852,
      "balik": 5853,
      "ballad": 5854,
      "chernoby": 5855,
      "logie": 5856,
      "eurocom": 5857,
      "salar": 5858,
      "salman": 5859,
      "aryan": 5860,
      "barka": 5861,
      "crous": 5862,
      "lfgang": 5863,
      "thak": 5864,
      "wicz": 5865,
      "stanford": 5866,
      "osling": 5867,
      "ffer": 5868,
      "queira": 5869,
      "quebec": 5870,
      "ault": 5871,
      "karel": 5872,
      "seneg": 5873,
      "geolli": 5874,
      "und": 5875,
      "belarusia": 5876,
      "charlema": 5877,
      "georges": 5878,
      "great": 5879,
      "edinbur": 5880,
      "romeo": 5881,
      "fiche": 5882,
      "field": 5883,
      "samjin": 5884,
      "abbas": 5885,
      "abkhaz": 5886,
      "erick": 5887,
      "madrid": 5888,
      "uruk": 5889,
      "crimino": 5890,
      "norman": 5891,
      "renault": 5892,
      "freetown": 5893,
      "hổng": 5894,
      "fansipan": 5895,
      "route": 5896,
      "nash": 5897,
      "microarray": 5898,
      "microfiche": 5899,
      "moscow": 5900,
      "hormuz": 5901,
      "mulatto": 5902,
      "omist": 5903,
      "kaiete": 5904,
      "ricciardo": 5905,
      "leyte": 5906,
      "layer": 5907,
      "medang": 5908,
      "sisserou": 5909,
      "publication": 5910,
      "haratin": 5911,
      "1783": 5912,
      "ware": 5913,
      "warren": 5914,
      "jesus": 5915,
      "wolfgang": 5916,
      "rsport": 5917,
      "backs": 5918,
      "feet": 5919,
      "antikythera": 5920,
      "1857": 5921,
      "cordiale": 5922,
      "patrick": 5923,
      "gadro": 5924,
      "motorsport": 5925,
      "isaac": 5926,
      "makgeolli": 5927,
      "4217": 5928,
      "ulet": 5929,
      "biotite": 5930,
      "prescott": 5931,
      "samoa": 5932,
      "vladivosto": 5933,
      "dervish": 5934,
      "fairway": 5935,
      "junqueira": 5936,
      "oudong": 5937,
      "douglas": 5938,
      "voltaire": 5939,
      "mycoplasma": 5940,
      "boyle": 5941,
      "champions": 5942,
      "abdul": 5943,
      "ptolemy": 5944,
      "ubtvqh": 5945,
      "fahrenhe": 5946,
      "cassoulet": 5947,
      "frederick": 5948,
      "gandhi": 5949,
      "panhellen": 5950,
      "yossef": 5951,
      "hispanic": 5952,
      "avogadro": 5953,
      "aceh": 5954,
      "abruzzo": 5955,
      "economist": 5956,
      "eurisko": 5957,
      "grenada": 5958,
      "gcompris": 5959,
      "hévíz": 5960,
      "imereti": 5961,
      "knowledge": 5962,
      "kkinen": 5963,
      "obitan": 5964,
      "oceania": 5965,
      "rítx": 5966,
      "square": 5967,
      "shuyun": 5968,
      "schaffer": 5969,
      "uganda": 5970,
      "whittier": 5971,
      "nhím": 5972,
      "khaleda": 5973,
      "kyushu": 5974,
      "innocent": 5975,
      "tinkhundla": 5976,
      "endemol": 5977,
      "munism": 5978,
      "arsenal": 5979,
      "algiers": 5980,
      "higgs": 5981,
      "rupiah": 5982,
      "gutfreund": 5983,
      "lifestyle": 5984,
      "bangsamoro": 5985,
      "pathet": 5986,
      "paperbacks": 5987,
      "mankiewicz": 5988,
      "minamoto": 5989,
      "malacca": 5990,
      "beatrice": 5991,
      "betuweroute": 5992,
      "ardashir": 5993,
      "zewditu": 5994,
      "ryukyu": 5995,
      "balikpapan": 5996,
      "chernobyl": 5997,
      "eurocommunism": 5998,
      "senegal": 5999,
      "charlemagne": 6000,
      "edinburgh": 6001,
      "abkhazia": 6002,
      "criminologie": 6003,
      "microarrays": 6004,
      "kaieteur": 6005,
      "publications": 6006,
      "vladivostok": 6007,
      "fahrenheit": 6008,
      "panhellenic": 6009,
      "07": 6010,
      "39": 6011,
      "41": 6012,
      "43": 6013,
      "4000": 6014,
      "82": 6015,
      "927": 6016,
      "asian": 6017,
      "bã": 6018,
      "bới": 6019,
      "bco": 6020,
      "bở": 6021,
      "bộc": 6022,
      "bti": 6023,
      "bẩy": 6024,
      "bốt": 6025,
      "ć": 6026,
      "ctin": 6027,
      "cta": 6028,
      "cía": 6029,
      "dậu": 6030,
      "dem": 6031,
      "dre": 6032,
      "dale": 6033,
      "dney": 6034,
      "ec": 6035,
      "ep": 6036,
      "eti": 6037,
      "etri": 6038,
      "ebro": 6039,
      "feli": 6040,
      "gn": 6041,
      "gàng": 6042,
      "gạc": 6043,
      "gậy": 6044,
      "glau": 6045,
      "hách": 6046,
      "hống": 6047,
      "hanh": 6048,
      "hói": 6049,
      "hans": 6050,
      "hemia": 6051,
      "ian": 6052,
      "ien": 6053,
      "ilai": 6054,
      "iup": 6055,
      "kana": 6056,
      "kén": 6057,
      "kdong": 6058,
      "lanh": 6059,
      "lặt": 6060,
      "lẩu": 6061,
      "lter": 6062,
      "lard": 6063,
      "llf": 6064,
      "lằn": 6065,
      "lsto": 6066,
      "líu": 6067,
      "mam": 6068,
      "mạt": 6069,
      "mấy": 6070,
      "mút": 6071,
      "mphu": 6072,
      "mồng": 6073,
      "mjin": 6074,
      "m240": 6075,
      "mbti": 6076,
      "nạo": 6077,
      "nto": 6078,
      "nord": 6079,
      "och": 6080,
      "ole": 6081,
      "ohil": 6082,
      "pest": 6083,
      "ráp": 6084,
      "sá": 6085,
      "sầu": 6086,
      "shu": 6087,
      "ston": 6088,
      "sồi": 6089,
      "spor": 6090,
      "tza": 6091,
      "tóc": 6092,
      "vại": 6093,
      "vẩu": 6094,
      "wele": 6095,
      "xéo": 6096,
      "xxi": 6097,
      "yung": 6098,
      "yika": 6099,
      "đấ": 6100,
      "̈m": 6101,
      "̈ik": 6102,
      "ngạc": 6103,
      "ngwan": 6104,
      "nhã": 6105,
      "nhang": 6106,
      "nháy": 6107,
      "thiến": 6108,
      "thằn": 6109,
      "thwick": 6110,
      "tran": 6111,
      "trăn": 6112,
      "trêm": 6113,
      "trino": 6114,
      "chạo": 6115,
      "chằng": 6116,
      "chiền": 6117,
      "chard": 6118,
      "ầng": 6119,
      "phy": 6120,
      "phệ": 6121,
      "phác": 6122,
      "khano": 6123,
      "giốc": 6124,
      "giật": 6125,
      "qur": 6126,
      "quệ": 6127,
      "quai": 6128,
      "quàng": 6129,
      "quạt": 6130,
      "quầng": 6131,
      "ẳ": 6132,
      "hoi": 6133,
      "họng": 6134,
      "hoes": 6135,
      "hore": 6136,
      "hõm": 6137,
      "ane": 6138,
      "anyika": 6139,
      "úy": 6140,
      "chori": 6141,
      "cõi": 6142,
      "copt": 6143,
      "coure": 6144,
      "ímar": 6145,
      "ral": 6146,
      "raff": 6147,
      "räik": 6148,
      "duar": 6149,
      "aise": 6150,
      "loni": 6151,
      "ngò": 6152,
      "insu": 6153,
      "khoát": 6154,
      "doha": 6155,
      "dollf": 6156,
      "toại": 6157,
      "toro": 6158,
      "topop": 6159,
      "tofu": 6160,
      "tolsto": 6161,
      "quadra": 6162,
      "luống": 6163,
      "luks": 6164,
      "road": 6165,
      "rohing": 6166,
      "tarim": 6167,
      "moga": 6168,
      "dishu": 6169,
      "saudi": 6170,
      "xen": 6171,
      "muru": 6172,
      "muno": 6173,
      "suphan": 6174,
      "super": 6175,
      "ertz": 6176,
      "trùm": 6177,
      "tul": 6178,
      "tuế": 6179,
      "tuttle": 6180,
      "hainu": 6181,
      "arer": 6182,
      "1910": 6183,
      "1911": 6184,
      "1921": 6185,
      "1924": 6186,
      "1926": 6187,
      "buan": 6188,
      "buri": 6189,
      "bumi": 6190,
      "titan": 6191,
      "phia": 6192,
      "vira": 6193,
      "viii": 6194,
      "vić": 6195,
      "thoảng": 6196,
      "alpes": 6197,
      "hun": 6198,
      "huad": 6199,
      "von": 6200,
      "võng": 6201,
      "voya": 6202,
      "vosum": 6203,
      "vony": 6204,
      "nhuệ": 6205,
      "quýt": 6206,
      "bacon": 6207,
      "gom": 6208,
      "gotá": 6209,
      "issn": 6210,
      "esports": 6211,
      "esquadra": 6212,
      "labuan": 6213,
      "épin": 6214,
      "bong": 6215,
      "bohemia": 6216,
      "bogotá": 6217,
      "phím": 6218,
      "nhim": 6219,
      "capon": 6220,
      "tyrol": 6221,
      "thỉnh": 6222,
      "thimphu": 6223,
      "empedo": 6224,
      "maha": 6225,
      "maja": 6226,
      "mahuad": 6227,
      "rum": 6228,
      "rũ": 6229,
      "chịt": 6230,
      "trigur": 6231,
      "simon": 6232,
      "rio": 6233,
      "ricar": 6234,
      "rius": 6235,
      "libre": 6236,
      "asia": 6237,
      "astra": 6238,
      "aswan": 6239,
      "aspir": 6240,
      "ashore": 6241,
      "huỷ": 6242,
      "nico": 6243,
      "nival": 6244,
      "cantopop": 6245,
      "melo": 6246,
      "media": 6247,
      "methium": 6248,
      "dae": 6249,
      "raunto": 6250,
      "kimbab": 6251,
      "leter": 6252,
      "lectin": 6253,
      "satan": 6254,
      "sake": 6255,
      "saxon": 6256,
      "tera": 6257,
      "nubia": 6258,
      "nation": 6259,
      "nature": 6260,
      "nawaz": 6261,
      "nakdong": 6262,
      "putera": 6263,
      "vada": 6264,
      "vapala": 6265,
      "pahit": 6266,
      "mans": 6267,
      "manche": 6268,
      "tama": 6269,
      "deep": 6270,
      "devapala": 6271,
      "miran": 6272,
      "mids": 6273,
      "micom": 6274,
      "1812": 6275,
      "1890": 6276,
      "1831": 6277,
      "orro": 6278,
      "orchard": 6279,
      "malboro": 6280,
      "pier": 6281,
      "carlis": 6282,
      "carey": 6283,
      "carnival": 6284,
      "carraunto": 6285,
      "merina": 6286,
      "lywoo": 6287,
      "seac": 6288,
      "ghton": 6289,
      "hecta": 6290,
      "mars": 6291,
      "uss": 6292,
      "bill": 6293,
      "bibco": 6294,
      "promethium": 6295,
      "bezel": 6296,
      "gioan": 6297,
      "1952": 6298,
      "xios": 6299,
      "vía": 6300,
      "xoan": 6301,
      "star": 6302,
      "phage": 6303,
      "internation": 6304,
      "sys": 6305,
      "syzy": 6306,
      "sydney": 6307,
      "rainilai": 6308,
      "kutrigur": 6309,
      "cites": 6310,
      "1460": 6311,
      "1407": 6312,
      "1644": 6313,
      "donald": 6314,
      "kansen": 6315,
      "kanom": 6316,
      "afc": 6317,
      "chewan": 6318,
      "jakar": 6319,
      "sanskri": 6320,
      "silvania": 6321,
      "you": 6322,
      "france": 6323,
      "brum": 6324,
      "imf": 6325,
      "lascau": 6326,
      "wancheng": 6327,
      "ngừ": 6328,
      "monza": 6329,
      "1932": 6330,
      "sumeria": 6331,
      "quẹt": 6332,
      "yak": 6333,
      "yahoo": 6334,
      "atlas": 6335,
      "alexios": 6336,
      "senna": 6337,
      "shearer": 6338,
      "arivony": 6339,
      "champai": 6340,
      "chamorro": 6341,
      "utsul": 6342,
      "907": 6343,
      "edta": 6344,
      "socratic": 6345,
      "romanos": 6346,
      "jayavarman": 6347,
      "tanganyika": 6348,
      "bennu": 6349,
      "benito": 6350,
      "stop": 6351,
      "georgetown": 6352,
      "dyson": 6353,
      "aegis": 6354,
      "rosso": 6355,
      "crick": 6356,
      "crimea": 6357,
      "1886": 6358,
      "mossos": 6359,
      "moshoes": 6360,
      "guyane": 6361,
      "ström": 6362,
      "policía": 6363,
      "fritz": 6364,
      "nsch": 6365,
      "neutrino": 6366,
      "saskat": 6367,
      "carthage": 6368,
      "1788": 6369,
      "barack": 6370,
      "babylonia": 6371,
      "steven": 6372,
      "stephen": 6373,
      "peroni": 6374,
      "farland": 6375,
      "bormann": 6376,
      "borthwick": 6377,
      "polymer": 6378,
      "mcfarland": 6379,
      "nervosum": 6380,
      "hollywoo": 6381,
      "antioch": 6382,
      "kyoto": 6383,
      "murnigo": 6384,
      "sebastião": 6385,
      "crépin": 6386,
      "walmart": 6387,
      "walloni": 6388,
      "cord": 6389,
      "carolina": 6390,
      "pasta": 6391,
      "resta": 6392,
      "française": 6393,
      "moretti": 6394,
      "sumatra": 6395,
      "güímar": 6396,
      "publishing": 6397,
      "vdc": 6398,
      "theravada": 6399,
      "vladimir": 6400,
      "extrêm": 6401,
      "foral": 6402,
      "tàm": 6403,
      "trias": 6404,
      "könen": 6405,
      "montevideo": 6406,
      "école": 6407,
      "baloch": 6408,
      "macma": 6409,
      "lipb": 6410,
      "aintza": 6411,
      "rousseau": 6412,
      "leicester": 6413,
      "genova": 6414,
      "hänsch": 6415,
      "facto": 6416,
      "orient": 6417,
      "seomjin": 6418,
      "stiglitz": 6419,
      "houghton": 6420,
      "taccord": 6421,
      "budapest": 6422,
      "mystra": 6423,
      "karachi": 6424,
      "shinkansen": 6425,
      "fatimids": 6426,
      "demetri": 6427,
      "felipe": 6428,
      "glauber": 6429,
      "iupsys": 6430,
      "mamluks": 6431,
      "stoner": 6432,
      "sportaccord": 6433,
      "yungas": 6434,
      "đấng": 6435,
      "ngwane": 6436,
      "transilvania": 6437,
      "khanom": 6438,
      "chorizo": 6439,
      "coureur": 6440,
      "raffles": 6441,
      "räikkönen": 6442,
      "duarte": 6443,
      "insulin": 6444,
      "dollfuss": 6445,
      "tolstoy": 6446,
      "rohingya": 6447,
      "mogadishu": 6448,
      "murugan": 6449,
      "munoz": 6450,
      "suphanburi": 6451,
      "superman": 6452,
      "ertzaintza": 6453,
      "hainuwele": 6454,
      "bumiputera": 6455,
      "voyager": 6456,
      "empedocles": 6457,
      "majapahit": 6458,
      "ricardo": 6459,
      "libreville": 6460,
      "astrakhan": 6461,
      "aspirin": 6462,
      "leterme": 6463,
      "miranda": 6464,
      "micombero": 6465,
      "carlisle": 6466,
      "carrauntoohil": 6467,
      "bibcode": 6468,
      "international": 6469,
      "syzygium": 6470,
      "rainilaiarivony": 6471,
      "jakarta": 6472,
      "sanskrit": 6473,
      "lascaux": 6474,
      "champaign": 6475,
      "moshoeshoe": 6476,
      "saskatchewan": 6477,
      "hollywood": 6478,
      "murnigotti": 6479,
      "wallonie": 6480,
      "extrême": 6481,
      "demetrios": 6482,
      ".\"": 6483,
      "120": 6484,
      "1200": 6485,
      "210": 6486,
      "57": 6487,
      "58": 6488,
      "59": 6489,
      "65": 6490,
      "74": 6491,
      "83": 6492,
      "av": 6493,
      "agu": 6494,
      "agen": 6495,
      "ating": 6496,
      "alum": 6497,
      "bặc": 6498,
      "bẻ": 6499,
      "bừa": 6500,
      "bít": 6501,
      "bine": 6502,
      "bbat": 6503,
      "ct": 6504,
      "cước": 6505,
      "côi": 6506,
      "cer": 6507,
      "cắn": 6508,
      "cca": 6509,
      "cầy": 6510,
      "clit": 6511,
      "cloa": 6512,
      "dh": 6513,
      "dạt": 6514,
      "dơi": 6515,
      "dro": 6516,
      "dé": 6517,
      "dland": 6518,
      "drang": 6519,
      "edo": 6520,
      "enga": 6521,
      "eck": 6522,
      "ević": 6523,
      "fti": 6524,
      "fari": 6525,
      "flip": 6526,
      "găng": 6527,
      "gbo": 6528,
      "gel": 6529,
      "glon": 6530,
      "gali": 6531,
      "galand": 6532,
      "ht": 6533,
      "hiên": 6534,
      "hở": 6535,
      "hiền": 6536,
      "hla": 6537,
      "has": 6538,
      "hand": 6539,
      "hiếp": 6540,
      "ir": 6541,
      "ilo": 6542,
      "iel": 6543,
      "ingrad": 6544,
      "ifti": 6545,
      "igbo": 6546,
      "juk": 6547,
      "kị": 6548,
      "kì": 6549,
      "keo": 6550,
      "ker": 6551,
      "kes": 6552,
      "kiêu": 6553,
      "kiếp": 6554,
      "kami": 6555,
      "keri": 6556,
      "kberg": 6557,
      "klava": 6558,
      "lì": 6559,
      "lề": 6560,
      "lốc": 6561,
      "líp": 6562,
      "ml": 6563,
      "ms": 6564,
      "mú": 6565,
      "mán": 6566,
      "mễ": 6567,
      "mca": 6568,
      "mli": 6569,
      "mpo": 6570,
      "nôn": 6571,
      "nàn": 6572,
      "nấp": 6573,
      "nari": 6574,
      "nps": 6575,
      "ope": 6576,
      "oya": 6577,
      "oak": 6578,
      "pô": 6579,
      "pả": 6580,
      "pung": 6581,
      "pen": 6582,
      "pmu": 6583,
      "ppo": 6584,
      "pine": 6585,
      "pram": 6586,
      "plus": 6587,
      "pct": 6588,
      "qr": 6589,
      "qft": 6590,
      "rh": 6591,
      "ṛ": 6592,
      "rchi": 6593,
      "rì": 6594,
      "rạc": 6595,
      "riêu": 6596,
      "rót": 6597,
      "rhoe": 6598,
      "scu": 6599,
      "sạp": 6600,
      "ṣn": 6601,
      "sấm": 6602,
      "sli": 6603,
      "spi": 6604,
      "spar": 6605,
      "sche": 6606,
      "sẫm": 6607,
      "swan": 6608,
      "szo": 6609,
      "swad": 6610,
      "smash": 6611,
      "tẫn": 6612,
      "tủ": 6613,
      "tạnh": 6614,
      "tơi": 6615,
      "tiệm": 6616,
      "ttay": 6617,
      "tse": 6618,
      "tpp": 6619,
      "tcha": 6620,
      "tsien": 6621,
      "ugy": 6622,
      "vắt": 6623,
      "viêng": 6624,
      "vnex": 6625,
      "wang": 6626,
      "wur": 6627,
      "wling": 6628,
      "xông": 6629,
      "xách": 6630,
      "xám": 6631,
      "xiềng": 6632,
      "yn": 6633,
      "ymca": 6634,
      "zil": 6635,
      "zhit": 6636,
      "²,": 6637,
      "đĩnh": 6638,
      "đớn": 6639,
      "́i": 6640,
      "̄mak": 6641,
      "̈ni": 6642,
      "̌ević": 6643,
      "̧or": 6644,
      "̧os": 6645,
      "ngạo": 6646,
      "nhâm": 6647,
      "nhạn": 6648,
      "nhậu": 6649,
      "thưa": 6650,
      "thman": 6651,
      "thớt": 6652,
      "trứ": 6653,
      "ás": 6654,
      "chử": 6655,
      "chổi": 6656,
      "chen": 6657,
      "chém": 6658,
      "củi": 6659,
      "cuồng": 6660,
      "phạ": 6661,
      "phin": 6662,
      "khơ": 6663,
      "khố": 6664,
      "khốn": 6665,
      "trọc": 6666,
      "trói": 6667,
      "ón": 6668,
      "giằng": 6669,
      "giỏ": 6670,
      "girau": 6671,
      "giéc": 6672,
      "quáng": 6673,
      "chistan": 6674,
      "child": 6675,
      "holo": 6676,
      "hoằng": 6677,
      "hove": 6678,
      "horace": 6679,
      "aní": 6680,
      "anas": 6681,
      "chọc": 6682,
      "choàng": 6683,
      "chond": 6684,
      "cos": 6685,
      "cobra": 6686,
      "cook": 6687,
      "gianh": 6688,
      "rasta": 6689,
      "rakawa": 6690,
      "rawling": 6691,
      "rāmak": 6692,
      "amara": 6693,
      "tếch": 6694,
      "kydland": 6695,
      "aus": 6696,
      "audi": 6697,
      "log": 6698,
      "lọ": 6699,
      "lola": 6700,
      "lothai": 6701,
      "lopatri": 6702,
      "ngoen": 6703,
      "khuếch": 6704,
      "inch": 6705,
      "khoran": 6706,
      "dotus": 6707,
      "döni": 6708,
      "tòi": 6709,
      "mangan": 6710,
      "lucas": 6711,
      "luft": 6712,
      "lukes": 6713,
      "robine": 6714,
      "tasius": 6715,
      "mõ": 6716,
      "moham": 6717,
      "moche": 6718,
      "moza": 6719,
      "dip": 6720,
      "dile": 6721,
      "dipi": 6722,
      "dium": 6723,
      "chuck": 6724,
      "churchi": 6725,
      "enni": 6726,
      "encour": 6727,
      "endipi": 6728,
      "mùn": 6729,
      "mura": 6730,
      "musa": 6731,
      "murad": 6732,
      "ern": 6733,
      "trui": 6734,
      "trũng": 6735,
      "sou": 6736,
      "sole": 6737,
      "socia": 6738,
      "sompo": 6739,
      "somoza": 6740,
      "archa": 6741,
      "1916": 6742,
      "buck": 6743,
      "burn": 6744,
      "bugis": 6745,
      "budur": 6746,
      "khóc": 6747,
      "til": 6748,
      "tila": 6749,
      "tiya": 6750,
      "timur": 6751,
      "viet": 6752,
      "allais": 6753,
      "alpine": 6754,
      "allopatri": 6755,
      "hugh": 6756,
      "lain": 6757,
      "bach": 6758,
      "baklava": 6759,
      "gọng": 6760,
      "goja": 6761,
      "gonor": 6762,
      "godd": 6763,
      "isai": 6764,
      "este": 6765,
      "espres": 6766,
      "lag": 6767,
      "law": 6768,
      "lata": 6769,
      "labóng": 6770,
      "hide": 6771,
      "trẻo": 6772,
      "bob": 6773,
      "boer": 6774,
      "boson": 6775,
      "bokas": 6776,
      "boors": 6777,
      "elkberg": 6778,
      "ellata": 6779,
      "cadiz": 6780,
      "tya": 6781,
      "banan": 6782,
      "banco": 6783,
      "banus": 6784,
      "repti": 6785,
      "reak": 6786,
      "maxi": 6787,
      "maze": 6788,
      "ruba": 6789,
      "rulina": 6790,
      "khuya": 6791,
      "nero": 6792,
      "rice": 6793,
      "river": 6794,
      "rison": 6795,
      "riess": 6796,
      "rites": 6797,
      "rihla": 6798,
      "guru": 6799,
      "guter": 6800,
      "gust": 6801,
      "guib": 6802,
      "gulag": 6803,
      "ash": 6804,
      "ass": 6805,
      "asda": 6806,
      "asaland": 6807,
      "asami": 6808,
      "ashin": 6809,
      "associa": 6810,
      "huyễn": 6811,
      "keisai": 6812,
      "nius": 6813,
      "nika": 6814,
      "nilon": 6815,
      "cantho": 6816,
      "cannes": 6817,
      "mecca": 6818,
      "melain": 6819,
      "dacia": 6820,
      "lei": 6821,
      "leid": 6822,
      "saka": 6823,
      "safa": 6824,
      "sacra": 6825,
      "sakura": 6826,
      "sahil": 6827,
      "sahel": 6828,
      "natri": 6829,
      "nagaland": 6830,
      "naguib": 6831,
      "putin": 6832,
      "bayez": 6833,
      "bayern": 6834,
      "cúi": 6835,
      "pattay": 6836,
      "deal": 6837,
      "devon": 6838,
      "mick": 6839,
      "milos": 6840,
      "1800": 6841,
      "1860": 6842,
      "picolombo": 6843,
      "pimli": 6844,
      "cartes": 6845,
      "sesotho": 6846,
      "seware": 6847,
      "teria": 6848,
      "hed": 6849,
      "heuris": 6850,
      "heating": 6851,
      "hegel": 6852,
      "parnas": 6853,
      "parthia": 6854,
      "marsh": 6855,
      "marck": 6856,
      "bizon": 6857,
      "proust": 6858,
      "bercy": 6859,
      "mento": 6860,
      "beck": 6861,
      "betar": 6862,
      "bepicolombo": 6863,
      "pear": 6864,
      "pedro": 6865,
      "nhọc": 6866,
      "kathman": 6867,
      "illin": 6868,
      "bóp": 6869,
      "1076": 6870,
      "xoang": 6871,
      "vẹo": 6872,
      "stak": 6873,
      "maynard": 6874,
      "maybach": 6875,
      "urbanus": 6876,
      "braai": 6877,
      "bratis": 6878,
      "lambert": 6879,
      "princ": 6880,
      "analog": 6881,
      "cie": 6882,
      "serge": 6883,
      "serendipi": 6884,
      "149": 6885,
      "1453": 6886,
      "get": 6887,
      "hangul": 6888,
      "1664": 6889,
      "ckland": 6890,
      "leningrad": 6891,
      "waffe": 6892,
      "vani": 6893,
      "trebizon": 6894,
      "afar": 6895,
      "descartes": 6896,
      "jatiya": 6897,
      "santa": 6898,
      "johnny": 6899,
      "fat": 6900,
      "falola": 6901,
      "zakat": 6902,
      "piastre": 6903,
      "piaget": 6904,
      "yoruba": 6905,
      "chernen": 6906,
      "morrison": 6907,
      "eurozone": 6908,
      "sts": 6909,
      "tesla": 6910,
      "barton": 6911,
      "harmat": 6912,
      "thaks": 6913,
      "want": 6914,
      "1934": 6915,
      "ship": 6916,
      "shioya": 6917,
      "shirakawa": 6918,
      "malik": 6919,
      "yaw": 6920,
      "karenni": 6921,
      "tiços": 6922,
      "aleppo": 6923,
      "webber": 6924,
      "vinashin": 6925,
      "caust": 6926,
      "ict": 6927,
      "dantes": 6928,
      "daniel": 6929,
      "rỗng": 6930,
      "rôman": 6931,
      "diagraph": 6932,
      "arizo": 6933,
      "kendra": 6934,
      "konstantin": 6935,
      "konrad": 6936,
      "iniku": 6937,
      "tenom": 6938,
      "wilhel": 6939,
      "eddy": 6940,
      "leakey": 6941,
      "açor": 6942,
      "bromelain": 6943,
      "marxist": 6944,
      "romano": 6945,
      "porsche": 6946,
      "bourne": 6947,
      "kemper": 6948,
      "1801": 6949,
      "gp2": 6950,
      "dylan": 6951,
      "burma": 6952,
      "aec": 6953,
      "1906": 6954,
      "seatic": 6955,
      "north": 6956,
      "boston": 6957,
      "aksum": 6958,
      "freeman": 6959,
      "vnpt": 6960,
      "luxemburg": 6961,
      "ndham": 6962,
      "rough": 6963,
      "bismarck": 6964,
      "seljuk": 6965,
      "denbal": 6966,
      "pitch": 6967,
      "kampung": 6968,
      "bìa": 6969,
      "nyasaland": 6970,
      "lauda": 6971,
      "ribonucleoprotein": 6972,
      "opencour": 6973,
      "shabbat": 6974,
      "musashi": 6975,
      "jehova": 6976,
      "ferdin": 6977,
      "borden": 6978,
      "black": 6979,
      "melbourne": 6980,
      "stueck": 6981,
      "phrabang": 6982,
      "phraya": 6983,
      "1864": 6984,
      "1867": 6985,
      "blog": 6986,
      "cdc": 6987,
      "hiss": 6988,
      "holland": 6989,
      "antilles": 6990,
      "tigris": 6991,
      "augusto": 6992,
      "ronalds": 6993,
      "dhaka": 6994,
      "zulu": 6995,
      "zuse": 6996,
      "montparnas": 6997,
      "delhi": 6998,
      "gauguin": 6999,
      "wyndham": 7000,
      "968": 7001,
      "mckenna": 7002,
      "psd": 7003,
      "moreland": 7004,
      "navarre": 7005,
      "herodotus": 7006,
      "messi": 7007,
      "mestiços": 7008,
      "herschel": 7009,
      "deria": 7010,
      "fairhall": 7011,
      "hanseatic": 7012,
      "sulfat": 7013,
      "trotskyist": 7014,
      "durbarton": 7015,
      "balochistan": 7016,
      "borobudur": 7017,
      "pangi": 7018,
      "bacteria": 7019,
      "wadden": 7020,
      "blanc": 7021,
      "cédile": 7022,
      "mapuche": 7023,
      "ecowas": 7024,
      "wenström": 7025,
      "amartya": 7026,
      "westmoreland": 7027,
      "guaraní": 7028,
      "pataca": 7029,
      "simonne": 7030,
      "starbuck": 7031,
      "yakiniku": 7032,
      "avgas": 7033,
      "agenda": 7034,
      "alumina": 7035,
      "clitellata": 7036,
      "cloaca": 7037,
      "engadin": 7038,
      "flipkart": 7039,
      "glonass": 7040,
      "galilei": 7041,
      "html": 7042,
      "ilott": 7043,
      "iftikhar": 7044,
      "nariva": 7045,
      "opera": 7046,
      "oaks": 7047,
      "prambanan": 7048,
      "ṛṣn": 7049,
      "rhoeae": 7050,
      "scuderia": 7051,
      "spirulina": 7052,
      "sparta": 7053,
      "swansea": 7054,
      "szostak": 7055,
      "swadhin": 7056,
      "tsedenbal": 7057,
      "tchad": 7058,
      "ugyen": 7059,
      "vnexpress": 7060,
      "wangchuck": 7061,
      "wurz": 7062,
      "zhitel": 7063,
      "giraud": 7064,
      "giécmanh": 7065,
      "holocaust": 7066,
      "anastasius": 7067,
      "chondrites": 7068,
      "rastafari": 7069,
      "rawlings": 7070,
      "rāmakṛṣn": 7071,
      "amaravati": 7072,
      "lothaire": 7073,
      "ngoenyang": 7074,
      "khorana": 7075,
      "dönitz": 7076,
      "luftwaffe": 7077,
      "robinet": 7078,
      "mohammed": 7079,
      "churchill": 7080,
      "soleil": 7081,
      "sompoton": 7082,
      "archaea": 7083,
      "allopatric": 7084,
      "hughes": 7085,
      "gonorrhoeae": 7086,
      "goddard": 7087,
      "esteban": 7088,
      "espresso": 7089,
      "hideki": 7090,
      "bokassa": 7091,
      "boorstin": 7092,
      "reptilia": 7093,
      "reaktion": 7094,
      "maxima": 7095,
      "mazepin": 7096,
      "guterres": 7097,
      "asdavis": 7098,
      "leiden": 7099,
      "sacramento": 7100,
      "sakurakai": 7101,
      "bayezid": 7102,
      "pattaya": 7103,
      "milošević": 7104,
      "pimlico": 7105,
      "heuristics": 7106,
      "marshall": 7107,
      "becker": 7108,
      "kathmandu": 7109,
      "illinois": 7110,
      "bratislava": 7111,
      "serendipity": 7112,
      "trebizond": 7113,
      "chernenko": 7114,
      "harmattan": 7115,
      "thaksin": 7116,
      "shioyaki": 7117,
      "arizona": 7118,
      "wilhelm": 7119,
      "açores": 7120,
      "opencourseware": 7121,
      "ferdinand": 7122,
      "stueckelkberg": 7123,
      "montparnasse": 7124,
      "starbucks": 7125,
      "rāmakṛṣṇa": 7126,
      "..": 7127,
      "1n": 7128,
      "221": 7129,
      "320": 7130,
      "328": 7131,
      "450": 7132,
      "61": 7133,
      "721": 7134,
      "713": 7135,
      "746": 7136,
      "84": 7137,
      "845": 7138,
      "938": 7139,
      "==": 7140,
      "ach": 7141,
      "aqu": 7142,
      "alo": 7143,
      "aer": 7144,
      "aque": 7145,
      "akm": 7146,
      "abou": 7147,
      "búp": 7148,
      "bôi": 7149,
      "blu": 7150,
      "bli": 7151,
      "blen": 7152,
      "bhar": 7153,
      "bini": 7154,
      "bmw": 7155,
      "cs": 7156,
      "câm": 7157,
      "cạm": 7158,
      "cty": 7159,
      "cki": 7160,
      "cele": 7161,
      "cking": 7162,
      "cala": 7163,
      "cts": 7164,
      "cleic": 7165,
      "cement": 7166,
      "cques": 7167,
      "dt": 7168,
      "dồn": 7169,
      "dal": 7170,
      "dca": 7171,
      "dle": 7172,
      "dwi": 7173,
      "dren": 7174,
      "drs": 7175,
      "diễm": 7176,
      "era": 7177,
      "epa": 7178,
      "ethan": 7179,
      "fino": 7180,
      "g7": 7181,
      "gộ": 7182,
      "gối": 7183,
      "gros": 7184,
      "hd": 7185,
      "hz": 7186,
      "hả": 7187,
      "hã": 7188,
      "hân": 7189,
      "hốt": 7190,
      "hess": 7191,
      "hkur": 7192,
      "hmir": 7193,
      "hẳ": 7194,
      "h1n": 7195,
      "io": 7196,
      "imo": 7197,
      "ima": 7198,
      "iku": 7199,
      "icles": 7200,
      "igg": 7201,
      "jw": 7202,
      "jar": 7203,
      "jsa": 7204,
      "jon": 7205,
      "jard": 7206,
      "jale": 7207,
      "kg": 7208,
      "kiể": 7209,
      "kiền": 7210,
      "kè": 7211,
      "kus": 7212,
      "kele": 7213,
      "ktar": 7214,
      "krug": 7215,
      "lt": 7216,
      "luy": 7217,
      "lồng": 7218,
      "lban": 7219,
      "liềm": 7220,
      "lẫm": 7221,
      "lcc": 7222,
      "lót": 7223,
      "nve": 7224,
      "nchen": 7225,
      "oo": 7226,
      "òng": 7227,
      "oán": 7228,
      "one": 7229,
      "oke": 7230,
      "ohar": 7231,
      "olym": 7232,
      "ofe": 7233,
      "pj": 7234,
      "pso": 7235,
      "prus": 7236,
      "player": 7237,
      "qvi": 7238,
      "qal": 7239,
      "rt": 7240,
      "rí": 7241,
      "rằm": 7242,
      "rden": 7243,
      "sảo": 7244,
      "sảm": 7245,
      "ssi": 7246,
      "scan": 7247,
      "spha": 7248,
      "sjo": 7249,
      "sdam": 7250,
      "swor": 7251,
      "sashi": 7252,
      "sester": 7253,
      "szu": 7254,
      "scott": 7255,
      "tó": 7256,
      "tiển": 7257,
      "tát": 7258,
      "tsa": 7259,
      "ttre": 7260,
      "tbook": 7261,
      "uto": 7262,
      "ues": 7263,
      "uri": 7264,
      "ulin": 7265,
      "ujung": 7266,
      "ukiyo": 7267,
      "vả": 7268,
      "vas": 7269,
      "vót": 7270,
      "who": 7271,
      "word": 7272,
      "wsk": 7273,
      "xổi": 7274,
      "xé": 7275,
      "ykh": 7276,
      "yan": 7277,
      "yka": 7278,
      "yuz": 7279,
      "yves": 7280,
      "ysel": 7281,
      "yás": 7282,
      "ypso": 7283,
      "đâm": 7284,
      "đẩu": 7285,
      "̄ng": 7286,
      "̄mon": 7287,
      "̇ga": 7288,
      "̈s": 7289,
      "̈ch": 7290,
      "̈us": 7291,
      "̈berg": 7292,
      "̈nchen": 7293,
      "̋ro": 7294,
      "nhão": 7295,
      "thới": 7296,
      "thôi": 7297,
      "thắn": 7298,
      "thard": 7299,
      "thmây": 7300,
      "trĩ": 7301,
      "trét": 7302,
      "tras": 7303,
      "trồ": 7304,
      "trộm": 7305,
      "chãi": 7306,
      "chno": 7307,
      "chand": 7308,
      "phiện": 7309,
      "phao": 7310,
      "phang": 7311,
      "phay": 7312,
      "phung": 7313,
      "phalan": 7314,
      "kham": 7315,
      "khat": 7316,
      "trofor": 7317,
      "given": 7318,
      "qui": 7319,
      "chine": 7320,
      "how": 7321,
      "hoắc": 7322,
      "honey": 7323,
      "antho": 7324,
      "anna": 7325,
      "annes": 7326,
      "anid": 7327,
      "anair": 7328,
      "antó": 7329,
      "ngham": 7330,
      "choang": 7331,
      "chōn": 7332,
      "cò": 7333,
      "coul": 7334,
      "comil": 7335,
      "ís": 7336,
      "rai": 7337,
      "rala": 7338,
      "rafa": 7339,
      "ratha": 7340,
      "amman": 7341,
      "amey": 7342,
      "dũ": 7343,
      "duỗi": 7344,
      "dublin": 7345,
      "ducts": 7346,
      "quyên": 7347,
      "quyệt": 7348,
      "sửng": 7349,
      "angli": 7350,
      "angle": 7351,
      "angka": 7352,
      "auckland": 7353,
      "lose": 7354,
      "lomere": 7355,
      "phospha": 7356,
      "indi": 7357,
      "iner": 7358,
      "inton": 7359,
      "india": 7360,
      "khoác": 7361,
      "domo": 7362,
      "dovo": 7363,
      "dolf": 7364,
      "sinhala": 7365,
      "tori": 7366,
      "toxin": 7367,
      "tokar": 7368,
      "toum": 7369,
      "tors": 7370,
      "tops": 7371,
      "tựa": 7372,
      "đoòng": 7373,
      "luku": 7374,
      "lublin": 7375,
      "lulose": 7376,
      "row": 7377,
      "roda": 7378,
      "rosa": 7379,
      "romagna": 7380,
      "romyco": 7381,
      "tinus": 7382,
      "tad": 7383,
      "tas": 7384,
      "tari": 7385,
      "tahar": 7386,
      "taera": 7387,
      "moai": 7388,
      "moor": 7389,
      "monica": 7390,
      "moors": 7391,
      "moglo": 7392,
      "moktar": 7393,
      "tía": 7394,
      "dic": 7395,
      "diè": 7396,
      "dibé": 7397,
      "dieng": 7398,
      "distri": 7399,
      "dibula": 7400,
      "contai": 7401,
      "ngus": 7402,
      "ngùng": 7403,
      "chuk": 7404,
      "ens": 7405,
      "enia": 7406,
      "entes": 7407,
      "encer": 7408,
      "đuối": 7409,
      "mugh": 7410,
      "münchen": 7411,
      "sude": 7412,
      "ere": 7413,
      "erto": 7414,
      "tula": 7415,
      "turan": 7416,
      "tube": 7417,
      "tunel": 7418,
      "socola": 7419,
      "socie": 7420,
      "cádiz": 7421,
      "cárden": 7422,
      "bun": 7423,
      "buja": 7424,
      "buss": 7425,
      "bucki": 7426,
      "butors": 7427,
      "timer": 7428,
      "thòi": 7429,
      "alas": 7430,
      "alpha": 7431,
      "alfon": 7432,
      "nguỵ": 7433,
      "huber": 7434,
      "hull": 7435,
      "hundi": 7436,
      "hunigo": 7437,
      "mymen": 7438,
      "mycen": 7439,
      "baki": 7440,
      "bash": 7441,
      "baku": 7442,
      "basil": 7443,
      "goth": 7444,
      "gothi": 7445,
      "cừ": 7446,
      "èves": 7447,
      "istin": 7448,
      "isson": 7449,
      "issus": 7450,
      "isms": 7451,
      "ischno": 7452,
      "esa": 7453,
      "esse": 7454,
      "esby": 7455,
      "esque": 7456,
      "esaki": 7457,
      "lagen": 7458,
      "lash": 7459,
      "lān": 7460,
      "larous": 7461,
      "lattre": 7462,
      "boni": 7463,
      "borac": 7464,
      "vượn": 7465,
      "elbert": 7466,
      "cabo": 7467,
      "casa": 7468,
      "tycho": 7469,
      "bani": 7470,
      "emil": 7471,
      "nhớt": 7472,
      "maguin": 7473,
      "matig": 7474,
      "maratha": 7475,
      "maluku": 7476,
      "hyoman": 7477,
      "rudra": 7478,
      "rudolf": 7479,
      "tries": 7480,
      "trigraph": 7481,
      "campo": 7482,
      "singh": 7483,
      "siam": 7484,
      "sitron": 7485,
      "sidibé": 7486,
      "rico": 7487,
      "rile": 7488,
      "guá": 7489,
      "gusta": 7490,
      "gukura": 7491,
      "liver": 7492,
      "lives": 7493,
      "lift": 7494,
      "lingus": 7495,
      "aston": 7496,
      "asbourg": 7497,
      "kevin": 7498,
      "kerala": 7499,
      "nio": 7500,
      "niki": 7501,
      "niken": 7502,
      "niamey": 7503,
      "canton": 7504,
      "meromyco": 7505,
      "posite": 7506,
      "pooh": 7507,
      "pool": 7508,
      "poito": 7509,
      "podium": 7510,
      "posts": 7511,
      "podca": 7512,
      "poisson": 7513,
      "positron": 7514,
      "leum": 7515,
      "legium": 7516,
      "sapi": 7517,
      "saxi": 7518,
      "ted": 7519,
      "telomere": 7520,
      "nucleic": 7521,
      "naq": 7522,
      "pus": 7523,
      "puche": 7524,
      "pugini": 7525,
      "puerto": 7526,
      "manju": 7527,
      "mandé": 7528,
      "manohar": 7529,
      "xāng": 7530,
      "mátyás": 7531,
      "dean": 7532,
      "deve": 7533,
      "dedovo": 7534,
      "ming": 7535,
      "mics": 7536,
      "1889": 7537,
      "1846": 7538,
      "randsta": 7539,
      "picos": 7540,
      "carpa": 7541,
      "carepa": 7542,
      "sẹo": 7543,
      "ghềnh": 7544,
      "tersha": 7545,
      "hebro": 7546,
      "heysel": 7547,
      "hetaera": 7548,
      "hemoglo": 7549,
      "marci": 7550,
      "marib": 7551,
      "marie": 7552,
      "biya": 7553,
      "prokar": 7554,
      "berkele": 7555,
      "ment": 7556,
      "mendel": 7557,
      "gaza": 7558,
      "gates": 7559,
      "cera": 7560,
      "cegovina": 7561,
      "beyon": 7562,
      "peach": 7563,
      "nhọ": 7564,
      "nhòa": 7565,
      "kajsa": 7566,
      "katad": 7567,
      "ppb": 7568,
      "bía": 7569,
      "104": 7570,
      "nòng": 7571,
      "noether": 7572,
      "verde": 7573,
      "000m": 7574,
      "haeng": 7575,
      "chaturan": 7576,
      "xoa": 7577,
      "palau": 7578,
      "1792": 7579,
      "veblen": 7580,
      "urn": 7581,
      "belle": 7582,
      "belgra": 7583,
      "jōmon": 7584,
      "adat": 7585,
      "sony": 7586,
      "brahe": 7587,
      "clinton": 7588,
      "clèves": 7589,
      "linz": 7590,
      "euve": 7591,
      "eurasia": 7592,
      "maidan": 7593,
      "bondar": 7594,
      "bềnh": 7595,
      "indō": 7596,
      "azykh": 7597,
      "kulon": 7598,
      "kurile": 7599,
      "citrofor": 7600,
      "1438": 7601,
      "1582": 7602,
      "1600": 7603,
      "1615": 7604,
      "1627": 7605,
      "1651": 7606,
      "kom": 7607,
      "kota": 7608,
      "leneuve": 7609,
      "wäch": 7610,
      "kanoo": 7611,
      "jaques": 7612,
      "jacques": 7613,
      "javas": 7614,
      "jacarepa": 7615,
      "thani": 7616,
      "hittite": 7617,
      "ryanair": 7618,
      "yote": 7619,
      "morten": 7620,
      "mortimer": 7621,
      "moresby": 7622,
      "euromaidan": 7623,
      "bruno": 7624,
      "barrow": 7625,
      "imau": 7626,
      "immanuel": 7627,
      "harimau": 7628,
      "cross": 7629,
      "union": 7630,
      "unitari": 7631,
      "united": 7632,
      "grandiè": 7633,
      "qajar": 7634,
      "osce": 7635,
      "mons": 7636,
      "gyroda": 7637,
      "adana": 7638,
      "langues": 7639,
      "lẻo": 7640,
      "risc": 7641,
      "karst": 7642,
      "attila": 7643,
      "vinci": 7644,
      "bric": 7645,
      "pericles": 7646,
      "danao": 7647,
      "charentes": 7648,
      "magiê": 7649,
      "tenland": 7650,
      "chóp": 7651,
      "utbah": 7652,
      "902": 7653,
      "force": 7654,
      "wilbert": 7655,
      "willban": 7656,
      "castries": 7657,
      "stresa": 7658,
      "strasbourg": 7659,
      "action": 7660,
      "brock": 7661,
      "daman": 7662,
      "pany": 7663,
      "panrăn": 7664,
      "romanesque": 7665,
      "sambal": 7666,
      "bourdai": 7667,
      "bourbaki": 7668,
      "abria": 7669,
      "tangani": 7670,
      "benz": 7671,
      "elip": 7672,
      "hinyan": 7673,
      "stoke": 7674,
      "stoffel": 7675,
      "gregorius": 7676,
      "hermann": 7677,
      "hercegovina": 7678,
      "airbus": 7679,
      "eridu": 7680,
      "vilnius": 7681,
      "villeneuve": 7682,
      "vtv8": 7683,
      "juan": 7684,
      "1903": 7685,
      "1908": 7686,
      "1909": 7687,
      "malakatad": 7688,
      "thern": 7689,
      "madhkur": 7690,
      "uzbek": 7691,
      "oïl": 7692,
      "nordic": 7693,
      "northern": 7694,
      "rent": 7695,
      "hydrocarbon": 7696,
      "jammeh": 7697,
      "vnnic": 7698,
      "daddah": 7699,
      "fandom": 7700,
      "rouran": 7701,
      "nasr": 7702,
      "microorgan": 7703,
      "microcarpa": 7704,
      "1883": 7705,
      "1884": 7706,
      "1885": 7707,
      "1888": 7708,
      "bergqvi": 7709,
      "arab": 7710,
      "potsdam": 7711,
      "composite": 7712,
      "company": 7713,
      "omfield": 7714,
      "master": 7715,
      "kampot": 7716,
      "kambuja": 7717,
      "kampuche": 7718,
      "alawi": 7719,
      "celtic": 7720,
      "kautsky": 7721,
      "richardson": 7722,
      "babylift": 7723,
      "prague": 7724,
      "ural": 7725,
      "naparima": 7726,
      "laurent": 7727,
      "sasanid": 7728,
      "kazulin": 7729,
      "barajas": 7730,
      "callum": 7731,
      "calypso": 7732,
      "calabria": 7733,
      "engle": 7734,
      "enggong": 7735,
      "engelbert": 7736,
      "ferid": 7737,
      "xíu": 7738,
      "mitch": 7739,
      "1861": 7740,
      "adobe": 7741,
      "bloomfield": 7742,
      "kashmir": 7743,
      "holm": 7744,
      "murray": 7745,
      "1853": 7746,
      "1859": 7747,
      "leonardo": 7748,
      "batista": 7749,
      "philippe": 7750,
      "wales": 7751,
      "christoph": 7752,
      "visigoth": 7753,
      "patrik": 7754,
      "gauche": 7755,
      "justinus": 7756,
      "pasha": 7757,
      "pashinyan": 7758,
      "resistin": 7759,
      "srm": 7760,
      "srâu": 7761,
      "srindravarman": 7762,
      "lopment": 7763,
      "isabelle": 7764,
      "fracking": 7765,
      "culture": 7766,
      "hims": 7767,
      "1891": 7768,
      "biology": 7769,
      "petroleum": 7770,
      "spell": 7771,
      "spencer": 7772,
      "khazar": 7773,
      "catalan": 7774,
      "fula": 7775,
      "toyin": 7776,
      "marcos": 7777,
      "czuk": 7778,
      "jassim": 7779,
      "junkanoo": 7780,
      "ould": 7781,
      "collagen": 7782,
      "collegium": 7783,
      "angelo": 7784,
      "armand": 7785,
      "volga": 7786,
      "championship": 7787,
      "edwards": 7788,
      "paine": 7789,
      "michelangelo": 7790,
      "genomics": 7791,
      "häkkinen": 7792,
      "factbook": 7793,
      "carolingian": 7794,
      "blanca": 7795,
      "pleiku": 7796,
      "khartoum": 7797,
      "topping": 7798,
      "maputra": 7799,
      "finley": 7800,
      "finnve": 7801,
      "glomeromyco": 7802,
      "temenggong": 7803,
      "yonok": 7804,
      "kircher": 7805,
      "brahmi": 7806,
      "brahmaputra": 7807,
      "andrew": 7808,
      "european": 7809,
      "kwajale": 7810,
      "minangka": 7811,
      "illyria": 7812,
      "vectơ": 7813,
      "pharaon": 7814,
      "salaris": 7815,
      "ubtvqh15": 7816,
      "etienne": 7817,
      "xenlulose": 7818,
      "tully": 7819,
      "youtube": 7820,
      "kerry": 7821,
      "rìa": 7822,
      "south": 7823,
      "pearson": 7824,
      "princesse": 7825,
      "sergey": 7826,
      "aquino": 7827,
      "alois": 7828,
      "aqueducts": 7829,
      "aboukir": 7830,
      "blues": 7831,
      "blix": 7832,
      "bharu": 7833,
      "câmara": 7834,
      "ctylus": 7835,
      "celera": 7836,
      "calabar": 7837,
      "dwight": 7838,
      "drenth": 7839,
      "ethanol": 7840,
      "finot": 7841,
      "gộp": 7842,
      "grosjean": 7843,
      "hãm": 7844,
      "hẳn": 7845,
      "h1n1": 7846,
      "ioannes": 7847,
      "imola": 7848,
      "jwh": 7849,
      "jardin": 7850,
      "kiểng": 7851,
      "kushari": 7852,
      "krugman": 7853,
      "ltd": 7854,
      "lccn": 7855,
      "olympus": 7856,
      "ofeq": 7857,
      "prusiner": 7858,
      "qalat": 7859,
      "scandal": 7860,
      "sjöberg": 7861,
      "sworth": 7862,
      "sashimi": 7863,
      "sestertius": 7864,
      "szűro": 7865,
      "utopia": 7866,
      "wordsworth": 7867,
      "yuzu": 7868,
      "̈user": 7869,
      "trassi": 7870,
      "chandler": 7871,
      "phaolô": 7872,
      "phalanx": 7873,
      "anthony": 7874,
      "antónio": 7875,
      "chōnindō": 7876,
      "coulthard": 7877,
      "comilla": 7878,
      "rafael": 7879,
      "anglic": 7880,
      "phosphat": 7881,
      "indira": 7882,
      "domodedovo": 7883,
      "toriwasa": 7884,
      "tokarczuk": 7885,
      "topspin": 7886,
      "taharqa": 7887,
      "distributors": 7888,
      "container": 7889,
      "eniac": 7890,
      "mughal": 7891,
      "sudetenland": 7892,
      "tulagi": 7893,
      "tunella": 7894,
      "society": 7895,
      "cárdenas": 7896,
      "bussmann": 7897,
      "buckingham": 7898,
      "alaska": 7899,
      "alfonso": 7900,
      "hunigondi": 7901,
      "mymensingh": 7902,
      "mycenae": 7903,
      "gothic": 7904,
      "ischnocera": 7905,
      "larousse": 7906,
      "boniface": 7907,
      "casablanca": 7908,
      "emilia": 7909,
      "maguindanao": 7910,
      "matignon": 7911,
      "hyomandibula": 7912,
      "rudradaman": 7913,
      "gustave": 7914,
      "gukurahundi": 7915,
      "liverpool": 7916,
      "liveshow": 7917,
      "poitou": 7918,
      "postscript": 7919,
      "podcast": 7920,
      "sapiens": 7921,
      "saxitoxin": 7922,
      "puginier": 7923,
      "development": 7924,
      "randstad": 7925,
      "tershäuser": 7926,
      "hebron": 7927,
      "hemoglobin": 7928,
      "marcianus": 7929,
      "prokaryote": 7930,
      "berkeley": 7931,
      "beyoncé": 7932,
      "chaturaṅga": 7933,
      "belgrade": 7934,
      "bondarchuk": 7935,
      "citrofortunella": 7936,
      "wächtershäuser": 7937,
      "javascript": 7938,
      "jacarepaguá": 7939,
      "mortensen": 7940,
      "unitarian": 7941,
      "grandière": 7942,
      "gyrodactylus": 7943,
      "willbanks": 7944,
      "bourdain": 7945,
      "tanganiyka": 7946,
      "microorganisms": 7947,
      "bergqvist": 7948,
      "kampuchea": 7949,
      "christopher": 7950,
      "spellman": 7951,
      "finnveden": 7952,
      "glomeromycota": 7953,
      "kwajalein": 7954,
      "minangkabau": 7955,
      "szűrös": 7956,
      ".'": 7957,
      "05": 7958,
      "118": 7959,
      "3n": 7960,
      "3200": 7961,
      "370": 7962,
      "360": 7963,
      "49": 7964,
      "55": 7965,
      "5m": 7966,
      "570": 7967,
      "573": 7968,
      "592": 7969,
      "62": 7970,
      "68": 7971,
      "695": 7972,
      "679": 7973,
      "700": 7974,
      "750": 7975,
      "88": 7976,
      "825": 7977,
      "835": 7978,
      "91": 7979,
      "990": 7980,
      "ag": 7981,
      "ath": 7982,
      "aph": 7983,
      "aan": 7984,
      "avang": 7985,
      "aat": 7986,
      "avar": 7987,
      "apol": 7988,
      "acantho": 7989,
      "bd": 7990,
      "bn": 7991,
      "bq": 7992,
      "báng": 7993,
      "bấp": 7994,
      "beo": 7995,
      "blai": 7996,
      "bênh": 7997,
      "cky": 7998,
      "cảo": 7999,
      "cin": 8000,
      "cào": 8001,
      "cre": 8002,
      "dr": 8003,
      "dang": 8004,
      "dái": 8005,
      "deo": 8006,
      "dri": 8007,
      "dmi": 8008,
      "dine": 8009,
      "dwa": 8010,
      "dele": 8011,
      "dford": 8012,
      "dhol": 8013,
      "ddha": 8014,
      "dhan": 8015,
      "ej": 8016,
      "eth": 8017,
      "eung": 8018,
      "eba": 8019,
      "eter": 8020,
      "eka": 8021,
      "ebon": 8022,
      "eche": 8023,
      "ezia": 8024,
      "edge": 8025,
      "ethai": 8026,
      "edou": 8027,
      "eec": 8028,
      "flo": 8029,
      "fal": 8030,
      "fuk": 8031,
      "fano": 8032,
      "fjord": 8033,
      "flor": 8034,
      "foe": 8035,
      "fsr": 8036,
      "fsl": 8037,
      "flash": 8038,
      "fdr": 8039,
      "gc": 8040,
      "gân": 8041,
      "gầm": 8042,
      "gri": 8043,
      "gna": 8044,
      "geu": 8045,
      "gary": 8046,
      "gris": 8047,
      "gdan": 8048,
      "grad": 8049,
      "grace": 8050,
      "gfdr": 8051,
      "hới": 8052,
      "hinh": 8053,
      "hường": 8054,
      "hấn": 8055,
      "hcm": 8056,
      "halley": 8057,
      "haus": 8058,
      "h3n": 8059,
      "ī": 8060,
      "ite": 8061,
      "icar": 8062,
      "iry": 8063,
      "itur": 8064,
      "iburg": 8065,
      "iwo": 8066,
      "jd": 8067,
      "k2": 8068,
      "kp": 8069,
      "kr": 8070,
      "kt": 8071,
      "kı": 8072,
      "kó": 8073,
      "kra": 8074,
      "kal": 8075,
      "kiêm": 8076,
      "kni": 8077,
      "kine": 8078,
      "kno": 8079,
      "kwai": 8080,
      "kềnh": 8081,
      "lm": 8082,
      "lng": 8083,
      "lăn": 8084,
      "lặc": 8085,
      "liễn": 8086,
      "lar": 8087,
      "lúng": 8088,
      "lạy": 8089,
      "lôm": 8090,
      "lleo": 8091,
      "lvn": 8092,
      "lvania": 8093,
      "má": 8094,
      "miện": 8095,
      "mương": 8096,
      "mủ": 8097,
      "mis": 8098,
      "mem": 8099,
      "mún": 8100,
      "mini": 8101,
      "mwana": 8102,
      "minis": 8103,
      "mfjord": 8104,
      "năn": 8105,
      "nải": 8106,
      "ntu": 8107,
      "nar": 8108,
      "nsy": 8109,
      "nana": 8110,
      "ndp": 8111,
      "ndon": 8112,
      "níu": 8113,
      "oa": 8114,
      "od": 8115,
      "ot": 8116,
      "owi": 8117,
      "osaka": 8118,
      "pau": 8119,
      "păng": 8120,
      "peo": 8121,
      "pè": 8122,
      "pis": 8123,
      "psy": 8124,
      "pmid": 8125,
      "qis": 8126,
      "qair": 8127,
      "qlvn": 8128,
      "rà": 8129,
      "rình": 8130,
      "rưng": 8131,
      "ría": 8132,
      "remi": 8133,
      "rrez": 8134,
      "rling": 8135,
      "réné": 8136,
      "rgar": 8137,
      "rkp": 8138,
      "sch": 8139,
      "scho": 8140,
      "sên": 8141,
      "sin": 8142,
      "sặc": 8143,
      "siêng": 8144,
      "sậy": 8145,
      "sệt": 8146,
      "sỡ": 8147,
      "shay": 8148,
      "spa": 8149,
      "stam": 8150,
      "sủi": 8151,
      "spe": 8152,
      "slam": 8153,
      "sby": 8154,
      "spr": 8155,
      "scy": 8156,
      "slay": 8157,
      "sander": 8158,
      "smak": 8159,
      "ssos": 8160,
      "scheng": 8161,
      "szil": 8162,
      "schild": 8163,
      "sfsr": 8164,
      "tanh": 8165,
      "tâu": 8166,
      "tsu": 8167,
      "tma": 8168,
      "tsi": 8169,
      "tele": 8170,
      "telec": 8171,
      "ụ": 8172,
      "ugu": 8173,
      "upa": 8174,
      "ubia": 8175,
      "ulos": 8176,
      "upper": 8177,
      "ugc": 8178,
      "uqair": 8179,
      "v6": 8180,
      "vã": 8181,
      "vau": 8182,
      "vờ": 8183,
      "váy": 8184,
      "vre": 8185,
      "vsi": 8186,
      "vớt": 8187,
      "vứt": 8188,
      "vtc": 8189,
      "vnik": 8190,
      "vbq": 8191,
      "wne": 8192,
      "wran": 8193,
      "wire": 8194,
      "wins": 8195,
      "wars": 8196,
      "whis": 8197,
      "xy": 8198,
      "xổ": 8199,
      "xắt": 8200,
      "xăm": 8201,
      "xii": 8202,
      "xhall": 8203,
      "yuk": 8204,
      "yama": 8205,
      "zgis": 8206,
      "zart": 8207,
      "đú": 8208,
      "điềm": 8209,
      "ınar": 8210,
      "łowi": 8211,
      "́ai": 8212,
      "́sk": 8213,
      "̄h": 8214,
      "̄chu": 8215,
      "̄ras": 8216,
      "̇a": 8217,
      "̈rn": 8218,
      "̈rs": 8219,
      "̧es": 8220,
      "ngạt": 8221,
      "nguyền": 8222,
      "ngle": 8223,
      "ngớt": 8224,
      "ngtang": 8225,
      "ngdeng": 8226,
      "nhát": 8227,
      "nhót": 8228,
      "ỗng": 8229,
      "thiều": 8230,
      "thuyên": 8231,
      "thán": 8232,
      "trán": 8233,
      "trạc": 8234,
      "trent": 8235,
      "trement": 8236,
      "chác": 8237,
      "chải": 8238,
      "chật": 8239,
      "chội": 8240,
      "chau": 8241,
      "chượng": 8242,
      "chái": 8243,
      "chốn": 8244,
      "chớp": 8245,
      "chschild": 8246,
      "cuno": 8247,
      "phất": 8248,
      "phala": 8249,
      "khế": 8250,
      "khanh": 8251,
      "khét": 8252,
      "khad": 8253,
      "tromere": 8254,
      "troub": 8255,
      "troika": 8256,
      "giu": 8257,
      "giàng": 8258,
      "quất": 8259,
      "quis": 8260,
      "quila": 8261,
      "chip": 8262,
      "hono": 8263,
      "hochschild": 8264,
      "anne": 8265,
      "annet": 8266,
      "anza": 8267,
      "andean": 8268,
      "uyuni": 8269,
      "nghiêu": 8270,
      "chology": 8271,
      "choeung": 8272,
      "coru": 8273,
      "comen": 8274,
      "cope": 8275,
      "cover": 8276,
      "corio": 8277,
      "raf": 8278,
      "rado": 8279,
      "rase": 8280,
      "rabi": 8281,
      "rabe": 8282,
      "rash": 8283,
      "raja": 8284,
      "thủng": 8285,
      "thunga": 8286,
      "amy": 8287,
      "amdo": 8288,
      "ames": 8289,
      "amon": 8290,
      "amlin": 8291,
      "amun": 8292,
      "ambro": 8293,
      "ameri": 8294,
      "duro": 8295,
      "dubro": 8296,
      "quỵ": 8297,
      "airasia": 8298,
      "anglo": 8299,
      "angel": 8300,
      "angari": 8301,
      "aud": 8302,
      "autrement": 8303,
      "loo": 8304,
      "lõm": 8305,
      "lour": 8306,
      "locke": 8307,
      "lotus": 8308,
      "loethai": 8309,
      "lothunga": 8310,
      "khur": 8311,
      "khuê": 8312,
      "phone": 8313,
      "ind": 8314,
      "inburg": 8315,
      "infes": 8316,
      "khoanh": 8317,
      "dok": 8318,
      "dota": 8319,
      "dowan": 8320,
      "doll": 8321,
      "khỉ": 8322,
      "tor": 8323,
      "toái": 8324,
      "tomo": 8325,
      "tose": 8326,
      "tojo": 8327,
      "tosk": 8328,
      "tokwa": 8329,
      "xua": 8330,
      "xù": 8331,
      "tiễu": 8332,
      "lùng": 8333,
      "lulu": 8334,
      "rọi": 8335,
      "rodi": 8336,
      "romer": 8337,
      "romai": 8338,
      "rosal": 8339,
      "rold": 8340,
      "rout": 8341,
      "roll": 8342,
      "rodri": 8343,
      "émi": 8344,
      "érrez": 8345,
      "tata": 8346,
      "tali": 8347,
      "tasy": 8348,
      "taek": 8349,
      "taet": 8350,
      "mòi": 8351,
      "moti": 8352,
      "mosh": 8353,
      "moroc": 8354,
      "molina": 8355,
      "mozart": 8356,
      "dith": 8357,
      "diamon": 8358,
      "conf": 8359,
      "contes": 8360,
      "concor": 8361,
      "conquis": 8362,
      "chuse": 8363,
      "eogen": 8364,
      "xelles": 8365,
      "enter": 8366,
      "enko": 8367,
      "entre": 8368,
      "endor": 8369,
      "endang": 8370,
      "đụn": 8371,
      "mui": 8372,
      "mùng": 8373,
      "muôn": 8374,
      "musi": 8375,
      "muse": 8376,
      "muhan": 8377,
      "muỗng": 8378,
      "mutali": 8379,
      "sue": 8380,
      "sur": 8381,
      "suv": 8382,
      "suda": 8383,
      "subis": 8384,
      "supra": 8385,
      "ered": 8386,
      "theodor": 8387,
      "truq": 8388,
      "truth": 8389,
      "tủa": 8390,
      "tuất": 8391,
      "tuốc": 8392,
      "tụy": 8393,
      "turia": 8394,
      "tupole": 8395,
      "tutsi": 8396,
      "haikkinen": 8397,
      "sojo": 8398,
      "sort": 8399,
      "solar": 8400,
      "arles": 8401,
      "argy": 8402,
      "arid": 8403,
      "armagna": 8404,
      "arraf": 8405,
      "bury": 8406,
      "buchar": 8407,
      "buddha": 8408,
      "tive": 8409,
      "tirol": 8410,
      "tival": 8411,
      "tiérrez": 8412,
      "phis": 8413,
      "phila": 8414,
      "vỉ": 8415,
      "vinam": 8416,
      "vita": 8417,
      "viri": 8418,
      "vistu": 8419,
      "vienne": 8420,
      "vienna": 8421,
      "vīras": 8422,
      "thoi": 8423,
      "thora": 8424,
      "thomp": 8425,
      "thophone": 8426,
      "allan": 8427,
      "alla": 8428,
      "alman": 8429,
      "alter": 8430,
      "alber": 8431,
      "alci": 8432,
      "hutu": 8433,
      "hume": 8434,
      "hül": 8435,
      "hurling": 8436,
      "vovinam": 8437,
      "mycin": 8438,
      "baboy": 8439,
      "gov": 8440,
      "gomer": 8441,
      "goras": 8442,
      "gowon": 8443,
      "èg": 8444,
      "issy": 8445,
      "ispol": 8446,
      "isbd": 8447,
      "esien": 8448,
      "estroika": 8449,
      "lane": 8450,
      "lance": 8451,
      "lacan": 8452,
      "larov": 8453,
      "lacuno": 8454,
      "hima": 8455,
      "hicky": 8456,
      "hiraja": 8457,
      "lênin": 8458,
      "boe": 8459,
      "bok": 8460,
      "bov": 8461,
      "boong": 8462,
      "cady": 8463,
      "carol": 8464,
      "casey": 8465,
      "capita": 8466,
      "tỵ": 8467,
      "thúng": 8468,
      "khail": 8469,
      "emmanuel": 8470,
      "rebe": 8471,
      "rehand": 8472,
      "reyn": 8473,
      "reconquis": 8474,
      "resort": 8475,
      "macro": 8476,
      "macal": 8477,
      "mahdi": 8478,
      "maduro": 8479,
      "hya": 8480,
      "hye": 8481,
      "hyde": 8482,
      "ruk": 8483,
      "rumel": 8484,
      "kỉ": 8485,
      "kilôm": 8486,
      "khuynh": 8487,
      "sio": 8488,
      "sir": 8489,
      "siu": 8490,
      "tans": 8491,
      "rik": 8492,
      "riga": 8493,
      "riff": 8494,
      "guja": 8495,
      "guez": 8496,
      "gund": 8497,
      "gutiérrez": 8498,
      "lie": 8499,
      "ligo": 8500,
      "lila": 8501,
      "lỉnh": 8502,
      "little": 8503,
      "limfjord": 8504,
      "lithophone": 8505,
      "asme": 8506,
      "asturia": 8507,
      "kebab": 8508,
      "kedah": 8509,
      "nig": 8510,
      "nier": 8511,
      "nime": 8512,
      "nitra": 8513,
      "canter": 8514,
      "canaan": 8515,
      "mẹp": 8516,
      "mexi": 8517,
      "merase": 8518,
      "pong": 8519,
      "poon": 8520,
      "pold": 8521,
      "poulos": 8522,
      "kimpa": 8523,
      "bèle": 8524,
      "lều": 8525,
      "levan": 8526,
      "lejas": 8527,
      "lezgis": 8528,
      "sabati": 8529,
      "team": 8530,
      "teus": 8531,
      "tequila": 8532,
      "xôphia": 8533,
      "nhagen": 8534,
      "nad": 8535,
      "nah": 8536,
      "nava": 8537,
      "naray": 8538,
      "najd": 8539,
      "puto": 8540,
      "putti": 8541,
      "vazim": 8542,
      "bayes": 8543,
      "traku": 8544,
      "trative": 8545,
      "patton": 8546,
      "pablo": 8547,
      "pachau": 8548,
      "paloo": 8549,
      "manti": 8550,
      "mande": 8551,
      "saibou": 8552,
      "saidel": 8553,
      "dei": 8554,
      "deco": 8555,
      "demo": 8556,
      "defoe": 8557,
      "degna": 8558,
      "mihai": 8559,
      "miff": 8560,
      "mium": 8561,
      "mikhail": 8562,
      "1810": 8563,
      "1830": 8564,
      "1898": 8565,
      "1875": 8566,
      "1895": 8567,
      "1878": 8568,
      "1834": 8569,
      "1872": 8570,
      "1832": 8571,
      "1876": 8572,
      "malindo": 8573,
      "rankine": 8574,
      "pieter": 8575,
      "carlo": 8576,
      "carcen": 8577,
      "lyon": 8578,
      "lyndon": 8579,
      "seca": 8580,
      "veni": 8581,
      "venkov": 8582,
      "venezia": 8583,
      "ghad": 8584,
      "gheg": 8585,
      "terinburg": 8586,
      "hedge": 8587,
      "hebre": 8588,
      "nheim": 8589,
      "marbel": 8590,
      "marche": 8591,
      "ushima": 8592,
      "genii": 8593,
      "gentil": 8594,
      "big": 8595,
      "bide": 8596,
      "bison": 8597,
      "bidhan": 8598,
      "proto": 8599,
      "probe": 8600,
      "probio": 8601,
      "proteus": 8602,
      "mendie": 8603,
      "mendele": 8604,
      "gaema": 8605,
      "gaej": 8606,
      "biades": 8607,
      "białowi": 8608,
      "cairo": 8609,
      "cei": 8610,
      "cebu": 8611,
      "cephala": 8612,
      "bedford": 8613,
      "belacan": 8614,
      "ness": 8615,
      "peth": 8616,
      "nhoáng": 8617,
      "nholm": 8618,
      "kah": 8619,
      "kabul": 8620,
      "ppl": 8621,
      "newcomen": 8622,
      "103": 8623,
      "109": 8624,
      "1075": 8625,
      "nòi": 8626,
      "noãn": 8627,
      "nost": 8628,
      "nomusi": 8629,
      "xite": 8630,
      "verría": 8631,
      "haven": 8632,
      "haag": 8633,
      "hawran": 8634,
      "harold": 8635,
      "hadith": 8636,
      "chat": 8637,
      "paleogen": 8638,
      "1798": 8639,
      "1796": 8640,
      "1766": 8641,
      "1791": 8642,
      "stasi": 8643,
      "stade": 8644,
      "urner": 8645,
      "jonah": 8646,
      "geren": 8647,
      "hamad": 8648,
      "andr": 8649,
      "linda": 8650,
      "lincei": 8651,
      "prise": 8652,
      "113": 8653,
      "114": 8654,
      "1100": 8655,
      "azure": 8656,
      "azir": 8657,
      "sias": 8658,
      "kul": 8659,
      "kuji": 8660,
      "kufra": 8661,
      "kumura": 8662,
      "kulothunga": 8663,
      "cit": 8664,
      "citric": 8665,
      "144": 8666,
      "1418": 8667,
      "1470": 8668,
      "1492": 8669,
      "gea": 8670,
      "gepè": 8671,
      "153": 8672,
      "1500": 8673,
      "1534": 8674,
      "1532": 8675,
      "164": 8676,
      "1624": 8677,
      "1689": 8678,
      "1636": 8679,
      "ckpoint": 8680,
      "ckdale": 8681,
      "kolarov": 8682,
      "kokuji": 8683,
      "lesports": 8684,
      "treng": 8685,
      "riatic": 8686,
      "donner": 8687,
      "kani": 8688,
      "checkpoint": 8689,
      "jae": 8690,
      "leopold": 8691,
      "johann": 8692,
      "213": 8693,
      "sani": 8694,
      "sankt": 8695,
      "zawa": 8696,
      "zadok": 8697,
      "ball": 8698,
      "balqis": 8699,
      "young": 8700,
      "yongle": 8701,
      "chervenkov": 8702,
      "morina": 8703,
      "thebes": 8704,
      "salam": 8705,
      "salien": 8706,
      "salī": 8707,
      "franz": 8708,
      "251": 8709,
      "258": 8710,
      "bruxelles": 8711,
      "stung": 8712,
      "barquin": 8713,
      "harris": 8714,
      "harsha": 8715,
      "crom": 8716,
      "thagoras": 8717,
      "zanzi": 8718,
      "137": 8719,
      "1350": 8720,
      "1368": 8721,
      "stanton": 8722,
      "tts": 8723,
      "oss": 8724,
      "phèn": 8725,
      "monoxide": 8726,
      "1935": 8727,
      "1937": 8728,
      "adn": 8729,
      "adal": 8730,
      "adminis": 8731,
      "adriatic": 8732,
      "alianza": 8733,
      "langua": 8734,
      "idris": 8735,
      "risson": 8736,
      "yahya": 8737,
      "kareba": 8738,
      "aleks": 8739,
      "eża": 8740,
      "permi": 8741,
      "percy": 8742,
      "perón": 8743,
      "perestroika": 8744,
      "untaet": 8745,
      "danubia": 8746,
      "darel": 8747,
      "darwin": 8748,
      "charlie": 8749,
      "kenberg": 8750,
      "nistria": 8751,
      "xxii": 8752,
      "iningrad": 8753,
      "tennis": 8754,
      "tendai": 8755,
      "chamkani": 8756,
      "cology": 8757,
      "colorado": 8758,
      "greg": 8759,
      "jien": 8760,
      "jima": 8761,
      "oks": 8762,
      "okina": 8763,
      "accad": 8764,
      "browne": 8765,
      "brooks": 8766,
      "clézi": 8767,
      "pinto": 8768,
      "fiba": 8769,
      "louvre": 8770,
      "236": 8771,
      "panamar": 8772,
      "pancit": 8773,
      "nhịn": 8774,
      "porthe": 8775,
      "22h": 8776,
      "jayavira": 8777,
      "samsung": 8778,
      "samura": 8779,
      "aming": 8780,
      "abhiraja": 8781,
      "benazir": 8782,
      "pyu": 8783,
      "pyréné": 8784,
      "pythagoras": 8785,
      "stockdale": 8786,
      "varsmak": 8787,
      "bass": 8788,
      "1803": 8789,
      "herpes": 8790,
      "hermoti": 8791,
      "villa": 8792,
      "centime": 8793,
      "centromere": 8794,
      "aedes": 8795,
      "aegea": 8796,
      "daily": 8797,
      "vesta": 8798,
      "rossby": 8799,
      "1901": 8800,
      "1907": 8801,
      "malabo": 8802,
      "bosnan": 8803,
      "freiburg": 8804,
      "boudarel": 8805,
      "jamil": 8806,
      "jamaat": 8807,
      "fantasy": 8808,
      "bhutto": 8809,
      "cybèle": 8810,
      "mosqui": 8811,
      "guinness": 8812,
      "mesofau": 8813,
      "caucasian": 8814,
      "istor": 8815,
      "grha": 8816,
      "kampong": 8817,
      "eizi": 8818,
      "lươn": 8819,
      "djia": 8820,
      "ndum": 8821,
      "zila": 8822,
      "ziman": 8823,
      "zipra": 8824,
      "magnaporthe": 8825,
      "maurice": 8826,
      "chelsea": 8827,
      "gangarid": 8828,
      "75g": 8829,
      "prahok": 8830,
      "prasad": 8831,
      "neuilly": 8832,
      "cliff": 8833,
      "medina": 8834,
      "sisavang": 8835,
      "wayo": 8836,
      "midt": 8837,
      "haraway": 8838,
      "shafi": 8839,
      "wark": 8840,
      "callejas": 8841,
      "stefan": 8842,
      "stefano": 8843,
      "fermi": 8844,
      "farfal": 8845,
      "yugov": 8846,
      "sumitomo": 8847,
      "bornholm": 8848,
      "polymerase": 8849,
      "462": 8850,
      "466": 8851,
      "ekman": 8852,
      "priest": 8853,
      "lactose": 8854,
      "mitsubis": 8855,
      "1869": 8856,
      "palata": 8857,
      "palabok": 8858,
      "bloch": 8859,
      "blood": 8860,
      "murphy": 8861,
      "sadc": 8862,
      "saddle": 8863,
      "parker": 8864,
      "oeec": 8865,
      "marian": 8866,
      "mariana": 8867,
      "ronald": 8868,
      "cadmium": 8869,
      "nikko": 8870,
      "montgomer": 8871,
      "kenneth": 8872,
      "787": 8873,
      "delphia": 8874,
      "gaumont": 8875,
      "gautama": 8876,
      "gare": 8877,
      "garry": 8878,
      "garnier": 8879,
      "columbus": 8880,
      "framing": 8881,
      "frarabi": 8882,
      "ohka": 8883,
      "ohrid": 8884,
      "olga": 8885,
      "oldowan": 8886,
      "shōchu": 8887,
      "sanatruq": 8888,
      "ulema": 8889,
      "capet": 8890,
      "1893": 8891,
      "1894": 8892,
      "1899": 8893,
      "cyclo": 8894,
      "dinugu": 8895,
      "festival": 8896,
      "jain": 8897,
      "jazira": 8898,
      "meseta": 8899,
      "spence": 8900,
      "nikola": 8901,
      "clesfield": 8902,
      "massachuse": 8903,
      "express": 8904,
      "exchange": 8905,
      "förs": 8906,
      "forehand": 8907,
      "italy": 8908,
      "transdanubia": 8909,
      "transnistria": 8910,
      "transcaucasian": 8911,
      "transistor": 8912,
      "hockenheim": 8913,
      "methane": 8914,
      "könig": 8915,
      "montefur": 8916,
      "lgbtq": 8917,
      "ipf": 8918,
      "iplayer": 8919,
      "ipv6": 8920,
      "strepto": 8921,
      "streaming": 8922,
      "macclesfield": 8923,
      "peterburg": 8924,
      "josé": 8925,
      "glasnost": 8926,
      "olic": 8927,
      "wondo": 8928,
      "phenolic": 8929,
      "bactria": 8930,
      "mehrgar": 8931,
      "miller": 8932,
      "fahd": 8933,
      "bauxite": 8934,
      "neogen": 8935,
      "oribe": 8936,
      "seolleo": 8937,
      "stigler": 8938,
      "hooke": 8939,
      "aldrich": 8940,
      "gurdwa": 8941,
      "martel": 8942,
      "faurisson": 8943,
      "sardegna": 8944,
      "wenzel": 8945,
      "mashhad": 8946,
      "vatican": 8947,
      "andretti": 8948,
      "dayot": 8949,
      "everest": 8950,
      "fonseca": 8951,
      "quinn": 8952,
      "colapinto": 8953,
      "racine": 8954,
      "tophthora": 8955,
      "bulawayo": 8956,
      "rivera": 8957,
      "meegeren": 8958,
      "organic": 8959,
      "pharaoh": 8960,
      "ubtvqh14": 8961,
      "dreams": 8962,
      "dreamlin": 8963,
      "nordhaus": 8964,
      "phytophthora": 8965,
      "gomtang": 8966,
      "mahavira": 8967,
      "mahatma": 8968,
      "nicolas": 8969,
      "pierre": 8970,
      "pierce": 8971,
      "dhindo": 8972,
      "hassani": 8973,
      "pennsy": 8974,
      "slide": 8975,
      "lawson": 8976,
      "neroli": 8977,
      "ashkin": 8978,
      "associate": 8979,
      "safavid": 8980,
      "konstantinos": 8981,
      "blackburn": 8982,
      "jonas": 8983,
      "tsakhur": 8984,
      "erebu": 8985,
      "1181": 8986,
      "aphrodi": 8987,
      "apollo": 8988,
      "acanthocephala": 8989,
      "bnp": 8990,
      "beograd": 8991,
      "blainville": 8992,
      "creta": 8993,
      "dáil": 8994,
      "deok": 8995,
      "dmitri": 8996,
      "dinengdeng": 8997,
      "ethnomusi": 8998,
      "ekaterinburg": 8999,
      "ebony": 9000,
      "echeverría": 9001,
      "edouard": 9002,
      "fukushima": 9003,
      "floresien": 9004,
      "fsln": 9005,
      "grill": 9006,
      "geun": 9007,
      "grisea": 9008,
      "gdańsk": 9009,
      "gracey": 9010,
      "gfdrr": 9011,
      "h3n2": 9012,
      "icarus": 9013,
      "iturbide": 9014,
      "krông": 9015,
      "kırkp": 9016,
      "kósa": 9017,
      "kaliningrad": 9018,
      "knight": 9019,
      "knossos": 9020,
      "kwaito": 9021,
      "misano": 9022,
      "memphis": 9023,
      "mwanawasa": 9024,
      "nanak": 9025,
      "paulo": 9026,
      "people": 9027,
      "piston": 9028,
      "psychology": 9029,
      "qlvnch": 9030,
      "remix": 9031,
      "schmidt": 9032,
      "scholes": 9033,
      "shaykh": 9034,
      "stamford": 9035,
      "specht": 9036,
      "sprint": 9037,
      "scythia": 9038,
      "slayden": 9039,
      "sanders": 9040,
      "schengen": 9041,
      "szilard": 9042,
      "telecentre": 9043,
      "upazila": 9044,
      "vauxhall": 9045,
      "vsip": 9046,
      "vbqppl": 9047,
      "wireframing": 9048,
      "winston": 9049,
      "warszawa": 9050,
      "whiskey": 9051,
      "yukgaej": 9052,
      "yamato": 9053,
      "đúm": 9054,
      "́aiva": 9055,
      "̧escu": 9056,
      "khadga": 9057,
      "trouble": 9058,
      "honolulu": 9059,
      "annette": 9060,
      "corundum": 9061,
      "copenhagen": 9062,
      "coriolis": 9063,
      "rabelais": 9064,
      "rashtraku": 9065,
      "ambrosio": 9066,
      "dubrovnik": 9067,
      "angarita": 9068,
      "lourdes": 9069,
      "infestans": 9070,
      "dotara": 9071,
      "dollar": 9072,
      "romain": 9073,
      "rosalind": 9074,
      "routledge": 9075,
      "rodriguez": 9076,
      "émile": 9077,
      "taekwondo": 9078,
      "mosharraf": 9079,
      "morocco": 9080,
      "diamond": 9081,
      "contest": 9082,
      "concorde": 9083,
      "enterprise": 9084,
      "endangered": 9085,
      "museveni": 9086,
      "muhannad": 9087,
      "mutalibov": 9088,
      "tupolev": 9089,
      "sojourner": 9090,
      "argyre": 9091,
      "armagnac": 9092,
      "bucharest": 9093,
      "philadelphia": 9094,
      "virion": 9095,
      "vistula": 9096,
      "vīraśaiva": 9097,
      "thompson": 9098,
      "allāh": 9099,
      "almanac": 9100,
      "alberta": 9101,
      "alcibiades": 9102,
      "hülkenberg": 9103,
      "issyk": 9104,
      "ispolkom": 9105,
      "lacunosus": 9106,
      "capital": 9107,
      "rebekah": 9108,
      "reynaud": 9109,
      "reconquista": 9110,
      "macron": 9111,
      "macalpin": 9112,
      "rumelia": 9113,
      "kilômét": 9114,
      "gujarat": 9115,
      "gundruk": 9116,
      "limfjorden": 9117,
      "asturias": 9118,
      "nimeiry": 9119,
      "canterbury": 9120,
      "mexican": 9121,
      "levant": 9122,
      "sabatier": 9123,
      "narayana": 9124,
      "puttick": 9125,
      "vazimba": 9126,
      "pachauri": 9127,
      "mandela": 9128,
      "mifflin": 9129,
      "carcenac": 9130,
      "ghadames": 9131,
      "hedgepeth": 9132,
      "hebrew": 9133,
      "marbella": 9134,
      "probiotic": 9135,
      "mendieta": 9136,
      "mendeleev": 9137,
      "białowieża": 9138,
      "gepèèg": 9139,
      "morinaga": 9140,
      "salientia": 9141,
      "salīm": 9142,
      "zanzibar": 9143,
      "administrative": 9144,
      "languages": 9145,
      "aleksandr": 9146,
      "okinawa": 9147,
      "accademia": 9148,
      "clézio": 9149,
      "panamarenko": 9150,
      "jayaviravarman": 9151,
      "samurai": 9152,
      "pyrénées": 9153,
      "varsmakten": 9154,
      "hermotipe": 9155,
      "centimet": 9156,
      "mosquitia": 9157,
      "mesofauna": 9158,
      "eizirik": 9159,
      "gangaridai": 9160,
      "stefanopoulos": 9161,
      "farfalle": 9162,
      "mitsubishi": 9163,
      "montgomery": 9164,
      "frarabic": 9165,
      "shōchū": 9166,
      "dinuguan": 9167,
      "massachusetts": 9168,
      "försvarsmakten": 9169,
      "streptomycin": 9170,
      "mehrgarh": 9171,
      "seolleongtang": 9172,
      "gurdwara": 9173,
      "dreamliner": 9174,
      "pennsylvania": 9175,
      "aphrodisias": 9176,
      "ethnomusicology": 9177,
      "floresiensis": 9178,
      "kırkpınar": 9179,
      "yukgaejang": 9180,
      "rashtrakuta": 9181,
      "\",": 9182,
      "%)": 9183,
      "+.": 9184,
      "09": 9185,
      "217": 9186,
      "429": 9187,
      "54": 9188,
      "5g": 9189,
      "67": 9190,
      "69": 9191,
      "747": 9192,
      "87": 9193,
      "900": 9194,
      "945": 9195,
      "aw": 9196,
      "aar": 9197,
      "ahi": 9198,
      "aga": 9199,
      "app": 9200,
      "atata": 9201,
      "bp": 9202,
      "bạ": 9203,
      "bực": 9204,
      "bừng": 9205,
      "bấm": 9206,
      "bham": 9207,
      "bard": 9208,
      "bary": 9209,
      "brussel": 9210,
      "craina": 9211,
      "cris": 9212,
      "dc": 9213,
      "dw": 9214,
      "dở": 9215,
      "dận": 9216,
      "ddi": 9217,
      "djo": 9218,
      "dns": 9219,
      "ee": 9220,
      "edu": 9221,
      "edi": 9222,
      "eus": 9223,
      "eland": 9224,
      "eez": 9225,
      "evn": 9226,
      "fz": 9227,
      "falg": 9228,
      "feld": 9229,
      "ğ": 9230,
      "gươ": 9231,
      "gả": 9232,
      "gấu": 9233,
      "gấm": 9234,
      "gem": 9235,
      "gli": 9236,
      "gặm": 9237,
      "hác": 9238,
      "hắc": 9239,
      "hiềm": 9240,
      "ix": 9241,
      "ikh": 9242,
      "iland": 9243,
      "iger": 9244,
      "itz": 9245,
      "izil": 9246,
      "jó": 9247,
      "jdu": 9248,
      "jny": 9249,
      "jmir": 9250,
      "jafar": 9251,
      "jrai": 9252,
      "kina": 9253,
      "llo": 9254,
      "lép": 9255,
      "lle": 9256,
      "lhar": 9257,
      "lbau": 9258,
      "mướ": 9259,
      "méo": 9260,
      "m1887": 9261,
      "nê": 9262,
      "nda": 9263,
      "o2": 9264,
      "oải": 9265,
      "ogo": 9266,
      "ore": 9267,
      "oten": 9268,
      "ozone": 9269,
      "pét": 9270,
      "pci": 9271,
      "pko": 9272,
      "plum": 9273,
      "qizil": 9274,
      "rả": 9275,
      "rách": 9276,
      "rủ": 9277,
      "rin": 9278,
      "rdo": 9279,
      "răm": 9280,
      "rne": 9281,
      "rni": 9282,
      "rton": 9283,
      "rôm": 9284,
      "rpt": 9285,
      "snay": 9286,
      "scra": 9287,
      "saya": 9288,
      "scarbo": 9289,
      "sports": 9290,
      "swaz": 9291,
      "tặc": 9292,
      "tè": 9293,
      "tland": 9294,
      "twi": 9295,
      "tema": 9296,
      "uể": 9297,
      "uga": 9298,
      "upe": 9299,
      "ucraina": 9300,
      "vlo": 9301,
      "vạt": 9302,
      "vướng": 9303,
      "vồng": 9304,
      "whi": 9305,
      "work": 9306,
      "wroc": 9307,
      "xài": 9308,
      "xán": 9309,
      "yể": 9310,
      "yip": 9311,
      "yev": 9312,
      "zar": 9313,
      "zal": 9314,
      "zna": 9315,
      "zcal": 9316,
      "đao": 9317,
      "łsu": 9318,
      "łka": 9319,
      "ław": 9320,
      "̄zar": 9321,
      "̈ring": 9322,
      "̈rich": 9323,
      "ngả": 9324,
      "ngốc": 9325,
      "nhông": 9326,
      "nhủ": 9327,
      "nhái": 9328,
      "nhấm": 9329,
      "thản": 9330,
      "thiêm": 9331,
      "thầm": 9332,
      "thiêu": 9333,
      "thẳ": 9334,
      "trar": 9335,
      "chệ": 9336,
      "chói": 9337,
      "chớn": 9338,
      "chfeld": 9339,
      "ươn": 9340,
      "cuốc": 9341,
      "cuôn": 9342,
      "phết": 9343,
      "phèo": 9344,
      "khchi": 9345,
      "khand": 9346,
      "giâm": 9347,
      "gina": 9348,
      "quấy": 9349,
      "chiang": 9350,
      "hot": 9351,
      "hòm": 9352,
      "honda": 9353,
      "córdo": 9354,
      "nghếch": 9355,
      "coro": 9356,
      "cock": 9357,
      "comp": 9358,
      "cooke": 9359,
      "coupe": 9360,
      "rake": 9361,
      "rald": 9362,
      "thur": 9363,
      "amphe": 9364,
      "duật": 9365,
      "aoré": 9366,
      "ayev": 9367,
      "ayrton": 9368,
      "vùi": 9369,
      "ngọ": 9370,
      "phology": 9371,
      "ink": 9372,
      "dotto": 9373,
      "doğ": 9374,
      "togran": 9375,
      "xuồng": 9376,
      "lucha": 9377,
      "rong": 9378,
      "rọc": 9379,
      "rogen": 9380,
      "roger": 9381,
      "taáng": 9382,
      "tate": 9383,
      "tabi": 9384,
      "tabel": 9385,
      "mochi": 9386,
      "mobi": 9387,
      "mono": 9388,
      "mohammad": 9389,
      "monik": 9390,
      "mohác": 9391,
      "mojmir": 9392,
      "moore": 9393,
      "diq": 9394,
      "dica": 9395,
      "disp": 9396,
      "conte": 9397,
      "chùi": 9398,
      "ener": 9399,
      "enogo": 9400,
      "đùi": 9401,
      "muni": 9402,
      "muqa": 9403,
      "muji": 9404,
      "mułka": 9405,
      "sud": 9406,
      "sủng": 9407,
      "phum": 9408,
      "erlbau": 9409,
      "erdoğ": 9410,
      "tufi": 9411,
      "soi": 9412,
      "sophi": 9413,
      "soko": 9414,
      "sovan": 9415,
      "sotogran": 9416,
      "arthi": 9417,
      "arthur": 9418,
      "1925": 9419,
      "1928": 9420,
      "tito": 9421,
      "tivi": 9422,
      "philhar": 9423,
      "vian": 9424,
      "thoắt": 9425,
      "alain": 9426,
      "human": 9427,
      "voino": 9428,
      "nhùn": 9429,
      "bazan": 9430,
      "bague": 9431,
      "bāzar": 9432,
      "gos": 9433,
      "gouga": 9434,
      "göring": 9435,
      "gomułka": 9436,
      "2030": 9437,
      "2050": 9438,
      "ismai": 9439,
      "eš": 9440,
      "lanos": 9441,
      "lanie": 9442,
      "lagu": 9443,
      "lahou": 9444,
      "lagos": 9445,
      "hill": 9446,
      "himm": 9447,
      "himura": 9448,
      "boa": 9449,
      "bọ": 9450,
      "boko": 9451,
      "bolanos": 9452,
      "tayyip": 9453,
      "elam": 9454,
      "elvis": 9455,
      "cabra": 9456,
      "caram": 9457,
      "tysh": 9458,
      "tyarthi": 9459,
      "real": 9460,
      "rece": 9461,
      "mah": 9462,
      "mago": 9463,
      "made": 9464,
      "mahas": 9465,
      "masaka": 9466,
      "machine": 9467,
      "matabel": 9468,
      "ruman": 9469,
      "kic": 9470,
      "kip": 9471,
      "nea": 9472,
      "neher": 9473,
      "sit": 9474,
      "siemen": 9475,
      "sidd": 9476,
      "sidw": 9477,
      "tana": 9478,
      "tantul": 9479,
      "riel": 9480,
      "righ": 9481,
      "rizal": 9482,
      "ridotto": 9483,
      "lithium": 9484,
      "astana": 9485,
      "kerogen": 9486,
      "kemono": 9487,
      "mehdi": 9488,
      "mezcal": 9489,
      "melanie": 9490,
      "davia": 9491,
      "pona": 9492,
      "pose": 9493,
      "let": 9494,
      "levi": 9495,
      "lechfeld": 9496,
      "satp": 9497,
      "safz": 9498,
      "sadiq": 9499,
      "satyarthi": 9500,
      "nürn": 9501,
      "nadia": 9502,
      "naeus": 9503,
      "nakhchi": 9504,
      "natufi": 9505,
      "purni": 9506,
      "varad": 9507,
      "trafalg": 9508,
      "pavlo": 9509,
      "tamine": 9510,
      "deer": 9511,
      "mika": 9512,
      "184": 9513,
      "1814": 9514,
      "1852": 9515,
      "1873": 9516,
      "1871": 9517,
      "1839": 9518,
      "tony": 9519,
      "pỉnh": 9520,
      "picasso": 9521,
      "piłsu": 9522,
      "merku": 9523,
      "khứu": 9524,
      "lydia": 9525,
      "sek": 9526,
      "sepang": 9527,
      "venus": 9528,
      "heng": 9529,
      "heian": 9530,
      "bernard": 9531,
      "tail": 9532,
      "gaze": 9533,
      "gān": 9534,
      "gajdu": 9535,
      "cept": 9536,
      "ceaus": 9537,
      "pegu": 9538,
      "petrar": 9539,
      "kaze": 9540,
      "ppm": 9541,
      "101": 9542,
      "haram": 9543,
      "haji": 9544,
      "hawar": 9545,
      "haplo": 9546,
      "chaero": 9547,
[...]
